[PAD]
[UNK]
[CLS]
[SEP]
[MASK]
!
"
#
$
%
&
'
(
)
*
+
,
-
.
/
0
1
2
3
4
5
6
7
8
9
:
;
<
=
>
?
@
A
B
C
D
E
F
G
H
I
J
K
L
M
N
O
P
Q
R
S
T
U
V
W
X
Y
Z
[
\
]
^
_
a
b
c
d
e
f
g
h
i
j
k
l
m
n
o
p
q
r
s
t
u
v
w
x
y
z
{
}
~
¡
¢
£
¥
§
¨
©
ª
«
¬
®
°
±
²
³
µ
¶
·
¹
º
»
¼
½
¾
À
Á
Â
Ã
Ä
Å
Æ
Ç
È
É
Ê
Í
Î
Ð
Ñ
Ò
Ó
Ô
Õ
Ö
×
Ø
Ú
Ü
Ý
Þ
ß
à
á
â
ã
ä
å
æ
ç
è
é
ë
ì
í
î
ï
ð
ñ
ò
ó
ô
õ
ö
÷
ø
ù
ú
û
ü
þ
Ā
ā
Ą
Č
č
Ď
ď
đ
Ē
Ė
ė
ę
Ğ
ğ
Ģ
Ī
ī
Į
į
İ
ı
Ķ
Ļ
Ľ
ľ
Ł
ō
Ő
Œ
œ
ŕ
Ř
ř
Ś
ś
Ş
ş
Š
š
Ť
ť
Ū
ū
ů
Ź
ź
Ż
ż
Ž
ž
ƒ
ț
ə
ʿ
̃
΄
Β
Δ
Ε
Ζ
Η
Κ
Λ
Ν
Σ
Φ
Χ
Ψ
Ω
α
β
γ
δ
ε
ζ
η
θ
λ
μ
ν
ξ
π
ρ
σ
τ
φ
χ
ψ
ω
Ё
Ђ
Ѓ
Є
Ѕ
І
Ї
Ј
Љ
Њ
Ћ
Ќ
Ў
Џ
А
Б
В
Г
Д
Е
Ж
З
И
Й
К
Л
М
Н
О
П
Р
С
Т
У
Ф
Х
Ц
Ч
Ш
Щ
Ъ
Ы
Ь
Э
Ю
Я
а
б
в
г
д
е
ж
з
и
й
к
л
м
н
о
п
р
с
т
у
ф
х
ц
ч
ш
щ
ъ
ы
ь
э
ю
я
ѐ
ё
ђ
ѓ
є
ѕ
і
ї
ј
љ
њ
ќ
ў
џ
Ґ
ґ
ғ
Қ
қ
ң
Ұ
Ә
ә
Ө
ӯ
Կ
Չ
լ
։
ה
כ
ף
פ
؛
إ
ج
خ
ر
ز
س
ط
ع
ق
ك
م
٠
٩
پ
چ
ک
گ
अ
प
ल
ह
ჟ
ჰ
Ḥ
ḥ
ὁ
‖
‚
„
‟
†
‡
•
‥
‧
‰
′
″
‹
›
※
⁄
€
℃
№
™
Ⅲ
←
↑
→
↓
⇒
∅
∈
−
∗
∙
√
∞
∨
∪
∫
∼
≈
≠
≡
≤
≥
≪
⋅
③
─
│
└
■
□
▪
▲
►
▼
◆
○
◎
●
★
☆
☉
♠
♦
♪
、
。
《
》
「
」
【
】
っ
で
の
み
れ
ア
ダ
マ
・
ー
一
丁
三
上
业
严
中
五
京
人
仙
伊
低
何
全
八
公
农
利
到
務
北
区
医
千
南
原
口
古
台
后
告
咏
器
四
回
大
市
海
町
路
（
）
：
de
the
in
##s
of
la
en
and
##e
##a
to
##n
##i
The
der
un
di
que
на
##t
is
el
se
del
die
##r
und
et
na
##o
was
on
##en
##u
des
den
le
for
da
je
van
as
##m
sa
do
10
an
les
una
il
by
og
##y
2011
La
at
##l
##d
er
al
##er
von
In
du
with
av
##es
med
con
##k
2010
est
per
##а
2000
som
los
por
2012
12
from
that
De
##и
no
11
2014
2009
es
20
su
ISBN
ja
2007
2008
km
##е
##an
2013
15
om
im
com
##ta
2006
dan
##te
18
##na
para
mit
2015
El
his
##у
ha
##da
##ing
une
24
за
Den
Die
##h
##ne
##g
##м
das
En
30
##in
##re
14
par
13
16
##us
2005
##de
2016
au
25
000
dans
he
che
##on
2004
em
##н
dem
##ch
19
it
2001
17
°C
til
2002
се
han
##ia
Le
Il
##le
las
della
New
##ra
##is
##ы
um
si
2003
21
по
var
are
2017
op
zu
##z
22
##et
were
##os
od
son
An
26
World
##о
##do
which
##ja
va
pour
ve
1999
##ti
sur
23
##la
от
##é
года
II
##ed
Life
war
za
##to
##se
##ni
##no
до
or
be
28
det
##c
##т
##і
##х
##ar
qui
He
az
te
##va
1998
##ом
27
mm
##та
##nt
##ma
##ka
had
не
##ng
It
also
so
##je
##й
##я
29
из
1996
##li
1997
am
has
dos
ur
##ie
##ri
entre
##as
University
да
lo
100
##на
##p
era
31
ni
##al
##j
##ce
1990
John
first
##ca
##ment
os
met
од
ou
##ов
2018
all
1995
во
##ko
aus
1991
##ó
1994
Der
non
##si
1992
##em
af
har
##ly
their
ar
##b
film
50
1993
one
##um
##sa
bis
Les
San
##ă
not
but
its
та
##v
ir
who
ny
York
##ga
her
##it
ang
Mexico
over
bei
ser
www
году
dei
##mi
##ki
##ми
##к
##с
po
History
##л
##р
для
##ка
door
UK
1989
##ge
##at
dat
runt
have
this
40
American
##ba
1980
ed
##в
species
##í
##ur
este
1988
ya
##ke
two
ne
http
Ang
amb
##st
plus
##ro
Press
##el
under
##f
On
1986
zum
1987
1985
978
meter
су
men
##man
been
dell
ini
##ю
din
September
1984
##ci
Saint
##ul
##ndo
album
1970
qu
United
ao
##mente
##ve
mais
Annual
Kirk
##ся
oli
##me
fra
Reading
Los
Michael
sie
##den
time
##но
##za
##io
NASA
1982
1983
##ки
III
1981
National
##ни
No
DEM
##á
after
1975
Det
##or
part
01
1945
dia
Das
##ла
1979
##nya
1972
come
##ya
red
##ten
other
Na
##x
France
they
##om
1978
William
##не
##те
1968
1960
был
##di
1976
##kan
##ek
into
60
##ak
till
##ı
##lo
##ung
ble
06
##ів
1977
1974
1973
May
aan
Paris
##2
ka
##S
1971
org
Mer
August
mai
##A
up
ng
##д
This
new
##то
aux
##ny
500
##ho
##1
##ju
1969
Jean
International
Paul
City
##lar
##ji
200
На
км
April
##ли
att
что
iz
ce
sin
Im
##go
more
nan
1967
pas
35
David
ei
##ts
US
1950
##co
TV
04
##ler
##à
man
Han
November
Robert
##tion
##г
ma
1944
45
1962
London
05
80
she
##ir
St
1965
ad
when
32
65
sus
due
##ь
##ва
##ku
cu
years
1964
1966
##C
States
fan
Het
са
##ze
later
##w
1961
##ter
07
ki
или
1941
As
Al
##3
##ë
County
1940
##ns
only
would
1939
##ik
James
##ers
1963
03
##ry
me
Es
при
Er
##sen
90
##des
##ha
70
year
Charles
##ban
##ен
##0
pa
его
during
where
ze
##rs
can
1958
between
как
out
wie
George
со
him
##ти
##ben
alle
##ren
##ных
##sta
1956
##rt
about
Peter
1959
02
School
comme
##да
1943
##го
##tu
most
##ма
33
three
1948
fu
##am
##ou
##4
Earth
##ä
ben
##от
1942
made
англ
##ria
ye
##ov
00
1957
1930
1920
##il
used
1954
##mo
09
vom
##wa
Un
##jo
##ica
##be
Se
##ion
such
##ного
08
known
36
South
ta
then
он
USA
##ken
1946
You
Maria
##ina
34
final
1955
League
##ной
population
##п
##ра
##land
1938
##lla
than
nu
1953
##ine
##T
##ный
300
IV
1949
Thomas
1918
India
1952
All
State
##ской
##un
Oxford
club
July
1947
##zione
Richard
##che
June
team
Az
1936
44
##P
##ner
##ic
care
second
ca
##ok
##ig
##th
March
##nu
##ш
She
some
##ada
Santa
there
##ste
##ut
British
pe
Film
ke
West
data
##5
gli
area
co
38
1937
born
400
any
became
##dos
##ton
##ского
##que
vor
##ку
place
Berlin
##ные
##ty
##tes
including
1951
pod
##ble
37
##das
well
cm
##gi
##6
October
##nen
General
through
being
North
season
##nte
##ll
##ea
##res
Martin
##ant
January
Park
##ан
##vo
1933
Love
##id
hat
ko
##ssa
database
Po
Society
cho
##ть
##E
##ck
tra
fost
##les
##ning
##lle
1935
##ado
##R
##B
##ske
42
War
но
##gen
##I
##zi
1934
pro
1919
December
Em
##ot
##ой
##ist
64
##nie
##ista
many
48
After
39
##der
##7
1914
##ны
nord
pp
##vi
Database
Europa
Club
Music
Grand
ci
де
name
Museum
against
prima
fait
1932
Louis
##nia
1929
will
total
One
bi
Man
1928
them
ai
##га
##berg
41
як
nur
##pe
world
ab
55
##pa
before
original
family
series
won
1917
##L
43
while
ale
##9
single
Joseph
uno
##nde
1931
##ский
may
state
general
##tas
Records
school
solo
##8
Art
For
##ski
##O
base
##ent
via
nom
both
47
1924
75
##men
ex
work
people
под
Encyclopedia
области
gran
##ски
##lu
local
mars
America
Lake
1927
until
##ky
##ger
##G
также
была
##ý
College
##ца
Union
Ny
##du
1922
##cia
1925
##ura
1921
To
wa
1926
contra
Van
##ii
##sk
По
##ol
##ska
history
number
##ad
##D
##них
го
##nes
##mento
bu
Am
##ия
Nach
1912
February
##ї
System
Award
King
anni
##M
Las
bat
hi
1923
51
52
Nacional
##tt
46
FC
##by
sem
##ний
##lt
##nd
##N
released
##ien
##ai
Elle
Cup
House
sig
##ная
##ий
called
played
Italia
##ке
same
##F
##ст
1900
band
##з
end
nos
River
ду
##он
49
было
Sie
city
1910
Washington
##ach
Me
My
##are
China
Tour
Royal
His
four
##son
ing
Henry
##ло
##ert
1913
village
##len
Pierre
based
Dr
##ет
li
English
tre
vid
Italy
##ron
California
##ita
##ко
##ies
##ire
56
##ian
##ana
Canada
re
##cht
Red
##he
##bi
CD
были
IC
principal
54
время
Indonesia
kilometer
sud
game
то
##lich
Italian
##so
anno
##ische
Smith
version
##ks
ug
##ud
##ru
1915
public
Juan
dit
##ным
long
They
Cambridge
At
England
##q
Air
##au
коды
##ier
##cy
За
што
##mu
##ник
Center
BBC
There
##ida
Madrid
Runt
Australia
Best
sau
early
##K
ut
several
1911
Company
Don
Si
##ей
##ч
##ls
Black
Association
##ну
53
Christian
dont
##im
use
84
these
Hall
since
150
Europe
Hans
ten
Festival
land
former
##ри
##ini
##V
UTC
##han
go
Mai
1916
system
##bo
Do
Daniel
Roma
group
600
Francisco
##nin
##му
Jan
##ation
1905
##tor
же
home
57
Da
1908
дар
##dae
found
58
station
fin
##ius
East
##сь
Marie
Star
music
post
national
high
set
Island
##dor
like
##ле
1907
##ux
mas
##vat
now
ra
##nda
Karl
##lik
##idae
59
fut
Frank
Antonio
##iu
Stadt
##ker
Central
ga
nei
##ang
##ды
Japan
French
kg
XIX
show
off
##ок
800
following
##ии
##ua
##chen
itu
##ico
##ted
premier
European
ban
Bu
##ice
Open
site
после
major
##hi
Band
Journal
1906
Od
art
1904
day
began
##ive
century
1909
##ling
each
##ity
we
##ata
located
було
High
##dir
District
Street
село
##sti
Als
##gan
год
##ven
Zeit
##ер
95
##ская
Per
Edward
##zen
Division
net
service
##ui
held
Population
Mark
##ei
Time
Land
Nord
Lee
##°
member
населения
song
##ци
##rio
back
##era
##са
85
##ова
Times
##U
##rd
##ж
German
##nik
bien
##ин
Institute
Is
sul
named
##ами
hun
seg
##ville
##sch
government
120
Carlos
км²
Group
##lan
unha
##tan
nad
##ene
Alexander
их
Live
62
XX
РФ
като
Према
88
Hij
large
video
Modern
mot
Radio
Os
age
##lor
##сы
##zo
##cie
company
##ure
life
##ley
district
його
Rio
##ran
през
Barcelona
São
production
line
##ль
##ын
72
meg
##ere
так
##ris
main
fr
First
##kin
##tte
mi
ali
Index
White
Team
##ting
social
Information
##dan
Science
Una
took
##nce
России
left
##ском
Rock
Data
Op
around
did
could
1903
Mary
##bu
82
##ц
built
##ска
capital
1000
99
form
##сти
##tta
##ты
Friedrich
However
Ein
fa
##ber
250
66
News
region
town
From
##ale
86
Carl
lan
pre
##ство
Angeles
##val
Simon
kom
When
##ère
##burg
rock
side
где
play
present
1901
63
##ah
СССР
sy
VI
Brasil
##де
##ния
Su
Von
Tom
##age
if
##sche
##tus
##є
Atlas
water
##ksi
Hill
##ique
kingdom
received
bio
Jones
Anna
##ano
1902
published
##ського
##ido
word
96
##ства
1890
61
67
Chicago
mar
81
served
98
97
point
##ros
Santiago
mort
List
Championship
Jack
Bureau
##ino
##mann
##cu
##ою
##dy
match
Awards
Roman
Day
mu
include
top
700
##ü
68
##mer
because
etc
Juni
pri
##ат
within
Real
##ms
му
##ito
##ном
Son
##H
central
##inen
Por
along
five
Sa
83
того
record
##jen
said
Internet
##ego
Albert
Culture
Marine
76
radio
том
andre
##ate
##ima
##ских
six
ва
important
##ium
##ens
92
director
PDF
members
Texas
last
##ого
million
small
Album
##ari
Young
93
Big
died
program
football
What
1898
78
Williams
##kt
Football
два
бассейны
best
Walter
##ono
71
Este
bila
media
91
##aan
##wy
77
##б
Party
international
74
##lis
##leri
jo
own
Indian
73
Vol
##zy
1897
During
1896
##rat
##lig
vo
death
very
##ции
час
##ver
DVD
air
1899
##gt
69
vers
##we
Academy
##ем
87
##nja
building
##sten
##ах
##gu
satu
Great
ela
Under
Sant
##nis
1895
popular
##лі
Lac
lang
id
mis
control
Of
With
над
##č
##ld
##ное
Brown
Во
аса
third
##let
##ques
па
ele
services
89
Nam
Werner
still
Road
##rum
mei
си
Bei
како
##ге
Wilhelm
centre
##ите
##X
##pi
those
##ara
col
##od
##ys
##tti
Top
##ие
fou
And
Church
её
children
Mit
Night
##ite
##pen
про
##ј
##per
vol
##ez
By
##og
ter
##ную
##ato
1889
country
1880
##nak
ia
##use
або
##сть
Version
##ele
included
##ал
Jacques
mayor
book
94
##ня
##nti
##ди
##ser
north
Army
lat
##ster
##ар
України
##ue
лет
Germany
США
##sia
eds
була
Asia
##ras
##ret
Super
causa
points
79
wo
ano
через
1870
Grande
##ту
##ova
##sko
##chi
type
##ile
President
Scott
tai
Luis
##sse
##tar
just
Council
##ane
##ija
Social
Australian
нь
##iva
После
Prix
Centre
tour
##ş
ces
Con
као
Pedro
Sir
Argentina
Max
led
##ых
another
We
##bar
##ена
##ye
piano
Africa
So
near
title
see
##su
##ць
1886
old
often
Iran
different
##нда
##rie
Windows
1885
##kom
##sel
Harry
Mr
Verlag
##ona
##mas
dar
1894
##one
player
information
##ade
president
Department
##ський
down
Little
Arts
Portugal
##ция
Di
nas
Power
##line
##van
position
Research
1893
##ft
live
Meyer
##cha
Jr
1892
который
##dd
groupe
role
Blue
what
има
##net
Sciences
1891
##ais
##eur
VII
order
Israel
##цы
##aren
web
это
car
late
##ey
hoa
##ira
##их
bet
described
Deutschland
без
##uk
##lin
career
grand
##ore
Men
you
Dans
климат
##ena
##W
##ча
##ков
Global
##ise
##vu
##est
1888
tu
110
XVIII
moved
##ika
##rn
Joe
plan
Green
Lo
Adam
Good
може
fel
##zu
hai
##ят
були
Wilson
make
XVI
##uri
studio
##able
##ор
Co
Creek
более
Manuel
##sis
##се
monde
ez
Ed
again
Nova
##ним
period
##vel
##een
##ali
Arthur
##ring
##ves
##ина
south
support
Bay
##ses
Chris
##ges
##ам
Bill
Western
але
##ard
Jackson
way
much
ho
##ente
Song
человек
power
##ih
women
model
father
musical
##ham
##ende
##tra
Au
Serie
similar
Two
house
Law
##lia
Chile
##ps
html
##лар
##eri
Her
##ès
между
1878
##ша
##rea
Series
Mae
Johnson
Names
established
even
об
1883
maj
три
These
law
##лы
Li
##ati
article
##sh
##ds
Mike
Platz
Gran
Michel
##ix
##tic
level
1887
Thompson
##ев
##nom
face
Giovanni
Chinese
München
far
Ben
Register
Long
Steve
##ami
##ula
suite
##ide
##це
##tos
##ee
##ala
место
Philip
##ры
##ons
им
among
hier
##cs
games
opera
1860
cap
Ce
Media
Dit
Office
##met
style
Sud
community
##het
##ната
Paulo
##op
##tik
1884
##ът
##fa
##nza
##via
Heinrich
full
##yn
using
came
Force
##mos
##ford
130
##ба
##ше
##ком
##cher
##ism
written
Taylor
kot
##issa
development
##ç
construction
##field
natural
sai
является
list
php
##ss
1848
debut
1882
1881
produced
##tis
fine
##ici
Lord
went
right
Show
next
аз
lub
modern
started
##ил
become
стал
Russian
times
Columbia
##nan
##rna
case
##eg
##им
##urs
##ым
Russell
ru
min
##tat
real
против
Service
Anne
Are
Para
##ous
students
##ell
През
given
Une
1st
1871
Roger
реестры
Ali
##ел
##po
Billboard
##ши
married
##mus
UEFA
uz
##rer
Bank
Women
##nn
Kim
material
##ние
900
##mes
various
января
average
Your
fire
##ingen
##ию
##ese
##ско
Year
шп
round
ба
Otto
take
website
head
##bra
##ф
Bob
##cio
gov
##за
let
class
##ht
##ral
Inc
1861
Henri
те
них
story
Мексику
ac
1864
Malaysia
1857
1879
Virginia
време
##tica
##yi
Empire
Entre
That
##би
1800
##ket
plu
##eren
1876
Up
fer
Wien
##llo
Victoria
without
date
Esta
мен
Florida
yo
having
Reference
Republic
Boston
design
election
все
sia
Special
##tz
mer
##си
состав
language
Queen
FIFA
store
VIII
##iem
один
##ют
Program
short
pop
term
только
##hu
##bre
forces
Alfred
##rte
west
political
download
Francis
##ero
Ha
##igen
Ma
created
Francesco
##ement
Tony
division
Franz
около
Unis
##gang
Lewis
##bus
##bel
Old
cc
1877
##rin
##тар
##ili
ft
##los
1873
1863
##ви
1810
metal
Je
1875
nr
##ila
however
Book
города
##ging
Des
Commons
1865
Natural
##ff
1867
few
##ля
east
Digital
African
Sky
века
##vis
##ram
Japanese
160
pays
##dia
professor
announced
worked
##rar
1868
##ните
##ede
##ый
Stephen
Patrick
sei
Ray
ima
##че
Villa
half
войны
1850
##iv
Some
Google
##ong
XIII
online
Robinson
Home
Costa
##iti
##ando
Miguel
dy
Johannes
180
joined
##jas
##if
Region
project
1500
##rus
See
economic
structure
Romania
Buenos
route
eo
ass
Nature
field
1866
1872
SS
XVII
1859
theo
vita
vir
wrote
vi
140
Ia
Aires
free
Airport
##Z
Sun
Act
##ding
updated
она
Brian
1869
##ern
##heim
него
##las
##ett
sub
1862
days
##jon
Georg
##ña
##nas
Wikipedia
##ay
Andrew
##elle
Books
Lady
works
##ness
Mario
actual
##ani
God
Amsterdam
Pro
Fernando
Canadian
Studies
race
Bad
которые
returned
1874
Oscar
bol
party
military
status
fi
125
XIV
professional
Online
Eric
##ella
Game
month
kde
actor
##tre
##ника
release
##nts
Za
##lus
Institut
founded
##tive
Guide
open
##lli
Fue
Hot
Publishing
run
Korea
XII
XV
Court
##nus
2nd
lead
research
Dictionary
EP
Ludwig
##uta
мая
https
##ги
101
win
possible
faire
##way
##ться
##nica
##bach
color
Wales
Oslo
##vas
Point
Library
miles
##ве
homes
business
According
Mission
Marco
civil
television
августа
hem
inte
Elizabeth
lost
Victor
Jim
human
Second
Auf
Prince
Entertainment
##tal
##ae
##ties
Como
church
action
##her
##чи
##zer
##una
##iro
рус
##xa
tant
recorded
together
every
People
##tro
rei
Set
Miss
Ta
anti
##illa
elected
Ford
района
##owe
Dan
Century
Sam
##osa
##bles
они
##ген
continued
films
Davis
dio
Mount
considered
Wolfgang
making
Station
Project
office
ok
##скан
Alan
track
##ро
moment
##ется
Claude
##cus
episode
Be
chi
Fort
Carolina
body
##ori
При
IX
province
##bia
той
##ре
##ными
example
Nr
##ские
Minister
Line
##ру
Most
##isk
Gold
##rne
policy
edition
##jan
opened
ere
syn
Town
ti
##hin
wife
##nos
Professor
Valley
##š
##wan
##кой
Model
kas
##ich
##мен
##fi
teams
##ман
##ик
##ins
##gar
event
До
Российской
##ille
news
##lige
Golden
этого
##ске
performance
##lse
##san
Cruz
Carlo
prema
Go
мм
eu
##ful
DC
Jersey
geographical
Bernard
Zealand
Sur
Corporation
##feld
##ін
active
bug
##haus
##ntes
Stone
Sydney
Susan
special
Austria
Committee
##uar
био
##set
Other
марта
Federal
result
##del
##bb
##lio
put
Games
Development
Out
##kel
Princeton
Who
qua
Um
105
##ag
Roy
Girl
##ович
##ct
Климат
##kou
1830
If
Post
sent
##ments
areas
этом
##isi
##dal
части
Foundation
Ernst
Eesti
Sin
appeared
реки
##nog
Space
##ose
##йн
Kong
##ые
available
Government
##nar
##ces
further
lag
front
##up
private
Rome
села
Pacific
##ait
While
##fe
stand
менен
Stockholm
san
growth
##ую
Master
##она
Miller
working
Latin
Кеп
##ана
common
living
XI
developed
formed
others
Web
Ireland
##oi
##oni
##ante
Hollywood
##gas
Public
Kingdom
##sson
##ean
##ая
Story
lu
район
Spanish
##ння
Russia
Diego
embargo
census
novel
##ское
##mar
##сті
Bruce
study
##ме
била
Review
Он
1840
##Y
ки
декабря
##pus
Order
eng
Premier
##rono
entry
Va
##eta
Pennsylvania
Islam
Alex
science
official
##nta
Port
##kat
##К
град
young
Sea
Board
Budapest
бар
Anthony
##and
kad
##ggio
##чно
##wood
##ения
addition
himself
##ete
##zia
Part
great
signed
although
Navy
##ено
июля
##oa
Network
Movie
##hen
##С
never
how
##ська
Regional
бил
interior
tras
Battle
Last
##ган
Milano
че
cultural
102
should
Can
Samuel
Family
##isen
##ette
Ort
само
lett
##fer
NBA
##tie
Douglas
neu
Its
##ivo
court
Rose
##ao
map
1858
playing
Fox
составе
Main
disco
Non
##dt
section
##зи
appointed
##nou
Gordon
park
##ö
collection
##werk
Civil
once
##get
Disney
Monte
ant
tam
две
Illinois
hon
Final
Du
##ary
personal
sea
idea
municipal
Республики
Commission
away
education
##ora
hit
Roberto
##ych
##dra
Georges
Santo
##lag
##min
Summer
##ск
##ера
How
Country
годах
##pt
##жи
##ків
current
standard
июня
must
##less
vs
Major
cas
##iya
350
Video
##чки
##my
nich
##zza
Trade
Anderson
##ans
Norte
leader
particular
##ör
Hamburg
Microsoft
##cos
##tions
##vet
сентября
force
mil
police
октября
fast
person
black
Integrated
pot
1856
ред
##тан
Sport
Education
##owa
##ени
1854
Report
classification
Casa
kilometers
Hong
return
##don
diverse
Howard
##nto
character
Heart
File
Allen
though
##zh
Like
does
##ela
taken
Plant
свою
104
##чка
##па
##pan
Southern
aver
Massachusetts
my
ham
Ltd
across
Mountain
process
Three
##tto
Nations
start
##ama
1849
opp
##ola
Theatre
culture
square
hy
##ast
##det
books
tan
stor
##ava
sine
##tek
##lari
##iste
mal
##kar
##ota
##дан
good
Joan
tid
inn
##cion
Planet
sang
Anh
Village
help
Colombia
1855
Frankfurt
guitar
dies
hand
Georgia
##ика
Volume
##mis
##rsi
festival
daughter
Christopher
zone
source
апреля
genre
Marc
округу
Toronto
motor
##iden
white
##нь
Catherine
##º
##во
##лары
Soviet
тому
Business
performed
когда
events
Greek
ada
mother
##нан
код
families
жер
minutes
less
1852
Tokyo
стала
cause
currently
Tim
Mexican
мира
kod
get
gen
Norman
3000
terra
sold
##sto
##iga
##vy
drama
course
Manchester
фр
Northern
##ить
энциклопедия
415
gave
largest
##tin
stage
##sin
Magazine
Moore
features
Kevin
upon
Will
Федерации
Boy
##ries
Deutsche
Harper
##art
##ping
Stanley
alto
Minor
##vos
Philippe
170
Hotel
##чна
##gia
##J
##stand
##ших
фон
##aria
Human
Walker
includes
##ott
Pakistan
magazine
Middle
ani
directed
Gabriel
ноября
change
oa
songs
FM
##dar
##ias
Death
##lta
##тер
##hus
Catholic
Численность
Hoa
##vin
Director
Universal
road
##imo
sale
##nne
sense
которых
Finland
ins
alt
Sports
##its
quali
designed
Gary
DNA
##port
Bell
##ала
##asi
##гу
##ish
уже
m²
##ста
Ze
Small
1851
text
ordre
##ща
Jane
Johnny
103
ger
months
originally
issue
##fen
Maurice
##dom
##house
##ню
1853
sol
parts
shows
##ному
ensemble
##wie
##leg
7th
##tore
##ios
Москва
генерал
Since
##yo
Ab
Est
других
direction
range
Beach
mid
mod
##ья
usa
##din
league
##ient
##ial
format
ад
Irish
low
##king
center
Ivan
vu
tri
гг
##tel
Hitler
##bile
groups
climate
ги
seen
##мы
1846
Way
Province
Cross
наук
Для
regular
##tum
##liga
115
Light
##ови
##mia
ba
followed
planet
чтобы
Venezuela
ku
##tur
Centro
coach
##gs
Over
##ev
Johan
##lon
##али
##red
##jes
##ngen
disse
##menti
training
це
##ына
Name
Mar
brother
Clark
##ности
##tori
Mais
##зе
Josef
Fall
##ров
други
годы
1847
light
seven
##ек
##mit
##гі
##gh
1815
##usi
completed
Although
Kelly
double
##rak
##cal
##hn
##лык
##zar
##like
Milan
Meter
##ит
220
Marcus
Institution
##yon
111
Ontario
uns
Jesus
Hermann
##iz
Dance
bad
test
центр
февраля
pag
107
108
Hamilton
##oli
часть
size
территории
##gio
superior
cargo
mise
ISO
най
##well
ante
negli
##bau
featured
Сан
killed
Ann
##ions
Stand
ст
sue
Billy
dir
истории
Mann
Wild
semi
volume
cara
##smo
usually
countries
##rik
throughout
1845
##же
##ским
##tico
bod
Back
##wi
Health
##lde
360
##oon
районе
Vietnam
reported
Hugo
More
1842
##ec
Nelson
##zio
Technology
immer
Puerto
##uit
finished
Del
page
##yan
Philadelphia
remained
несколько
##car
Congress
Edition
##ду
период
##скую
##eo
Field
surface
Down
cum
schools
Barbara
Fire
##ades
240
leading
players
##ture
transport
Hospital
##П
##ове
Britain
above
##gel
Not
software
Studio
1844
Sul
##dem
ABC
sites
DJ
това
Alice
close
cover
##ones
##ap
ещё
Dave
##xe
individual
##hed
college
106
Moon
может
било
gas
##uan
Sri
Andrea
##sy
either
##tud
contract
##лу
##ule
##sky
week
##shi
##mal
Free
Nick
Directory
112
##ony
вид
begin
love
Near
##kte
SAD
Jazz
1814
Spain
awarded
aircraft
1837
drie
Jorge
##лен
век
##дар
адам
Vincent
##tia
##ха
bay
esa
Val
##цию
Dark
128
able
Lawrence
space
##ech
##ult
Rudolf
simple
##stein
которой
##bes
##sed
##fall
1839
eight
Theater
Jimmy
Zu
##wski
Et
клуб
Adolf
##rse
##ение
Anton
Med
след
involved
##uto
Hun
##lah
1834
About
##int
Single
hab
1835
##ches
день
Code
##mon
Nobel
added
bin
federal
##rta
109
##ving
least
##rk
Charlie
pol
получил
Eastern
##ort
states
##nh
много
persona
##ини
Khan
##oja
eventually
gang
ek
Come
attack
##å
formation
##ран
1838
Dead
##ось
##pes
PC
##sing
Guy
135
Jordan
##bor
##nio
Era
##шы
##led
Ana
##ors
##gue
related
##gos
дека
Blues
metres
Jonathan
Later
##film
##ming
##tle
Porto
artist
Ten
Junior
##су
##dre
##ab
##nice
Mas
Conference
би
plant
Boys
##kov
1843
Donald
##kas
##сон
##nna
Nicolas
##rice
##ак
кои
regional
degree
##ance
Ryan
student
##bin
replaced
cases
##ай
##ший
Management
##eti
provided
Jacob
##nder
1831
##чу
##тов
rue
которая
unit
wis
Amt
Course
Gruppe
Duke
одного
др
sta
##iche
##sal
medal
см
winning
vice
Sarah
casi
##aire
Channel
Ele
self
hos
Terra
##cho
##чен
Ian
##ати
independent
Tropical
goal
##pp
##ized
1812
1836
editor
своей
##rit
ul
##ow
область
1644
producer
##ила
роль
nature
га
certain
competition
1841
star
##од
normal
117
группы
##dorf
Stadium
участие
времени
Franco
Winter
##var
##ovi
##ун
Museo
Bruno
190
##over
Harris
studies
Rosa
western
став
##ийн
##vad
Com
##ара
too
Keith
##ец
Ross
rights
##lat
camp
clubs
1600
future
seme
450
ver
##az
Gesellschaft
##ania
Chief
экология
Kansas
Atlantic
##py
previous
Harvard
little
##uma
Railway
##цев
1832
Girls
Apollo
##hr
1833
female
Brazil
systems
##ден
##logia
Four
1820
End
##ario
Frau
MTV
Third
##ення
Jason
Haus
Teatro
3rd
Andy
uk
##цу
##ute
Benjamin
Renaissance
##bio
##llen
##eno
##нд
##ef
##sus
##pis
##wo
wel
Head
##eu
Opera
Salvador
Machine
##А
##чы
##ře
двух
##ischer
##У
Herbert
rather
Baker
pay
provide
Islands
port
Oliver
publication
##или
whose
##вали
##ats
Leo
Fred
230
##ym
pdf
1793
ще
##эн
##ase
##ped
Sierra
Asian
Scotland
night
placed
затем
##och
canal
ground
Алматы
Mac
fourth
digital
Erik
Form
Graham
ему
minister
городских
direct
manager
don
ag
Lincoln
##aux
Collins
##ций
##ческой
Adams
bass
член
Александр
##ата
code
river
123
Matt
But
114
Wright
##ics
label
Songs
Hy
##ward
всех
113
ami
##dio
##weg
##ней
success
health
##кий
##ол
ISSN
owned
Body
Prize
##umi
##ned
##xo
##gal
review
mission
Tag
author
##лись
introduced
ever
##oma
1821
ran
arts
##wer
вместе
750
##hl
Fu
##ento
Castle
stated
seis
себе
Baby
##нт
##lles
Champion
mois
Justice
reached
млн
orbit
##ides
Nazionale
dr
116
Libraries
##lte
##ность
Another
Welt
Colorado
saw
##gy
Just
##ое
Jewish
Now
almost
movement
составляет
210
Frederick
Morgan
##ets
legal
##bal
Gustav
Let
##isten
management
находится
behind
southern
Today
Morris
units
качестве
##kog
Revolution
##ников
basis
network
Historical
##нето
Robin
##dus
##ёт
Charlotte
Studios
Selected
UNESCO
Bayern
##лся
##dig
Guinea
Object
нем
Apple
complex
Jeff
##inin
Cuba
Gallery
##sme
##rde
quasi
scored
1200
Express
жизни
##нии
Straße
##und
экз
Many
epi
Corps
Wang
##hausen
Daily
##жа
mat
раз
CIA
Edwards
Championships
Christmas
Contemporary
decided
##sz
##ament
3D
1825
length
pak
##ities
municipality
Mars
одним
parents
feet
##pin
influence
tale
ship
market
Fritz
conditions
Dream
права
1700
campaign
Raymond
brought
successful
commercial
rest
northern
Andreas
Paolo
ob
Ces
Survey
##кан
Medal
среди
##sar
island
##ница
##lang
Vilnius
людей
Arab
##ця
need
produce
##fica
##ель
Stati
Doctor
reste
county
approximately
Age
tournament
##ord
##aa
1829
Stefan
##tiva
##sie
Praha
kW
##stan
male
sector
121
AS
##kon
industry
Bridge
instead
##gne
Papa
stati
Sound
Par
однако
5000
##ip
Cultural
turno
Champions
##dis
THE
1828
our
Captain
001
Place
1806
##kal
elements
стали
results
##sion
required
##kus
Orchestra
elevation
Memorial
Pietro
previously
##mat
122
##ес
ua
##pu
especially
Stewart
##gus
дел
Coast
##jar
##cer
Laura
##bil
##out
118
город
род
##non
LP
##mm
Euro
figure
Sultan
##ction
traditional
Gray
складу
feat
Get
лат
below
Однако
Coupe
Their
report
jazz
outside
writer
##endo
Обь
Pop
Angel
Steven
Санкт
Muhammad
means
Bishop
аст
которого
##esi
organization
listed
itself
Garden
127
corps
honor
Ez
##ются
lived
Grant
Ao
##nel
##ib
sometimes
имени
##ical
есть
Miami
primary
Woman
быть
writing
Kr
##eli
interest
Bull
##lie
aki
##nal
YouTube
Forest
Berg
##ione
Rafael
району
Official
Route
Бассейн
bit
Jerry
seat
champion
така
Dutch
Dom
changed
attended
Water
##pel
score
Marshall
Play
SM
##mba
Collection
Silva
plays
award
Design
Arnold
continue
minor
Sons
Jon
##yer
EU
ул
##aja
##ude
FAQ
##ева
##nk
Mix
##хь
train
Airlines
buildings
переписи
Pas
##овой
past
Gli
Melbourne
##ники
##ologie
str
##jer
1802
##sos
Dame
##има
армии
Primera
126
Area
аб
Kennedy
theory
##eurs
museum
##nici
1824
dog
conquest
senior
stal
featuring
issues
aller
##лер
Warner
числе
280
find
Standard
145
soon
Chart
complete
Poland
Avenue
##hip
1789
чи
##ein
1813
##erne
paper
Stars
nou
себя
##lly
view
##ual
Wisconsin
1826
significant
runs
данным
##town
Murray
Assembly
Monitoring
money
sport
##gon
##worth
bronze
##zet
1818
AG
board
##ndi
Families
administration
##tua
Lucas
124
##ву
260
Arena
Olympic
porta
mes
singer
##до
119
##our
tracks
beginning
##ён
##ос
Wolf
##ив
opening
army
names
Lyon
higher
problema
деревня
Bij
summer
Alle
Lost
##О
Franklin
##Р
##log
##rato
Margaret
Canal
##rata
running
Born
155
август
##borg
ji
края
человека
городе
fall
##bili
##ела
##вала
Carter
child
##ких
Police
Kinder
Classification
defeated
Sony
association
##ular
wide
##rios
Municipal
##ческих
according
##bert
##ain
Mal
problem
WWE
этой
Mitte
generally
Sen
taking
##eva
##time
Mei
##чного
##ema
give
strong
towards
##ology
eru
175
##side
whom
##бе
associated
##esa
##eko
##rek
##чных
##pat
Barry
bar
millions
Vladimir
1016
##ул
gold
част
##yen
Иван
AC
1790
highest
SC
industrial
hospital
amor
Phil
годов
NHL
intentions
Peru
combat
##nga
allowed
charge
##вав
lower
eli
scene
Matthew
image
Campbell
goals
##ales
##rdi
Helsinki
##nge
Kurt
##mt
practice
plans
##ав
USS
sports
Dal
##ists
##cat
outcomes
location
##oda
##вы
unique
##bat
##ать
##eth
##ost
engine
income
Warren
##ового
Here
Cover
##тор
auto
matches
бу
Page
Children
##цца
totale
railway
Holland
Brothers
всего
esto
JPL
pred
##ndan
contains
##inger
##ller
Aus
##ас
1801
heavy
woman
food
270
##ac
##zed
access
Wood
ATP
Following
1816
##cies
better
##tir
global
Abu
##mine
1822
##gd
129
PlayStation
##els
Turner
rate
##rant
resto
operations
##лов
##гы
Medical
али
##ures
##yle
131
Liverpool
movie
rural
property
##нов
132
##har
Amor
##cis
144
##cas
OS
Metal
##ели
administrative
Evans
##tter
articles
mode
Plan
##lands
ended
##iana
Racing
tok
closed
##ог
##bt
key
1819
работы
thus
##hal
Denis
cinema
capita
##ому
Мн
Our
Roberts
1827
каталог
Marcel
distribution
metro
бо
Ar
##mie
начале
##esta
районов
##itas
##ence
можно
##uda
Statistics
hold
Владимир
Java
##э
##kai
страна
effect
##tina
Bis
##nier
##vit
Pictures
distance
школа
##aka
##jet
Television
euro
JR
##ений
##bie
134
Wayne
##nut
sex
Houston
Dia
Community
Zur
##kor
Jay
1758
##щ
additional
##ric
spent
##mp
##vio
noted
loss
move
##logy
situation
152
stations
##uh
Это
##rad
energy
20th
Louise
1792
деп
Early
insect
своего
##ления
VM
##essa
Tras
##кого
Fra
fact
Cape
ch
logo
Dean
чем
##yd
Pan
Highway
система
133
##back
##ич
Lima
оны
retired
##cks
eastern
##usa
##Б
часто
##TV
##eni
склад
famous
protein
folk
1817
##aba
##ками
Spring
ради
Julius
##кс
parties
Catalog
Popular
lite
Stuart
evidence
серед
Delhi
Bau
перед
Hockey
##tig
##льных
Only
##ват
Eva
Moscow
today
##стве
##rade
Marina
older
battle
Castro
##льного
computer
##бы
Broadway
Afghanistan
##ними
##rium
Parker
Chr
records
око
первый
##ings
Temple
ага
там
ana
Record
136
церкви
##gin
Mrs
##ged
1808
Yang
represented
kon
1809
create
demi
##kos
Austin
##nant
##itz
cost
launched
Blood
Украины
cele
Om
companies
terms
CBS
Earl
Scottish
animal
##zat
Hills
Cooper
Об
Deep
sv
конце
Alto
Valencia
font
##nger
earlier
Political
trade
##ün
320
cast
turn
##iko
##том
vote
staff
сайты
##enia
Қазақстан
internet
cha
связи
река
137
Years
Engineering
Systems
vain
thought
1795
##ator
имеет
##ame
mana
##ян
пунктов
##adi
Federation
особи
albums
##вал
agent
Zone
HD
1803
##icu
##num
Bot
##all
##ont
htm
Arbeit
##nski
##vala
changes
notable
Silver
##ств
sources
estate
##ney
##ues
153
##вой
already
recent
##uer
##eus
##tak
Elisabeth
##nse
E0
journal
Arte
##uti
Christ
decide
##ческого
feature
Sau
##лан
Economic
numerous
voi
speed
##IS
going
##ür
##pet
##ики
appearance
985
bas
1823
##cing
##dag
hard
##ис
Fischer
favor
analysis
tom
степени
округа
takes
##olo
##най
Kunst
##eria
##ime
##cker
##til
hotel
Valle
types
Days
СПб
Ministry
##ega
Parliament
characters
вони
Wars
##hat
##ize
specific
название
Olympics
entire
Су
От
##dit
192
value
##тель
Vice
##bury
Class
DDR
##tique
Bulletin
entered
concept
Watson
Nintendo
decision
##ering
165
##oto
##pie
стр
Front
##rre
annual
Iron
##lom
##ър
участь
Plus
places
dire
limited
##ust
Five
##är
##hy
Democratic
##Q
##ulu
sit
activities
prime
officer
Nicholas
Linux
##eve
1811
increased
operated
sound
villages
ГЗ
##zing
letter
Complete
programs
host
Before
Bir
Parks
##ува
##zin
censo
май
Julia
##iri
fet
Spider
##rm
##end
##lem
Lloyd
##чке
Conservation
maps
here
##вати
Ken
##aga
##vor
separate
##rel
##ност
Ari
religious
function
bus
Bobby
Or
Rolling
BC
биле
Secretary
Yu
##mel
Kent
Reich
##af
##isa
Leon
Ne
concert
marine
таких
chief
bank
Military
##iel
##ници
serve
Hon
##zel
##rz
medical
Singapore
149
Motor
Som
места
Taiwan
bli
artists
138
второй
Square
##ration
majority
Mont
тата
##cle
Ball
Language
Desa
Guatemala
Site
2019
##lne
Secret
Position
mille
##ill
##ып
##lad
148
1804
shot
content
143
caused
lines
##ото
Sankt
Wall
element
##bs
Films
##tant
##sm
Dragon
След
федераль
always
ни
selected
##шим
studied
##ора
##pun
room
got
##ень
этот
Ve
##ною
hours
141
##zes
##wen
classes
Ancient
Lisa
##бу
Ciudad
Discovery
##more
##фа
GmbH
Из
яго
1807
Atlanta
remains
temple
tim
##stadt
programme
139
sexual
##льно
Thailand
us
Larry
cross
husband
##ois
forms
##aal
pie
Imperial
Parti
Также
ak
idi
сам
Sol
particularly
##une
1805
##скай
март
##tem
Lan
июль
Ai
словарь
##нин
146
##щи
Kenya
Neil
organisation
Нью
1794
##ут
##зу
##ката
##for
scale
тем
##eau
##lation
Mayor
monument
Soul
Oregon
Detroit
Met
Sunday
Но
victory
##кою
positive
##mise
##ines
честь
university
##form
Население
Box
Original
technology
Magic
tv
OL
Urban
mostly
работал
index
##ally
aid
##rate
##zt
##ците
##rem
leis
##hon
19th
Profile
Bird
toe
application
##дын
Mi
##bos
##ball
sister
NHK
relationship
Roland
147
##чний
##пе
meeting
relations
lot
act
moun
##эр
cities
другие
altitude
Knight
Geographic
Беларусь
185
villa
note
multiple
rus
extra
Polish
historical
uses
Dennis
recording
becoming
Ralph
Ukraine
referred
142
январь
Publications
notes
##мо
Terry
##hes
Mitchell
##fied
hin
society
Jeho
deal
Unit
##nem
Prime
##icus
##ace
лише
##ског
##ись
Base
Abraham
##ug
##ус
Mans
культуры
##gn
nine
##iano
##stra
##ization
Laurent
##ep
##stu
Dick
shown
##сан
supported
##die
##nsa
Dallas
##ад
passed
##ово
##ась
Hughes
Camp
Kaiser
##kk
presented
native
Din
##cem
subject
##нской
##air
Николай
##dea
Hunter
##lja
tradition
например
forced
##cca
##ур
право
Hi
Novi
operation
Control
##pas
##oe
муниципальных
hau
Rick
##sat
##ís
1798
friend
Совет
Tu
##рия
campus
##tone
##bet
kilometres
##oz
Tommy
UA
Serbia
individuals
##nic
##teen
pr
Sint
##als
##sas
longer
##вся
stat
lea
Boeing
##ять
middle
themselves
##ores
##кова
Fe
Perry
##dh
pat
##ppen
Independent
##hof
Guardian
engl
question
radius
##oso
##ук
##rou
Ho
diversi
##yla
Services
Note
##нского
203
коли
fill
##лось
##eda
provides
##yt
##tein
##rung
##rg
serving
pages
##nz
##see
##ках
##rka
Так
Foreign
Carmen
пад
programma
##lot
jer
##лась
##ako
appears
##iers
##ником
increase
1799
Re
##10
##зм
##por
##ческие
variety
##isation
##osi
##of
##ole
Prima
151
##yang
##gua
##mana
protection
##шки
фильм
Rey
politician
##unda
##tate
1791
GMT
sort
Ron
done
##ыя
Rob
##зы
problems
##head
##ум
4th
phase
##wn
virus
##gie
vest
159
Unter
156
##Т
dance
##pur
образом
Dei
composed
##ток
становить
1400
##ван
Muslim
##lage
larger
население
168
zones
##ір
Egypt
your
Baron
Alain
Comics
Never
fiction
assim
Units
Governor
initially
Schloss
##ume
Naval
Limited
Ecuador
##dou
154
1797
pois
альбом
лишь
Notre
##cco
Dublin
##тын
##uz
Ocean
Korean
##ві
##лин
bo
sala
stock
##уу
sou
##ене
stop
raised
singles
##maa
##chte
##gem
##lara
Mercedes
prison
##ление
Uruguay
Classic
Его
##бор
Союза
Emma
Singh
##ье
Orange
Том
makes
##ине
330
Ye
religion
EM
financial
##lum
##xi
call
университета
##has
ним
##bank
##off
fem
Ferrari
Alaska
##iet
Vienna
##uch
gift
Also
укр
очень
Jerusalem
Flora
Six
existence
Graf
pilot
populations
##rica
Masters
races
experience
Torre
##unt
Congo
king
contact
Metro
собой
Chemistry
pl
момент
Buch
##ub
##ised
Medicine
Berliner
##wald
550
бассейн
##рт
Computer
##ног
##ght
sat
Bar
одной
massa
своих
Peace
##wel
##ved
raz
##oy
versions
##dne
##tok
##ющий
believed
Oriental
mag
ball
201
##yr
##ета
##platz
Burg
agit
claimed
Совета
parish
##дия
cell
Hand
weeks
Side
Mare
championship
stars
##fu
Philippines
nuclear
union
##rian
Colin
##bit
Production
Introduction
failed
allo
fight
Latvijas
architecture
##пи
Historic
##band
##kap
FA
foreign
##nska
##ann
сезона
Federico
1796
##стей
##iger
command
свой
##ано
Германия
##mir
winner
mainly
Lanka
назначен
Rica
роки
troops
electronic
##bility
offered
##рана
225
тип
Lane
1775
Hugh
Theo
##chaft
##dere
205
Primary
##cz
##rkan
bal
##kka
vivo
moi
helped
Affairs
Dresden
products
Due
##iki
##ick
Seattle
##ще
167
##nat
##bro
Security
##бург
##лей
Karel
mam
##imi
##yk
Sweden
tennis
Hudson
overall
border
fans
результате
numbers
##oko
##kie
Grammy
subsequently
consists
##ggi
Kate
1300
couple
might
prior
Both
##idas
Jo
##gli
Montreal
Dam
drug
assistant
response
Giorgio
##onia
leaving
завод
hall
acquired
Rico
##gut
MS
521
Ich
157
##dent
turned
##ctor
press
hockey
##scher
whole
##onal
##tou
sui
##eb
Energy
власти
figures
##00
котором
oil
Seven
Newton
department
##шка
sam
##rra
carried
##ars
##ppe
жители
##water
Phoenix
##ання
зв
transfer
##lam
Cook
война
##ити
Не
bridge
##gg
mile
650
mind
nego
Ved
##чение
290
Electric
Bush
##vil
течение
Angola
##gna
meaning
stories
##ький
vocal
##mina
161
Browser
сих
houses
##ove
Software
##ром
Marvel
##cken
##uo
Operation
##лю
##тары
Zum
Feb
Delta
Take
Solo
fora
Action
##mme
interview
##ssen
1980s
ancient
opposition
Despite
Bas
Rom
158
Sus
multi
sing
finally
##stica
Galerie
voice
SBS
163
Theory
effects
SK
##ktor
##овых
Via
##lina
##ьной
##rda
Sean
marriage
PS
earned
Railways
permanent
words
систем
Beatles
Type
##gate
Petit
##lica
Кубка
##ющих
##aya
impact
SA
##bas
np
pole
##rst
##fo
##jin
Ba
occasion
Helen
attention
Cleveland
Ward
##М
Grace
tropical
Klaus
начала
##ike
##ями
Statistical
Bremen
Jennifer
##лган
Edinburgh
nearly
treatment
Sophie
Swedish
languages
нар
broadcast
attempt
seasons
habe
comes
enough
страны
##ява
Baltimore
Sofia
lives
Tower
plants
##wr
machine
Capital
Pero
torre
##rina
Sweet
##gung
remaining
Chelsea
Te
OCLC
##row
Iraq
reference
Formula
сельского
##rius
Boris
Napoleon
Potter
Tra
##ыми
Ronald
256
##list
Round
##iros
bl
Run
channel
дом
Luke
Sex
##ory
Джон
##iar
##той
166
Future
box
##lit
##ncies
nl
Nation
више
онд
want
изд
##vik
product
син
Mundo
Vancouver
sens
covered
##ship
ring
##ческий
Ring
levels
##ното
##рын
fills
##tri
Mart
Lars
164
Wiener
252
responsible
Vegas
Chiesa
##ded
##uf
##sation
##ū
##ио
cut
176
proposed
##cke
юм
tin
Building
Ban
fit
162
Isaac
Child
Heritage
##rico
AB
##psis
217
224
4000
##дин
можна
##цией
Wide
Holy
NATO
Key
##льной
##hold
##чни
Cameron
##ческая
Felix
профессор
##зма
##enti
IBM
Canton
latter
issued
##tation
Hal
technique
Craig
##pte
##uga
initial
206
ал
regions
##сен
heart
ala
##eid
asi
chart
coa
полк
discovered
##jat
пам
minute
NBC
Kane
bare
##lay
даже
xa
sorti
София
Republican
extended
table
documents
##ilo
Stato
##OS
почти
типа
##oj
Rugby
смерти
Store
Ла
Transport
Website
Justin
195
1780
yet
factor
Again
##enne
Renault
##hir
1784
1970s
системы
Door
security
Cet
know
##uro
junior
##телей
Archive
vel
235
##ock
1787
Михаил
starting
##ических
##cka
dock
208
wsi
whether
##ston
##kes
##ао
Agency
##ters
Alliance
Forum
sciences
##stas
##igo
quality
172
kata
disease
importance
##rien
lid
182
Plaza
Bulgaria
##mma
told
##rni
Bee
проти
Chi
##hos
1783
##шая
grade
##aar
leave
Alter
cos
центра
quest
177
##тва
Bonn
rule
##mont
##etti
##med
Kings
allow
Кыргыз
friends
lies
Administration
свои
god
VF
master
Palace
inter
212
true
сын
Was
Between
##kem
mass
Netherlands
##ttu
Nigeria
households
newspaper
стало
215
Spencer
1788
elections
##ctus
residents
##fication
drums
directly
213
Metropolitan
169
##fel
despite
##лом
Hindu
Hope
града
##ess
candidate
##енко
basketball
##elo
Emperor
actions
efforts
чего
##ими
##zzi
Grupo
##oir
##лия
Study
constructed
сезон
##лог
Glasgow
Czech
Islamic
asked
says
selle
книги
граф
##ago
одна
Hell
202
grandi
Chen
##vina
##логия
big
Campo
Challenge
commence
##pio
##lies
activity
hal
Youth
##шей
coast
Berkeley
##alo
##нта
коду
Organisation
Linda
##ees
##eit
fifth
##ple
formerly
Works
consiste
##dde
graduated
inferior
204
ea
##rf
##vali
##²
Trust
nation
Nepal
##care
ud
Productions
Kiss
kind
MM
Liberal
##нка
Short
Princess
могут
Senate
380
##itu
nearby
Елга
Herman
Roll
Rights
indica
promoted
##ivi
Forces
били
##нию
Freedom
Facebook
##tten
первой
mere
##bora
Elena
188
Hart
бир
История
percent
моря
будет
Kenneth
итал
Bolivia
Olivier
managed
Gregory
maximum
##hs
##cima
179
##sco
##вого
##ън
340
##gens
поселения
method
##ид
search
medieval
##rati
primarily
num
Greg
##кая
models
Player
##kla
211
##ome
##iten
Facts
##nji
ton
региону
музей
ll
##aki
##ioni
techniques
178
стране
171
##жения
females
##bla
images
Test
likely
##gent
##js
бы
183
##dale
IATA
ships
Turkey
##лни
193
##ated
animals
##ible
##com
exterior
181
##ulo
arter
##rca
NY
##нын
1785
ID
crime
SP
wing
##bon
Leonardo
##owi
##лна
Tanzania
Norway
arrived
##ены
wanted
пункты
##ants
alternative
разом
Commonwealth
##дер
origin
##rno
Rebecca
Bologna
1776
##вания
##eel
duc
##ther
highly
число
дня
commerce
appear
Alla
##20
Од
Jonas
journalist
##ери
##vent
##oo
184
Venezia
Bond
executive
catalog
Happy
trains
##Д
поселений
##зия
коммуна
##тся
Local
Ice
##rol
Source
Fantasy
##ниот
##хи
##nation
Birmingham
Lucky
222
passage
##mark
##шего
cancer
##gis
##nsi
##bol
207
Allah
##zon
performances
platform
sob
образования
Publishers
174
Tot
школу
Race
тыс
##par
Gene
##лно
tat
Alta
Oh
Petersburg
FK
saying
Mind
Turkish
##pos
173
1960s
Ain
partner
founder
##ях
1990s
Wind
##lare
##tera
деген
школы
projects
197
Javier
crisis
prominent
сезоне
клуба
Supreme
bon
Klein
##fte
##lls
##chu
##dora
##ffer
Aircraft
##нде
##alt
physical
Senior
appearances
песни
prej
игры
Upper
партии
Marx
Clarke
команды
Орден
ina
Luna
##yar
##eron
Heaven
Uni
Ted
Member
knowledge
inside
##erer
Swiss
сельских
##льные
AD
##nau
Price
членом
ju
бути
##ём
Bowl
##рна
extension
conta
Xbox
##ining
##ючи
према
Jose
##asa
SR
##ovat
edu
##inu
wi
Rangers
брат
##fort
##нен
card
SE
Carol
Common
approach
literature
Wu
Once
Creative
potential
Sara
##ход
##rze
##tung
capacity
Отечественной
gun
Soc
Той
Pete
Friends
Manhattan
северо
Vila
Falls
Reserve
##pta
rules
##uni
revealed
formal
##ery
aide
начал
sole
480
##эл
##уд
Amy
eri
Julian
commonly
стороны
часу
РСФСР
##but
promotion
##eto
Season
##nă
cells
##ode
##zne
library
positions
нового
Grund
transferred
materials
tree
focus
##ьный
##ето
file
account
##oka
##eet
юго
bases
Как
Each
187
##rov
longitud
##zan
Notes
##gle
OF
##iad
Landes
poor
##ющие
fare
blue
5th
Malta
##ура
если
Auto
meet
##ству
Toledo
##uden
probably
Florence
сайт
##вна
Rain
officially
186
scientific
##lma
Change
forward
smaller
##nium
##ир
##stone
##sha
Dog
Pod
green
##льный
soldiers
SPD
Through
build
Nash
##лена
##ания
##тки
urban
##шие
Chapter
Sci
221
dedicated
Stein
199
Halle
density
Musical
##ln
##nova
designated
Ses
##lda
pass
silver
##рон
1100
Madison
renamed
209
Heinz
##шен
Generation
firm
Pink
Rogers
##enta
##лина
except
Bahn
Франции
##ray
##ever
divided
##km
awards
##рат
vis
198
lac
Liu
dead
этих
pressure
1786
brand
Sullivan
##рд
1770
Persian
##con
Right
Off
pou
Село
группа
##rah
sons
##рии
council
Mobile
temperature
expression
##tit
solar
Це
collaboration
Where
jih
##щим
1750
189
241
##стан
ордена
terminal
Call
moving
ibi
компании
училище
grave
организации
flight
officers
Башкортостан
lack
Christine
quickly
travel
sets
ability
Под
ig
Miles
episodes
директор
2020
links
##mai
Executive
191
grew
Julio
Европы
##isti
titled
либо
Mother
trial
job
##сем
Cinema
##tif
##аны
lane
gut
##ave
Abdul
##ense
##ьного
Был
unde
Full
##ецца
Double
##ица
secret
площадь
##ован
loc
Evolution
196
Morning
216
moral
Beck
audio
planeta
Nga
Heidelberg
follows
Text
historic
университет
join
жителей
Punta
XXI
##нца
округов
##льная
##cum
##bou
Jefferson
Код
един
Peak
Katalog
conducted
##рка
mixed
HC
recently
##ional
пол
##аш
214
##rim
say
academic
Xavier
често
226
ordered
MHz
becomes
кг
Wie
##град
являются
needed
Lang
Cole
ideas
##uu
drive
пред
Château
540
##sberg
offers
keep
Beijing
workers
PR
street
##oti
Parque
Bros
бер
Dos
Owen
менее
##жен
sales
Lu
Virgin
floor
##ttes
share
##eer
Golf
Pope
##ыш
науки
Ankara
thu
Yale
personnel
introduction
##mak
Storm
275
removed
serial
##ване
rare
Luxembourg
stone
##nir
defined
Neue
##тел
##name
Koch
##eng
Adrian
Organization
settlement
##park
родился
232
Command
Hard
Biology
##kirche
Rural
##late
royal
Сергей
coming
Car
##vie
Portal
сил
parking
##жение
##нски
Ruth
Bass
Pont
Firenze
lb
310
##нные
BMW
##вая
Money
##kle
##tio
настоящее
roles
##maal
archaeological
255
Tierra
immediately
##rch
crew
када
Stanford
##nit
##fan
команда
##dera
Grey
##вно
Mercury
##cada
##enie
автор
##теля
Wasser
Cap
intended
amount
##uce
##ington
##uka
True
Bangladesh
##лася
alone
destroyed
sg
районы
##ER
Phillips
##iant
thi
Mountains
pi
Кроме
prince
Великой
##ages
housing
Mason
IP
##sit
Performance
split
Clinton
##ied
##rang
##ист
370
participated
##vers
Because
##can
leaders
Constitution
##ncy
Religion
Nos
upper
##aine
##sce
risk
Shanghai
Food
##ической
##sma
Weekly
##pers
break
Link
##fy
##uli
Ecology
operating
тора
##iza
youth
впервые
##kker
##cular
##wang
Suisse
420
##assa
##tea
##kur
ряд
actress
Know
Mozart
dias
reach
Internationale
pari
##cta
Got
planned
widely
facilities
##enberg
##sman
##тели
Twitter
##light
acid
Analysis
##eld
Industrial
##lk
##tors
##etto
##ством
458
Piano
AM
##bis
instrument
Tres
Avery
saint
Aaron
Case
Sub
Inter
Hungarian
Commissioner
##aran
##лата
##ода
Living
##чески
##zak
поле
actually
##ея
##ums
##ents
##rini
238
Handbook
Paula
Мария
territory
##ives
Montana
habitat
districts
owner
223
##вых
Palazzo
##тора
giving
Mali
##ening
Trophy
##anti
offer
Tor
Claire
Zeitung
Bang
purchased
tales
Alt
Joel
Among
Tal
Armstrong
serves
nda
серии
Через
тот
##aro
asl
проект
Shah
vele
194
Spirit
име
##ька
Bryan
##tika
1774
leaves
equipment
##стер
critical
therefore
1782
Physics
##мена
mari
команду
##lama
cura
Plata
Zhang
CEO
Weber
##day
visual
Karen
purpose
##тон
Москве
ССР
Projekt
##овий
берегу
детей
Dollar
Away
218
Hungary
cars
##tag
Mayo
##тика
Philosophy
сборной
males
fellow
conflict
typically
##bad
Say
##lna
poet
##esse
ice
губернии
organized
Nevada
MC
440
votes
branch
Monaco
mobile
населённых
composition
Face
felt
institutions
Св
##ении
##ьно
##kse
things
институт
Scientific
##zte
girl
Derby
CA
Todd
##zna
birth
condition
Pat
Ahmad
Armenia
Next
adopted
Symphony
hour
Bristol
управления
цей
acqua
##12
##win
количество
##жно
Granada
##gina
Ville
##nad
Rev
##book
deriva
Why
Colonel
Norwegian
rival
oblast
1772
##ёр
defeat
assigned
regime
1778
дома
##wick
женщин
##ello
##ote
2500
expansion
Voice
##vien
Romano
Fine
Map
Saturday
##rul
Have
##nka
Reed
reviews
Prof
clear
тим
USD
Kind
##rri
износи
Член
Печора
##sun
6th
248
Bible
бас
circuit
provincial
hen
##сно
Fisher
mentioned
gene
blood
effort
structures
образование
continua
##yev
lake
accepted
Col
Number
vous
Ferenc
води
850
read
tar
##TA
gives
##rist
1781
pan
foot
##ations
234
##tad
Viktor
всё
Rei
mor
##mist
communication
##Г
teacher
IF
Panama
##iser
соли
engineering
##upa
##ьных
1777
declared
##ького
##bot
##нский
##coli
##ckt
conference
captured
electric
##tom
231
accident
frac
archive
Thomson
##bek
##ES
Cat
genera
##uses
Ellen
DE
Americans
Mesa
##чне
volumes
##ws
profit
guide
kar
acting
##ious
basic
Cold
dark
рода
mini
312
имя
##тин
305
sett
alongside
tip
leadership
роман
253
##oc
Yemen
##pora
##usta
##cza
Late
Documents
Ya
Германии
чемпионата
Greece
look
Oro
document
Hits
Stage
Diamond
respectively
##нных
##tka
Cao
Andre
##эй
fell
дела
##вен
##zor
##oga
isola
Politics
##ота
super
слова
Istanbul
##они
Total
gained
Nielsen
округ
Drive
Week
пункт
линии
difficult
mountain
GP
communities
Superior
relation
##tne
##rma
##itt
ranked
##sey
##pit
cannot
##эг
##тен
continues
estimated
Legend
##сия
##lea
##uru
##ани
##yu
##ческое
##mbo
жена
Honda
budget
CC
memory
##lash
##Н
##чик
fronte
combined
##lic
##vant
relative
Convention
болон
##ition
##lene
Wells
gh
тысяч
развития
Ini
239
Raven
largely
Springs
Foster
##drag
семье
264
desta
227
##Ф
Schweizer
Tel
входит
hip
Portland
Tales
365
##tha
##kke
contemporary
375
Devil
Hunt
hosted
Birds
##zny
Она
remain
##dge
agreement
##erie
проживали
##xes
Powell
goes
Ka
##nter
SV
properties
val
ort
Officer
tax
Eyes
ro
##ает
Ad
пр
recognized
signal
##cano
Venus
##logi
##sini
aga
weight
outra
roll
265
##room
##ического
mora
Ahmed
##ык
yards
Industry
све
Portuguese
Kultur
Flight
Согласно
гол
growing
govern
agreed
cea
##oria
1773
##ots
Советского
presence
generation
##rdo
Labour
spread
262
##hou
Syria
Wing
Crown
##fat
##телем
Nat
compared
Tai
Fiction
##gra
##elli
Yves
Work
Regions
228
##wing
##omo
метр
Curtis
Chemical
##amen
##ира
Карл
politics
Jessica
520
##mond
joint
мировой
##oh
##берг
##board
##nata
jam
Fair
вновь
mg
##чный
короля
chose
greater
##eh
reduced
##iy
243
##uen
comedy
occurred
##kers
##fs
resources
##gger
##rom
##нки
##dina
##cato
##fera
##лено
##elor
##lav
##щие
##ders
causes
Commander
participation
negative
##î
justice
Around
Liebe
Conrad
Tree
##тэй
233
Nei
Cohen
RAF
##нал
##шли
Nazi
##ации
##цов
Schneider
325
variable
billion
cycle
245
Denmark
##пы
lever
души
Kid
Literature
219
чел
Nie
claims
gain
1760
Tiger
background
Ridge
##ugh
nominated
##cent
##ё
Soccer
##скому
##lane
naval
cal
Norton
driver
resta
paid
313
##hem
Jung
Stories
##В
##minister
Hof
1763
Pearl
##ief
patients
##star
Helmut
##чения
expected
draw
##key
winter
Orlando
##zek
##yat
Android
##тай
Buffalo
острова
##нага
Серед
Switzerland
letters
Коди
##igh
taught
##alla
статус
##ond
Ca
##рта
acres
ven
##ага
трёх
twenty
spring
##cate
humans
Stalin
Native
рамках
##selt
Sr
applications
environment
audience
secondary
Bennett
##zone
Kosovo
Server
Josh
295
suffered
bring
хан
##gre
instruments
simply
colonial
providing
copies
##indo
expanded
Defense
306
damage
##tati
identified
##tog
251
##eris
##ew
Verde
something
##ops
##шта
##ким
##рда
##еля
Beyond
Match
##лах
##вич
Nassau
fly
док
Palmer
Mine
Ghost
##ates
Eo
##чные
Россия
002
Zero
Romeo
Jun
link
graf
##naire
##вка
друга
Glenn
селе
Thai
Gloria
Darwin
##rts
229
друг
ap
ходе
301
##rman
PTT
fish
prof
##phone
restaurant
statue
##vara
##ео
##фи
статистика
##pper
beta
##dro
254
Concert
twice
430
304
##git
Basel
Anti
Ela
parallel
finish
receive
##cation
Germain
Article
##orn
##аз
suit
236
Vera
##ары
##щая
Hopkins
Hai
Dio
Seoul
##bang
violence
##нее
Father
Honor
Почта
сол
больше
hop
architect
которое
хотя
Stefano
##tr
Bois
Intel
Kai
##ake
int
Tibet
Solar
Seu
Track
##нна
covers
410
Companion
##tics
##zzo
##stel
Banks
IOC
##aw
##ула
hija
facto
coi
246
##dium
##dita
Training
##aries
usage
многих
begins
Gil
каде
allows
Then
Origins
Anno
composer
Bd
##zki
traffic
attacks
Uno
Jews
titles
engineer
outre
minimum
рр
##rden
hu
##lov
Room
тут
##ьний
Belgium
##ebb
situated
##inis
Want
##uca
ныне
Pascal
249
creation
kept
##iah
Hero
Authority
terrain
commission
Arabic
newly
Беларуси
UN
Dawn
Garcia
книга
Luc
deep
роботи
Saudi
Belle
Tang
Artist
Chem
reports
Alba
Nathan
Globe
resulted
наиболее
##ece
existing
Stan
portion
organizations
theme
эти
towns
Ал
##att
organ
camera
##stic
Upon
ла
театр
questions
##щение
языка
##jt
wall
##ivos
редактор
##бар
Hardy
euros
##uin
##нг
##eck
Nina
##чена
272
unes
##vole
Make
Orient
станции
Advanced
resulting
Far
##логии
Patricia
##alan
ratio
##ьная
Guitar
Fund
piece
buried
##жна
authority
периода
conte
307
ней
sign
description
develop
школе
Vega
##dek
##tai
orchestra
Beautiful
##лены
1768
Eugene
##лем
Making
Франция
applied
##рок
coup
003
ty
invasion
Private
службу
##лд
effective
visible
##ои
окончил
seats
##ься
##the
learning
boy
Pa
##tge
##rja
работу
Nice
painting
первого
reality
lieutenant
brigade
doctor
##mmer
iTunes
##него
##iker
IT
своё
guest
##jk
gener
granted
войск
Oblast
info
marked
##osta
connected
##ости
257
##tern
##jia
##ffe
##mb
##вать
##halt
Александра
##nam
tells
##ью
surrounding
639
различных
necessary
Honduras
Edge
MW
##uel
полка
##zation
водного
Range
inspired
##mic
##gge
Michelle
##уна
arc
##ады
advanced
##hur
дивизии
Jeremy
общества
##nds
##dica
##тка
271
##gat
courses
другим
radar
Comme
центром
safety
##pon
Berger
##IN
Academic
##qi
##arten
након
##ёв
##SA
##ический
Lion
Dana
ranking
##уда
tried
Que
##ома
##down
Sala
sq
море
303
bala
##gni
Start
237
##шу
частности
completely
##illo
##лений
кар
##tory
##verse
##chy
Continental
Terre
lau
MP
ray
Montgomery
fully
foto
Vista
Omar
disc
##anu
Adelaide
##нения
vehicles
yard
Maritime
block
333
rio
multimedia
containing
##ёл
FBI
##ята
sides
жизнь
кино
##rane
MA
wins
UCI
##gno
teaching
таким
Liberty
##iter
460
242
клубу
##bing
unknown
##лий
##щий
решение
##nten
##ender
Tam
##hme
##рен
1779
obtained
confirmed
##gren
Munich
axe
начин
Petra
история
core
EC
здесь
Tennis
##mans
Ел
1740
288
vehicle
##lius
talent
methods
президент
ore
edited
Communications
##ям
основном
##лок
Иванович
##кие
injury
##ware
claim
армия
##cono
кеше
Steel
Архив
EMI
##ares
АО
younger
showed
##тик
##vez
##ание
##ава
##нат
##dle
##nca
##meter
285
##jah
noto
##eks
Jamie
Policy
Hay
Search
##ight
##cm
Becker
fighting
войска
visit
##lini
Branch
mine
translation
##mission
##чено
##chia
Evil
##жу
Universe
##av
работа
Still
economy
##eon
##quet
Us
SD
244
Testament
##awa
Chan
labor
Cannes
Bo
##tand
oldest
chairman
мае
Tale
Flying
committee
daily
CV
pair
lle
##yl
household
##зан
##olt
Двина
18th
метров
храм
suggested
художник
Grove
##unta
рок
##оя
##vati
##bild
commander
командир
Они
##шения
instrumental
exchange
Alpha
##iona
административно
dates
##чная
Forbes
315
bor
officials
##И
forest
##того
WWW
champions
Ex
Hubert
##rich
##odu
##лана
##cted
Roosevelt
городского
facility
Too
##анд
Interview
Tallinn
unu
##agi
##cre
tower
ин
##дары
##mate
Horse
##enda
arrive
losing
Lower
##чным
##rita
calle
##iat
variant
girls
documentary
##col
Choice
Til
##tsi
seo
Arabia
Shadow
##low
Входит
Chase
##ened
beat
think
##нс
##put
виде
Deutsch
месте
##льна
chance
##ulation
Ellis
matter
rank
historian
stadium
tie
programming
##iae
##hia
dis
hits
hands
##ема
Родился
##icas
WTA
избран
lit
Rich
reason
dollars
DL
Giro
Ruiz
Duncan
##glia
Axel
fundamental
Петербург
##dum
F1
Amazon
GT
mental
247
базе
chosen
порт
routes
##sio
incident
Eagle
##жных
##iment
закон
theatre
фильма
Nama
##gor
Trek
lyrics
##тво
##sts
##cc
##orum
##rla
##чну
Forever
Jupiter
##azi
награда
1660
Mk
406
follow
##ph
1648
Lambert
VL
Vor
peace
DS
Европа
##graphy
##dil
ove
##nais
##sso
succeeded
случае
##kis
структура
Angels
##чной
Palma
Even
##iding
некоторых
Ин
##anje
ama
arms
Kids
Snow
советский
captain
laws
Jos
##rge
Professional
##isse
рос
xe
##graph
display
Horn
##tim
Porter
Fast
##cens
##ovo
##itate
чемпионате
##von
##rent
bonus
##cci
medicine
##сэн
##ith
amateur
mix
Animal
Gulf
##ogi
headquarters
Ja
dele
##ент
##asta
##colo
entitled
functions
holds
Cristina
Fiat
##yes
Min
achieved
Stil
Борис
##рь
##rti
##сын
authorities
фран
##rades
Circle
Titan
Jin
390
##ску
медаль
##лады
quarter
enda
aa
Nu
##oan
Ottoman
inhabitants
##vei
Obama
##дал
allowing
Haut
1950s
##vni
Broadcasting
своим
Ada
zero
##ssi
Regina
depi
adaptation
passes
##sne
##рак
Sudan
Market
Vid
273
##eran
Circuit
деятельности
##fier
империи
##sley
Автор
relatively
asp
sum
Without
##сии
Israeli
draft
##стю
Russie
##аний
fields
Crystal
airport
escala
още
люди
противника
Simone
266
ann
##шин
##aca
Як
##vna
Section
concerts
##нный
solution
spot
Movement
utiliza
семейство
##nces
Flash
##чко
##quer
Christina
##rino
Chang
##ест
точки
323
coll
identity
##aco
Aviation
target
улица
##cera
beyond
Все
##ьна
Eye
##ex
268
##ину
##°C
##нер
absence
##sak
Але
Several
steel
##евич
263
##вета
imperial
302
needs
Hung
Walk
Pavel
##euse
nº
occupied
Chairman
##rot
Mill
##ladi
##леге
##eter
Novo
Adventures
##bah
Beat
tank
6000
##няя
trees
##ову
##сов
Ghana
write
##pak
Berry
Draft
другой
роли
rise
##nig
contributions
##cket
1771
fauna
##rine
zom
Maya
Return
Guard
286
Dreams
##ined
##ites
pt
morning
arma
brothers
domain
Tribunal
Manager
st
bands
quant
##ием
##зии
governor
рада
Igor
Low
282
Economics
Azerbaijan
issu
1766
##гер
Laguna
Италия
ГИ
##tine
fond
государственного
missions
perform
##aci
1769
Crazy
##ично
frequently
##50
##sca
276
Hann
Intelligence
len
conde
нескольких
Travel
##кт
bought
##uran
##xt
277
Brand
Olga
свого
##ID
clan
##gir
Block
sixth
supply
##sor
##рин
##pol
274
##pare
occupation
Albania
1765
игра
Ki
respect
титул
Seventh
liberal
Mass
dur
##pada
Things
##тина
Phi
##nato
Toyota
##enes
Paradise
Pe
holding
Woods
АН
##enburg
##лып
settled
Staff
Mayer
##istic
Aleksandr
Ti
##odi
Дар
brief
##vale
ends
controlled
shared
1767
##ляет
pieces
##ял
институты
Rossi
ending
LA
##ules
261
Tournament
##ivity
AU
Tell
##dice
##kol
##roy
##lim
мужчин
##vista
##эд
дело
user
1650
electoral
##dla
##onne
creating
284
яп
основе
совет
лейтенант
constant
cor
extensive
##mpe
##ody
dt
simples
Kun
##жил
Stop
##bte
Inside
281
##щее
mark
258
launch
470
Enterprise
Technical
##bir
Monica
Salt
Mills
Montenegro
acts
информации
Ing
##fn
##lal
287
##bridge
portal
##эт
##oku
##vere
##мент
Status
##тно
##ици
capable
форма
исто
полностью
названием
Bradley
agriculture
hoc
##osti
prevent
Jeffrey
##lant
pal
object
майор
Fighter
Ph
мир
##fia
правило
током
Denver
##fin
##bina
derived
Archives
Prior
##poli
Brad
##hm
1762
Comedy
enemy
278
##nc
setting
Nokia
##aus
birds
работ
gay
##нска
338
##war
murder
Bryant
штат
##ические
##tata
marketing
rose
297
##dies
tyre
##ког
292
Churchill
arrested
powerful
област
##жал
Bus
1764
Homo
Brisbane
Cell
details
##kola
Trinity
Московской
Mail
Ultimate
560
Adventure
Андрей
версии
деревни
Romanian
rail
profile
CF
##raf
##лла
259
Deus
##eder
Лос
D0
Leone
ideal
Picture
Andrews
Together
должность
##yne
Наука
Train
stay
Trans
collected
##ау
refused
familiar
первым
Palais
##yard
debate
##пер
Bosnia
OH
308
Vita
MB
formula
##dler
первых
##uso
##eru
##тра
Uganda
chemical
##пис
LL
employed
hot
сили
##pad
полковник
##бо
##ree
Rede
321
Galaxy
symbol
267
##far
Moldova
##ией
category
##cut
##ху
##rme
269
##ification
##еп
контракт
английски
язык
Bailey
fought
языке
##ligen
##уди
311
корпус
##rand
Anglo
Airways
Letters
##aza
Against
speech
citizens
yellow
Quest
##nach
336
##ulus
critics
##TE
publications
дней
Rat
Singer
medium
Nur
помощью
approved
283
Architecture
consecutive
universal
internal
Parc
Danish
Gilles
reduce
Trail
буде
Molecular
Date
commissioned
##sul
Isla
translated
##уть
technical
##idi
offices
Watch
tours
##enz
##мана
альбома
compilation
performing
Creation
mineral
##raz
##ющего
##лав
ri
512
fie
screen
Made
##вор
ICAO
пры
Fl
##tland
##RA
centuries
950
Lennon
Bild
Kenny
##яти
##vert
Maison
##oen
##xar
##ank
##yal
##II
propose
Gay
Grad
самых
тако
##оти
prop
mail
Morrison
returning
Когда
Lou
1730
##uren
session
Banco
##нем
ЦК
##wards
Второй
##ари
##кое
defense
##ror
##ули
вышел
motion
Murder
bed
компания
##avo
##ON
Bon
Ur
##hood
Fan
640
орден
Yellow
##dez
Ion
##oor
пов
журнал
##лек
intelligence
Ради
матче
Caesar
Peters
##lier
##овые
molecular
Einstein
##vs
ГТ
hp
ти
доктор
really
участвовал
A1
Vittorio
Ko
##lee
Stern
##лау
##ане
editorial
##rix
ds
pH
край
escape
##hang
действия
monuments
oni
##rut
##place
vision
##uge
##жный
planning
dropped
##хан
Triple
Need
aged
sequence
##avi
divisions
335
visited
Trio
attacked
##жного
1755
345
Columbus
##inda
sections
##lling
##ead
Strasbourg
##щей
Khi
ала
Floyd
##ift
типу
##ъ
##кому
Person
##IP
316
subsequent
##цем
Abbey
##AC
служба
Rise
Fish
PT
wiki
Oriente
Students
ways
AA
Swift
Nine
standards
represent
299
ind
##chas
Senator
температура
attempts
Ni
1720
##inio
академии
Да
boat
discovery
##чны
classical
spin
Bio
395
Верховного
##table
293
funding
##try
возрасте
someone
describe
Piper
279
##ises
##дов
##шло
institution
Gerald
Алексей
1640
opposed
##sort
horse
муниципалитет
Benz
broke
stare
##ked
##view
message
Heroes
gr
##шла
adult
Rhein
позже
##рно
1021
принял
##urt
fuel
unable
AT
церковь
##rici
##Х
medicina
farm
##aut
##rali
##еса
##шение
squad
##rke
Brunswick
believe
комплекс
Tan
Pass
edge
Rod
##со
##xos
Monster
pale
##pre
света
Format
##pra
##rso
##ип
selection
exception
equivalent
корпуса
део
##cou
##ился
Jam
##што
Yo
309
ol
318
##gare
ранее
flow
Fraser
##pil
nations
##ческом
aspects
331
##MA
##rop
##лка
##oro
founding
determined
Raw
postal
Gate
Ukrainian
института
Campus
324
Haag
Glen
Sonic
Laboratory
Financial
##cky
##ress
##ори
совета
retire
Faith
##чений
##tats
##eal
киши
партия
Friday
##nay
demo
ел
height
GNU
Telegraph
##gers
##tele
View
Westminster
Rus
Pri
context
тил
nomination
##hing
gets
Йорк
Volta
increasing
##зар
Ji
converted
##лат
##sent
Ages
развитие
Farm
price
347
Fellow
некоторые
educational
tas
HIV
difference
##kki
получила
##ution
choice
##ходу
selling
curso
Markt
##tivi
developing
attempted
##iven
##lice
Corte
##IC
angle
##жат
Kiev
##lun
AP
refers
319
doing
Amb
Every
criminal
Tre
##where
rede
##dah
Kill
Speed
вода
Agriculture
##ований
которую
реестр
##xia
##чих
Andersen
Таким
Admiral
##ological
ло
##para
Salon
##bok
Isle
##ьным
317
новый
##vice
##gol
10th
enter
racing
Mus
Rocky
##аст
Labor
meters
перепись
рата
##iff
radi
rating
322
Schiff
##front
Herald
президента
Wings
Sporting
игр
##кам
factors
CE
##alle
##play
domestic
##eman
Sid
onto
guru
Sang
могли
просто
##voli
considerable
CNN
Polo
sal
sorte
##mani
Cricket
Jalan
charges
Wii
occurs
collections
##nburg
Bi
Electronic
##fra
##чина
##ob
ks
##gata
Hello
equip
##tani
##lai
Анна
URL
Gang
##щем
worldwide
guns
##жена
exhibition
corona
provinces
print
straight
##nch
То
representing
carte
UFC
satellite
##кин
##сна
why
291
искусства
Rai
arm
##gram
Cincinnati
shape
296
многие
##hti
##gner
relief
EN
##mpa
focused
brown
Mad
orders
Crime
flat
большой
dispute
talk
values
##З
quite
##рал
Gun
##vora
Jenny
##мат
##zhou
wind
Lei
##rag
##vus
уезда
Сен
реке
lands
##him
Рим
ego
орденом
##cles
MVP
influenced
##bana
радио
receiving
Святого
##тики
Vasco
diameter
декабрь
independence
##sum
##cast
движения
Rice
franchise
нет
Sandra
greatest
##альная
##ована
Balkan
##тных
##bby
##тельных
tunnel
Kyle
##base
consisted
##uis
тренер
##ницы
MIT
Первый
Estonia
recognition
finds
Ole
##rga
352
Zo
четыре
##sc
Nothing
##long
428
##rei
nor
Chu
##eka
##yana
Solomon
Среди
##rce
catalogue
frame
404
298
570
385
shortly
Stephan
Look
Nicola
failure
Palestine
имеют
ska
##hel
##дна
369
meant
Lago
1756
##ино
Reader
##porte
##що
fruit
##нская
старший
##utor
slightly
##krat
##plan
471
Judge
Defence
Thing
judge
carry
##ального
try
storm
##льний
беше
##uring
##xen
бет
##щения
парк
Suite
Bear
connection
Trend
##ngi
castle
RNA
expressed
##ax
737
Suzuki
editors
Виктор
mandato
##kra
##дей
Polska
Barnes
reasons
highway
##йский
провинции
##ают
##ед
##uck
##bly
##еш
Perth
Verona
comic
народа
contained
##bl
##шись
fund
flag
##ково
RCA
Caribbean
Большая
##бек
##lines
##ственных
каталога
##нного
##графия
Contest
script
328
тогда
offensive
##ified
Vi
Vision
конца
Haven
Johnston
rear
театра
##еле
dom
##ril
Wonder
##rry
Blanc
##weight
одну
Expedition
step
Saturn
1757
weapons
literary
calls
##йского
Mari
##lter
множество
blog
##menta
Present
Stock
##сте
Heavy
Truth
Bella
##жан
territorial
Павел
Manual
faced
самым
producing
##ющей
backing
Trainer
332
муниципальным
530
##ox
##лии
##tron
##cto
новых
барам
Glass
establishment
289
radical
##yre
сите
Count
нас
##AL
Talk
343
Tokio
##mena
Cathedral
##omi
##fon
adjacent
Государственного
##zma
314
мали
manuscript
##dam
##ogen
Motion
powers
Герой
##hill
McDonald
##aman
##bri
funds
Res
##AT
вернулся
8th
Burns
##emi
##som
##witz
capture
INE
Brook
worn
successfully
users
kill
##cula
MD
poetry
exist
agents
##тя
contributed
Johns
дивизия
##yce
Chad
##48
##hara
relativ
charts
standing
Nuclear
##щих
Harbor
Lucia
ESPN
retirement
Lotus
##nai
Ponte
тайна
##vid
address
##rated
Austrian
##hre
##uju
##нти
##edi
toward
tr
Porta
Hit
337
##рани
##nea
heard
##oge
конс
qualified
числа
Myanmar
GB
Till
herself
улы
opinion
##чин
Vale
Assistant
golf
wild
##йской
##maker
abandoned
##ствия
ferro
эле
##ыг
Reid
pun
##beck
##born
Tours
руководством
##asan
тех
культури
##жений
17th
понад
Nicaragua
Mao
bureau
serious
walls
мире
PA
405
Ost
##tup
самого
причин
glass
земли
##льным
##logical
iron
disso
##шее
pur
Lara
Deputy
активно
fines
poc
##ьних
##ред
##чий
supporting
##rates
Kao
versus
##esti
Mohammed
##вер
Chamber
##nov
##itor
Exchange
Timothy
reading
##edo
видов
Penguin
490
##ngo
##ждение
tur
##ily
384
##ğ
##GB
Bro
##йки
plot
##Л
веке
##berger
scenes
##anta
Journey
##мой
##hta
##кции
##rth
##not
##ind
##yama
Buddha
##дно
ними
Greater
pace
Cornell
Genova
326
Парижа
Gen
option
evolution
Markus
sought
Net
##ору
401
Hook
##лять
##oki
Artists
Hannah
locations
делу
reserve
бел
##US
##чини
##gler
стран
удалось
живот
##hol
Bali
save
##nco
laid
rete
boys
sp
Süd
обычно
##gun
населенных
##овка
##вского
Carey
##іт
vertical
широко
##horn
Legislative
designer
eye
1680
Versailles
387
Jamaica
WC
##чев
Lynch
environmental
Nikolai
##urus
Joy
investigation
Rouge
Players
пример
occur
Chester
##mere
##cola
412
согласно
##hall
##fest
##tale
##sir
Zona
издание
Tito
##iation
chain
Corona
Kraft
##ченко
noble
Fleet
##rain
pet
##lana
Jugend
назва
##30
393
mining
objects
promote
Москвы
Brazilian
известен
пост
##werke
##alen
##лении
##gil
##lone
Excel
incorporated
##зму
##lach
##isan
Mystery
##порт
courts
trying
##дии
именно
##рования
Ленина
Sy
cent
Його
##уса
graduate
Normal
1550
1754
Париж
##sai
Sono
нём
prize
Mini
деятель
Milli
##ез
Using
##cial
ill
##cel
equal
protect
rod
Heat
##უ
Joshua
##qua
maintained
община
##лап
wave
##яла
##ital
CO
##gine
##ST
Midi
Македония
Lai
RS
teen
факультет
##нском
##йна
##lto
кон
##ологии
вокал
Indians
Results
##рек
starts
294
Freeman
тела
Medina
Oil
##tab
матч
##borough
Hood
rat
Communist
soul
segment
Жан
Monde
arena
коммуны
ultimately
device
Split
successor
##ndt
##nil
Half
deri
Thus
##ating
Eve
hectares
Ground
fleet
##ack
Rex
Within
HK
passenger
weekly
loop
команд
##fter
pure
##eseen
##мов
##хода
jury
##rai
##eny
ли
##ае
aspect
355
##nberg
Tonight
вида
##лага
турнира
proved
continental
##тия
1630
##ита
specifically
низ
##mur
rich
avoid
decades
Greene
##лт
##нун
Construction
##alis
Gardner
##об
580
##ике
##logo
##енный
islands
regarding
##uze
356
точка
##station
Марк
statement
magnitude
##овая
367
strength
Though
дана
Alfa
##ems
##fers
##нюю
headed
nothing
roof
Them
philosophy
начальник
entrance
possibly
racial
##redo
##umen
Brother
Presiden
Hearts
passing
loan
invited
премии
##rp
views
1710
##pati
compete
##аль
##сом
##card
Энциклопедия
Prag
шоу
610
PP
знак
начало
Rush
425
candidates
Slam
Jong
merged
theater
Если
educated
##reo
князя
ach
##ési
Rand
##position
##iner
мало
Camera
##twa
режиссёр
##udo
##olta
mention
Pere
Midnight
Resources
assistance
dor
##sser
##енная
winners
##iler
354
Student
Schools
##wich
##вий
##лийн
Abd
##nese
##unk
Rue
heavily
##isin
aves
##mber
##тет
foundation
dating
##ост
16th
##eca
357
Нова
manual
##rid
mines
##vod
##рик
##uak
Роберт
мав
##жка
establish
corner
trained
##bed
Into
Brien
##polis
##ющая
files
##сс
##ствие
##тым
должен
##right
##oid
Interior
##скими
##wat
Physical
такие
antic
государства
##ива
sil
##ище
##щини
freedom
Вы
kor
звание
registered
string
Kabul
##але
Classical
ene
sel
##ppa
##бора
destruction
walk
747
##dai
speaking
dro
##wall
Prague
производство
##master
##gard
##чку
Athens
Канада
##яли
STS
войне
происходит
Penn
representative
Gill
##ющим
##cana
##had
Av
Након
cabinet
##ED
leg
Recording
regiment
resistance
##berry
Константин
##ште
416
presse
wood
##ало
##vite
Bart
##old
Visual
Brno
фильме
ол
##ките
ей
##fur
Levi
##uts
##yet
residence
tons
Fr
благодаря
роду
##OW
Ramon
проекта
Wald
Armenian
Cry
поэтому
##зации
Problem
Auckland
329
Editor
##мер
Там
Stones
13th
Ch
Desert
дороги
##DS
heat
334
Dortmund
wir
Waters
Lenin
Уфа
Typ
Drug
camps
##тура
Rhin
Challenger
br
improve
##ydi
##вана
contrast
Doug
галактика
##лова
управление
368
630
Self
Gone
##ьные
error
Кыргызстан
Fight
entirely
Lopez
gaz
11th
##NG
501
engines
Frost
##box
Joint
scheduled
##бан
самом
Blu
Perfect
данных
bodies
344
##rial
items
деятельность
Bauer
insects
окончания
fusion
##cil
##aes
##тельно
Queens
Webster
силу
observed
##чество
##³
rooms
Explorer
951
armed
experimental
##кай
##ids
pool
##sper
reaching
##rest
machines
службы
##бой
отношения
peak
toma
Rainbow
seems
##пен
##itti
деревне
##чала
ethnic
Alma
##ровать
научно
casu
##цами
duty
провёл
327
hundred
##tna
killing
Hip
##rons
##mand
Ronde
##17
Tech
stands
комитета
##lev
##кими
##onte
looking
##овна
производства
proper
Nun
seconds
##rig
1751
##стра
skills
##rez
operate
Thunder
которым
limit
Stella
##ear
##mun
тис
closely
elas
consisting
##щена
finishing
##ола
Strauss
Центральный
включая
Word
##инг
епископ
mon
engaged
components
inclusive
##vol
411
Cu
остров
##stri
demand
##sid
inch
installed
##lder
##аза
Romance
##ону
##utan
##ака
SG
##lyn
didn
Table
342
##жки
департамент
451
##gene
Basic
##сты
attend
Riga
brain
opportunity
instance
##ческую
Fly
mig
watch
##енные
##grad
351
HTML
costs
bill
##оны
##тата
12th
##lique
##сли
propaganda
##йт
##шна
fest
##чо
##olu
##вом
сельсовета
##вих
Heights
государственной
##нах
##dition
Centrum
Kingston
papers
rolle
##тельный
café
##vette
alias
Boulevard
##раз
##hart
Василий
Style
Zimbabwe
twelve
##stro
Slovenia
voted
времена
##vest
pu
Rail
##ственного
tel
improved
отец
Drew
Environmental
##ians
1714
##ivat
##ете
Egyptian
Советская
Aurora
Dee
Петра
Kara
##ственной
agency
##ины
Motors
1580
##bur
посёлок
##ners
работе
flying
впоследствии
Fou
dura
##dl
Alive
##чить
causing
°F
pad
##pense
ceremony
601
##tros
Progress
Towns
Porsche
wikipedia
##вской
Care
Tribune
мала
singing
Touch
339
##gai
persons
##ума
##tima
Hammer
apo
Индекс
fe
flora
Logan
bottom
drawn
##ква
tatt
Bangkok
milli
образованиям
describes
reform
Essen
laten
##ister
##unto
dollar
advance
Nem
возможность
Lot
Macedonia
матчах
severe
##нских
средства
##ography
valley
##рей
##club
crise
Everything
leads
##gur
относится
empire
Gas
getting
##ngs
exploitation
1690
##дена
##chem
##дка
##pic
shaped
##mot
состоит
Strand
earliest
##лай
##mare
ruled
Webb
университете
tests
##mh
##мата
Blair
##spel
Qatar
##sil
##pal
##стон
regarded
##rete
##sam
termina
animation
constitution
510
initiative
Better
##rone
Christie
contribution
##кен
##вия
##bula
примерно
factory
NK
Затем
Wade
Mo
Croatia
cable
главным
##yti
plane
1930s
##шена
познат
falls
футболист
stages
easily
##лет
dre
систему
survey
Arms
##ард
musician
##hire
регион
fashion
employees
Aviv
AE
##ьев
branches
9th
##RO
Sand
Teen
api
бою
ден
##oss
##тий
Академии
##olis
Лондон
##gile
##qa
combination
haute
953
Preston
distributed
Blanca
Peninsula
##стью
aspx
Indianapolis
##вский
Past
Personal
Така
##говор
Palm
##вший
##lau
##lf
расположен
##aris
целью
mln
##lid
802
Дмитрий
Lin
centres
##fic
##mbe
##рды
##ams
Konstantin
##ichi
Factory
accord
sung
преко
1735
##ail
Terminal
##елей
Динамо
##тите
Pre
Dubai
Италии
1520
##chis
##овского
кто
##mor
##yy
USB
Ei
##пу
##вата
transmission
Avenida
##cian
##ibus
mur
##eller
##lato
##ению
##tl
Image
525
behavior
##yra
##rose
486
##quin
Beauty
Left
##tun
Guest
fri
625
поскольку
1610
agricultural
Dar
Lancaster
неё
353
tribunal
Armada
король
Институт
спорта
massive
операции
381
359
##mpi
Eden
российский
ket
##пр
Genesis
indem
Hop
distinct
1689
definition
wake
Somerset
всей
##beli
##cine
##teri
hired
Санта
paintings
##lp
##лын
##ched
##енных
##arre
Higher
vast
Про
башка
##kit
яку
##iol
##burn
##чним
Windsor
argued
##яд
##граф
##нная
Bari
Airbus
##mera
##лон
Cher
Much
Sharon
##жении
##чан
rap
капитан
##ury
##tner
Cities
Ол
Этот
kis
opposite
automobile
##inge
проблем
363
366
##жено
Concerto
##тый
Mediterranean
ahead
##dna
##istan
##mila
##inte
##ама
IGN
garden
1701
humor
suicide
weather
1742
383
##эх
##ctic
##holm
participants
Иртыш
Canyon
ones
cop
##iq
Mega
##rl
JAV
##алу
##ability
план
reaction
Казахстан
Familia
writers
##lika
361
##pone
require
BK
Chambers
417
stating
##izar
cousin
Ek
Mama
##udi
##овский
##лива
Edit
##run
##тве
используется
indicate
##дор
рум
720
documentation
игре
мы
##irs
запад
##EC
1743
##orio
metre
1688
Jena
decade
Shin
##дра
САД
пути
##чную
##rais
##льное
Hayes
update
Sandy
Structure
##nies
Коми
prove
##rick
407
##аи
Palacio
имел
Qui
680
##лава
##hun
plate
1746
Eure
Hey
620
Paper
Iris
##alia
341
transition
circular
007
становится
##овал
##ходит
##IA
Oy
Ming
Biol
##ийг
##rona
##BA
contain
1683
stores
WWF
композитор
##rva
##sted
476
Natal
interests
##anya
dil
##ране
флота
##mou
challenge
##щего
Memory
##nor
Agent
alcohol
##ада
mir
перешёл
##jian
injured
дочь
##lers
##тного
фронта
Chess
Something
mean
##itar
AIDS
reas
##lock
##lib
joining
B2
##ыр
590
отличие
значение
403
##пас
Male
432
Programme
##SC
exposition
Innsbruck
##rach
Cola
actors
431
gender
Союз
broken
##otti
##ээр
##ouse
1747
выступал
shall
государственный
##vt
##ctive
исследования
Това
Fighting
##evo
1744
Million
tall
карьеру
Европе
Operations
##ыс
Gardens
Wesley
pattern
##ark
##hra
affected
##gment
15th
possession
##tsu
другими
sell
Sister
biggest
465
Роман
IEEE
1721
литературы
briefly
составляло
сильно
могу
Юрий
IN
participate
Sparta
VS
##rene
Baba
drop
тези
Gaston
conservation
456
##DA
Martins
panel
##pass
ago
Said
##rto
Audi
##зва
Environment
##kali
##cov
##кы
##hoff
defender
402
особенно
Arc
вместо
##zim
Sing
DOS
##ener
Fi
Кама
1492
Give
disa
presidential
##ption
##нова
фронт
chant
##erse
##mee
актриса
phi
EE
Relations
423
##uil
Election
татар
##ffen
Madeleine
млрд
Thor
##vig
##AM
##vise
Viking
##TS
analyse
1530
версия
##sport
##kowski
Lur
##ogo
прави
Phase
##eum
##arte
eso
основан
##ьких
classic
##овано
Baptist
##face
##илась
##пад
частью
protest
##lets
теории
musicians
Learning
Tri
##цкий
Beverly
represents
граду
##ppi
Belgian
студентами
##кер
##rova
##rup
##sina
##ога
практически
vent
суд
Protection
##лне
##tei
##еи
##нным
Inn
dominant
##ывает
сооружений
Hebrew
528
орган
Evan
Territory
348
AK
книг
statistics
operates
purposes
##NA
##tadt
##ап
##pul
Turn
##tero
Moses
alliance
Цей
##жить
picture
soli
##sett
1570
typical
##eis
##lei
##mates
Nov
cultures
##igan
bak
##EA
##page
dry
1540
##kum
обороны
двумя
##won
Twin
##тав
960
pick
Independence
Украина
##smith
examples
Stad
bout
argument
##bine
reti
Со
Attack
Biological
1736
artificial
##br
##писан
##ways
degrees
1603
##nate
Америка
colors
##нение
435
408
notably
376
Fear
песен
carbon
Oak
##nha
goods
представляет
operator
Won
##nol
regularly
partnership
robot
##eme
##тана
crimes
##cile
attached
prese
8000
силы
oral
##TP
##itis
roads
346
perhaps
умер
империя
1560
Hour
passengers
Color
Chronicle
neighborhood
path
##pina
##чать
credit
calling
Well
##ush
помощи
designs
364
survived
семьи
##rog
Chance
Америки
Tall
Finn
##dak
Ajax
Toni
670
сына
Café
##дий
первые
##даг
##тна
##tasi
concluded
Samsung
##OM
пра
Olsen
1725
##ука
Ова
##pera
##blatt
##щик
Дом
1711
statut
##11
Leader
Tracy
output
##sty
##fre
Михайлович
##тних
Peterson
ми
understanding
Jump
false
replace
anniversary
##nni
Audio
iPhone
##сер
##IO
Lives
назад
Read
seventh
386
##llar
Dancing
кроме
maintain
##ddi
Willis
underground
##нар
Испания
##cek
Animation
trans
deed
##ager
##mini
379
##top
362
вскоре
лиги
этим
Finnish
##data
Свети
##тельного
##ances
##дык
Very
determine
Current
ту
##16
accused
trip
1007
382
Dem
Kay
NS
##чал
##teli
Wei
drum
Initiative
ова
373
Level
##bras
programmes
##sert
turns
Elite
Cancer
##work
dispose
##тски
noi
Nuova
nm
##bird
kin
Purple
исп
##sive
1737
Sugar
Material
660
SMS
371
PhD
##jang
request
##tici
strike
Brest
painter
##15
A2
##ически
##inal
озера
##никами
##мах
Nouveau
Registrar
1724
Economy
HP
Durham
showing
378
влияние
Cheng
Programm
юни
1654
Alternative
##альной
concentration
##md
##ровал
##blad
Griffin
семейства
станция
##рым
##sian
сентябре
##vai
##дат
1672
Chapel
совместно
##нной
delivered
##even
Cairo
##tam
брата
##lement
##tives
##pha
Combat
##tian
contest
##fice
Eagles
##pot
юли
##IT
Commerce
##cro
##ети
русский
429
##вших
##tles
св
349
воды
##шого
taj
stem
##ogy
DB
videos
alpha
409
secretary
##agen
Tomorrow
7000
Cassini
##wl
##альный
1709
414
##graphic
##lera
Impact
1722
1728
отца
358
Behind
потом
##chos
1002
позиции
##vir
Broken
##ыл
##ulated
Republica
Бас
солдат
##ncing
amenities
Один
client
Pisa
solid
##ijn
##иот
Carpenter
##йти
task
Rules
##фт
ASV
businesses
движение
fixed
Representatives
Punk
##omen
посет
Volkswagen
##rious
Save
landing
##bbi
##жной
##уа
Label
##law
convention
тя
##енным
##rena
IL
lar
##hai
999
tag
##riva
##cea
император
394
427
разных
Orthodox
virtual
##oke
##zym
Mons
##гт
Newport
##wal
##tain
##iver
purchase
driving
волости
Carnegie
Изд
399
sec
##вай
credited
##тив
verdi
Mode
##lou
1733
Dirty
##гар
investment
##craft
##сла
residential
integral
indicated
linked
##unge
##бри
Serbian
Modell
392
Pole
Folk
Turki
##вает
seal
painted
Herr
Sophia
feel
класса
##icia
должности
Saga
discipline
##AS
##эль
Ride
власт
Treaty
ev
##icio
##ced
Card
##ее
Proc
Senegal
lawyer
Killer
##нко
жас
##ческа
##body
##fold
McLaren
будь
Ladies
475
tries
лица
##40
storage
syndrome
advantage
devices
Break
extremely
eyes
аль
##wicz
##mane
##нес
teachers
Yugoslavia
guitarist
photo
churches
##dte
Haiti
Киев
committed
grounds
arra
Азия
Working
impossible
rates
schema
##вало
второго
453
Tak
##oner
иногда
первом
снова
moda
WM
Falcon
691
##gled
##ант
##sby
##brica
##bling
##away
##цю
коло
charged
permis
couples
##рад
SF
##iles
Fleming
##жда
##landia
находился
##vka
доп
litt
returns
testing
##ils
##бил
Marilyn
nomina
388
GPS
Pi
##cino
442
Coach
Unite
договор
##FA
Faculty
новой
gi
sculpture
Capitol
формы
##уш
Mata
911
Vernon
##pter
defensive
frequency
engage
Cloud
Gaga
praised
14th
probable
21st
altar
##дом
##тами
Trevor
##AP
stable
Несмотря
Pol
owners
##sem
##лас
играл
Pearson
Valentine
газета
##ccio
##rell
EA
component
медали
poverty
пре
##дук
##lex
Br
преди
Николаевич
голова
1618
397
protected
sl
##ater
саме
##gian
Finance
Иванов
Fourth
##гли
##chester
##gga
боку
##вши
SSR
станом
lap
accessible
sed
visa
Hold
##ably
subjects
1708
чрез
Ra
policies
pain
Roche
reign
Noel
dimensions
1704
Americana
666
Silent
начальника
влади
процес
377
measures
patient
HBO
заслуги
448
##nale
##serie
##falls
##дова
Core
футболу
installation
entertainment
421
##gea
372
##эм
Yahoo
создания
MG
Guru
пут
typ
##phon
генерала
##rro
##рской
внимание
##coming
SH
KM
1625
##rator
measure
Космос
##нне
1250
Verdi
##tch
422
Marathon
сезону
1621
##uche
##cier
linear
455
Avant
Дон
##neur
маса
##сько
проживало
##рата
Safety
Fields
##esh
interface
Boot
Medici
сборник
Communication
Sahara
##mant
Sisters
##тни
A4
##IL
iOS
server
востоке
поселение
##рий
##mps
poem
Crisis
должны
identification
##ация
publishing
1734
conto
##бай
Всероссийской
##мон
fired
Ruby
мора
##рского
374
Protected
##рит
##vern
ide
assembly
Chor
##kko
##oot
Moss
##BC
##nko
RP
shooting
vin
##ope
mali
мнению
##bane
##fire
fai
##elis
Gates
##vage
Support
Brief
улицы
##yna
Cabo
север
##ря
гитара
damaged
Jenkins
##SE
##ood
##cios
##вим
heritage
Schwarz
window
Джеймс
##GA
meta
нд
друге
##rite
##uko
комитет
shop
energie
Savage
##ею
Coming
horror
##nell
##цей
Issue
Phantom
больш
dam
##maz
wounded
movies
473
Ham
CPU
##char
fragment
coal
##hale
храма
нови
carrying
##cts
Sharp
русской
##гон
processes
Baldwin
1703
##hic
earth
Musa
fantasy
atom
всю
Venice
##vra
Piazza
Ronnie
Україна
define
##dot
##ull
##xu
locali
дика
западу
413
Sedan
V8
portrait
restored
АССР
середине
continent
собою
Based
##ясь
##OL
сина
requirements
filled
Organic
награждён
Список
Manufacturing
stood
pos
differences
1675
октябре
wilde
Victory
verse
кладбище
Scotia
##цо
ord
Wave
##uba
Jak
Стефан
##рус
Александрович
Than
августе
декабре
res
tonnes
##iato
responsibility
##ционных
Lama
Gent
##из
##бра
##kins
hosts
##lur
##RS
Mon
partial
authors
separated
Никола
небо
##eries
chapter
##еры
learned
1521
##ьное
##вести
ум
новым
militari
mol
##aid
variables
##ились
1609
##шко
##vention
rejected
missing
observations
Romana
долларов
##bh
##pse
##ице
Junction
Vic
requires
Female
Пётр
##csi
##мом
arranged
1702
первую
RAM
stress
##ито
##льную
Giant
Mirror
здание
ван
Olympia
проте
##qui
Being
программы
426
##inan
сила
##вают
Perkins
Pratt
##ланд
Vest
Methods
список
SI
##вил
1666
##baum
membership
##кото
604
referendum
##тта
1605
sm
Lie
Primo
otherwise
##ink
живота
dated
##рес
critic
Welcome
469
текст
##inar
##post
copy
manner
Campaign
##щений
Ser
1649
сыграл
Hari
CH
Associated
rapid
##vation
1450
январе
журнала
caught
##ices
##rgen
driven
добре
illegal
##ester
##HL
##cito
Красной
##uki
марте
##laze
##щено
##оль
болот
perspective
prepared
основу
##hor
D1
bishop
Grade
Easy
##amo
retained
bomba
assumed
hardware
##ssion
##14
##force
VHS
Wildlife
472
Кара
Stark
Terror
Jet
##шни
##ждения
новые
##izing
accompanied
##hain
expert
Alone
heel
thousands
Те
эту
planes
##dine
venue
##лки
Close
Fin
anar
бригада
проекту
BA
faculty
##чар
508
chair
##rco
##used
resolution
##ying
Veneto
жил
##kari
##ческим
##рет
Mohammad
Lebanon
##Ш
##wu
fallen
RFC
##става
Mel
389
homem
CP
Томас
мог
##gence
tribu
archives
сайте
##rau
RC
##dze
рядом
disciplina
1719
windows
GM
ski
##уб
suggests
baby
баш
Президента
##пак
##рска
Guild
Circus
intervention
##eed
Занимает
##ань
triple
Direction
balance
Devon
##cit
Release
Центр
боях
popularity
##чив
оно
##альна
Yuan
Татарстан
Holiday
1655
Buddy
cards
IS
Шаран
Beast
Partit
brak
##dri
diesel
Mio
Tourism
ov
Cool
Friend
##rve
Philips
##color
1716
arrangement
известно
duties
##posa
индекс
Тем
Industries
arrival
Holt
464
##orte
396
##nst
capa
##zion
##bru
##ruk
##yx
Access
progress
518
Weiss
Paramount
Ant
##toi
bits
##cra
##били
военно
Bey
admitted
maintenance
литература
Фридрих
ФК
Московского
##уга
свет
391
involving
##чник
##turi
форми
Beta
significantly
hr
1729
thing
drugs
князь
meets
##hima
1643
завода
eman
Soon
Casino
##ntu
##емых
arme
##onde
Buck
##оса
##шал
1658
iela
##Ј
##fish
##dha
fil
Yi
Marin
##rsa
parliament
evo
505
Toro
Letter
##istica
roughly
##сни
Along
Казан
Interactive
занял
##zam
skin
##вые
Bere
##кар
characteristics
ар
Brain
##вым
мест
##вода
Andrei
Вологда
favorable
VOLUME
Roses
##із
успех
760
424
##рован
Их
##рами
##mum
Nigel
##бно
иза
gate
hus
Ненец
##дки
Yes
##plex
##rage
##чь
inspiration
##жни
дзе
расположена
446
Monday
Principal
##rds
experienced
1706
##riff
западе
Nas
##versa
Aston
##oll
##hit
labour
главе
circulation
##ость
ensure
этому
##ridge
Ms
главный
legislation
июле
Voyage
Winner
Northwest
##ggia
##boy
числилось
hair
graves
муниципального
insan
Халык
else
1536
##ardo
##lut
##ngu
Rising
adapted
relationships
Сент
Scene
511
Ace
характер
##egu
##оры
1629
##дя
##ript
associations
interested
##zare
##туры
Hoffman
##лине
##тах
##rill
Pretty
strategy
штаба
penalty
##abe
437
Holocaust
ок
##ькому
Legion
Strong
##bei
stopped
цел
##CD
modified
Великобритании
assist
tools
tribe
##ведена
resource
Additionally
метод
499
priest
444
Haar
phone
practices
1705
страни
punct
##usu
coalition
crossing
forming
Veronica
Visa
Zoo
Rapid
traditions
scholars
Claus
##сто
##hle
Японии
445
данные
ROM
всегда
##лению
##рах
Handel
##urance
soil
##tler
записи
depth
grant
##вет
Gare
WK
Bosch
MV
Languages
wet
novels
1111
##turm
Oficial
##дам
Christi
Davidson
Screen
дни
##hand
438
##ственные
библиотека
русского
genes
1622
cat
cited
##anto
presents
universities
google
AJ
##мых
сразу
##оне
Massa
victims
scheme
515
##ovna
каталогу
##ека
Noah
revised
Botanical
Rivers
поля
##дь
Brussels
intention
##mara
##ching
patria
threat
Китай
одном
##циальных
flows
Judy
##AN
##bud
column
Cal
Complex
##lab
Cash
##tsch
Knut
канал
habitual
организация
testi
Freddie
Marsh
coastal
##нтов
Tunnel
##cko
##ception
##ико
Blind
модель
441
##ново
директора
Кубок
ownership
soccer
Ver
Mia
sees
##itation
banks
nok
Gut
spoken
1612
Buddhist
dictionary
taxa
reporter
##рав
поступил
##aru
880
##eil
Петрович
expedition
членов
divide
orange
пор
narrow
io
Calvin
народ
объектов
dual
hill
1638
##аса
##onu
##mens
Observatory
Legacy
##стов
cup
Medi
##dka
##bak
Und
##HC
GO
Lonely
Spears
organisations
состава
участник
speak
##uant
одно
июне
tell
##mination
Factor
##бран
##sei
Zhou
##юк
##gla
slow
spirit
тек
##elet
Nero
Transactions
evi
supports
forests
##тые
##щает
##rok
форму
##case
прав
cold
963
протяжении
replacement
##дник
##vide
colos
discussion
##eze
418
revision
NET
##бен
Nissan
concrete
Step
bomb
Ли
численности
##рова
##anne
Reports
##ucci
##wes
Idol
##мир
Mongolia
Galileo
inscription
##lita
Sue
##каз
Lauren
acquisition
ООН
уз
Virtual
Pilot
##cup
графа
##cot
##scu
##dell
Медаль
485
Iranian
безопасности
##tude
##fil
productions
##сона
##нты
fun
judicial
covering
Олимпийских
##гляд
произведения
пять
artistic
photos
##rish
##І
bene
broad
Киров
##mation
Eu
общей
##fly
illustrations
stream
equipped
индексы
курс
Tomas
##парат
1682
Hammond
ТВ
Huang
##lki
##lais
##system
##рот
Leningrad
метра
Sm
суда
vas
Азии
центре
Государственный
##eso
Pier
##usion
##ache
##mea
##hoe
##това
Christianity
Until
пет
своём
bot
##лл
streets
Kyoto
##anda
состоянию
Длина
условиях
Reagan
Испании
Первой
##tral
площади
##chs
608
вышла
Summary
##ленной
##IM
ici
Gore
Originally
##bian
regard
Lakes
Ever
1651
##ctions
##наш
adults
##ока
cd
Alte
##шено
##лды
Org
##rton
##чок
Gia
##FC
##dder
Большой
Dong
huge
цвета
##чают
##вание
evening
##leti
итогам
alter
##gic
Conan
##тельной
brick
coverage
Rally
биографический
452
##dian
tro
##шел
##рай
##sle
##lha
##изма
##WA
Siemens
Criminal
##bien
Reform
##тической
##писи
inches
diversity
mouth
Ariel
downtown
Knights
##mona
conductor
Lindsay
sun
780
Mid
beautiful
Три
##ическая
binding
##shed
grow
##лик
##wig
Hawk
##gny
Gram
Esti
##зал
offering
Bavaria
##dida
##kot
stayed
осы
##chet
institute
pg
строительство
criticized
победу
##шил
##siden
extreme
успешно
Hank
##ваны
##weis
1350
Проте
Former
1493
##tional
##avia
##зь
Steiner
419
Syn
Adult
ready
processing
FIPS
музыки
Hydrogen
Keep
##пор
##stor
heads
женщины
##ична
Melissa
##uve
1616
сестра
штаб
spiritual
положение
##ME
##ksa
Gaza
Goodbye
Най
raise
командира
справочник
Пред
Kuba
Книга
restaurants
##stru
1569
правительства
позднее
Bert
музея
##rns
##cision
Satellite
dea
##рам
496
##ево
##lec
##рни
##jord
цар
Новая
grown
##тельные
##мира
everything
научных
революции
##â
##scope
classified
апреле
Бишкек
BD
boundary
##жина
Cliff
пен
##lien
##kek
##test
##OR
##овым
модели
##sies
##оли
Socialist
слово
movements
childhood
waters
1627
районного
##eas
Brock
concerns
powered
learn
Heath
##hnung
##кую
головного
##фе
Cherry
celebrated
Pio
Logo
##ело
Президиума
Карла
##rath
Евгений
Writing
проходит
CM
##уру
Rama
Республика
##tora
Проверено
##tage
ноябрь
##ическое
crash
tied
категории
Ян
Sergei
Sega
refer
##гла
Bayer
Vince
##вни
575
депутатов
CS
anything
сингл
##nod
Урал
##cul
rin
guard
Cine
##dini
add
художника
447
##nyi
##нице
##ственный
##bun
Allied
celebra
markets
##lore
##iata
ноябре
##dul
communications
##fully
##real
Англии
Chemie
Exploration
Ram
##½
840
##слав
##хо
##inta
457
музыка
##nzo
Castello
supporters
Own
##ностей
Southeast
весь
1695
443
Disco
correspond
##mad
##дон
RTL
Competition
memorial
##chard
Ob
Those
##llon
Slovakia
##вки
##zard
parent
РАН
descriptions
Batu
##клад
changing
benefit
##ety
Lines
Neumann
formally
apart
великих
diploma
##cin
504
##riz
navi
Neo
Legal
##rome
американский
##veld
##sol
Музей
##шно
писатель
##vn
##яется
##vita
laser
terror
faith
##ош
1628
##CE
elite
##uld
##вной
Shield
534
эта
##шими
Rochester
Viva
Северной
##imu
дебютировал
заместитель
##wne
somewhat
##овый
##liko
Mir
clients
##eak
technologies
##bara
festivals
Doyle
Further
achieve
Велика
temporary
##cid
ширина
Африка
criticism
##иста
delu
##мед
##тера
##дение
Meanwhile
##self
##ffa
очередь
##пов
##ander
Duo
кое
##fach
##nymi
##odo
shell
##разу
styles
398
##bada
##ляется
##цима
Peugeot
Олег
colour
pose
chemistry
Satu
##тник
rele
Inde
LIVE
##press
биде
alternate
433
daughters
Agricultural
categories
439
##рение
##ании
первая
Byzantine
служил
##ология
affairs
ца
сан
видео
##лите
BS
weekend
vend
##еру
соответствии
Hector
сборную
clinical
mate
Бразилия
1686
perfect
Boom
Георги
Mina
Cave
##hum
одновременно
worth
военного
главного
##rance
##нае
##бол
исследований
##инин
тих
##rle
proposal
recordings
получили
##рма
Words
wine
Yearbook
1669
Muslims
##aging
##уют
##сне
1604
LC
Kazakhstan
выше
Omega
Emerson
industries
concern
journey
wit
manufacturing
##laan
tone
##utu
influential
народов
436
qualifying
Lys
##зана
fiscal
succession
##оза
sic
FN
##amentos
1637
check
Warsaw
drummer
Nikola
wooden
Bulgarian
Distribution
Sit
##бер
##esc
Allison
##ует
poems
искусств
Hu
1595
Brett
##еть
##etu
Дж
##энне
##ssin
##живает
Engine
fishing
статистики
##rci
Algeria
##жды
##roni
Myers
Eight
##ику
##gador
##uc
##zier
##жества
Луис
##itto
##parte
сторону
Wake
flowers
representation
##chin
UU
1606
Boss
##авна
Kamen
##ование
Beth
lt
полку
##ену
3500
Sterling
Climate
##orf
##two
645
violent
##цкого
friendly
##зов
##ibe
Such
##atte
527
Info
safe
##oun
##лера
Shan
finding
mill
апрель
##ида
##мин
Noble
##link
веб
##ёва
Baku
Mess
norma
##forma
##ех
##чил
##door
Tate
##80
Елена
##дел
##gab
handed
премия
##mania
##onis
1558
Transportation
##тур
Grup
Lam
турнир
линия
экологи
##evi
##oza
railroad
indoor
кадастра
prisoners
Алтай
##ely
##работка
alia
##кция
такой
extrem
##града
1559
strongly
##лял
Picasso
Che
Shop
pastor
##вар
Syrian
FIA
##мар
Pain
##атын
##ьную
##рует
##рос
Zeppelin
##xide
Simmons
explained
resident
intersection
##ath
Chaos
console
##oca
##rac
##Э
reputation
##roa
забил
Vampire
454
Vinci
##шем
##ури
architectural
salt
##itel
449
Fa
horizontal
здания
infrastructure
военных
Nan
506
участок
visitors
Mitsubishi
FF
##dlo
хорошо
1596
##ених
495
509
##onar
##ражение
Pub
576
##ося
easy
Cour
appearing
##cari
газ
##бата
Fashion
##pped
Large
##LA
eleven
свету
Spiegel
##version
eliminated
directors
##llis
yi
##тал
##льской
Grave
провинция
инженер
Ioan
1694
strip
Васильевич
##оо
bok
emergency
Ultra
##wd
Twilight
870
##щите
ritual
номер
##ifica
##rave
##ращения
Apache
функции
Жас
одному
возможно
спорт
серия
Ferry
transformation
555
bird
565
феврале
ил
проблемы
accounts
##elia
Nico
Тя
Sprint
реж
engagement
networks
Beginning
Lights
462
competitions
##mano
Padova
Reporter
threatened
общество
особа
492
Volk
##бору
inner
##лося
relevant
mountains
occasions
##ськ
printed
##katu
lists
считается
##нику
Random
Всероссийская
другого
Members
Yan
##оз
Believe
##ится
##lova
##wart
##рати
##ikos
Corp
UE
##ative
##рский
##ature
##ility
texts
mounted
боевых
Resource
Blade
violin
Kramer
434
1674
immigrants
##бия
sponsored
##ldo
##sou
rounds
##gant
##тых
Vie
distinction
ori
коллегии
Silence
McGraw
##zil
##пан
Shi
##kab
970
##SI
Somalia
1568
552
surgery
thirty
493
Qing
479
entering
004
##hari
668
instruction
Kang
доме
adding
signature
consider
appeal
##ube
Codex
input
Hurricane
нова
##рование
484
accessed
сред
Kuwait
песня
Bath
soft
experiences
solutions
##nist
CR
системе
external
##OP
centers
##voi
fear
CDP
happened
Pride
physics
министра
declined
Smart
502
LLC
Transit
reserva
Rest
преку
colonies
улице
patron
Gaulle
Великого
790
feed
##lent
##mbra
traces
##mons
Canon
XML
Dino
row
Tank
Lance
increasingly
востоку
posti
КПСС
##hiro
municipalities
статей
Ju
signs
dependent
pressi
gone
##toma
##dito
##час
Краткий
publisher
##зда
##otic
jobs
##erre
temperatures
##dim
Running
lecture
##нн
conversion
ballet
федераци
fair
##кций
Fortune
другом
##сок
studios
##тали
названия
центру
##visi
штата
##yse
##enstein
arrest
германски
##рного
ties
Crew
missile
##улу
730
строительства
##лини
итоге
API
##чук
progressive
##веден
Religious
507
##дено
##уг
самой
##nage
##night
accept
##Е
Chevrolet
Unlike
##ждении
preserved
##тап
distinguished
процесс
Ferrer
licence
четырёх
stan
tube
лиге
##дзе
1613
##вства
535
##жы
##sig
exists
спустя
Krishna
Kit
##еми
bona
##зера
##гия
sessions
##шую
Dragons
Swan
##cale
Carr
Herzegovina
Situation
##ятся
patent
losses
Владимира
treated
##dicat
##cious
Romans
Како
##tru
##13
annually
##оре
488
##raj
deputy
beach
##abad
Оскар
calor
Use
tend
##tere
Душанбе
Pine
##оми
Всего
periods
Oct
820
Warrior
##ered
##графии
##cir
DR
Recent
##tric
##upe
##жены
controversial
dare
Groupe
detail
1602
Luz
Указом
слов
##lti
##tse
CT
CSI
##рады
##akt
533
##rating
Гидрологи
##alu
conduct
работает
##vity
##hea
existed
хозяйства
Attorney
геоинформаци
aviation
##ppo
send
##онов
slave
##зна
proteins
keyboard
sis
такого
##arde
Advisory
контроль
##oce
##вод
Bol
Darkness
##рода
Corpus
муниципаль
struck
##hul
Cyprus
mathematics
Were
diplomat
JP
##lmi
играх
##pris
personality
459
ниже
##point
538
Abbas
работать
Atari
использовать
юг
политика
Experience
sample
461
Ash
##тивно
вероятно
##oba
вече
##oste
##uff
ESO
completion
XP
находятся
bringing
shares
helping
Mile
##цин
Basse
##рс
Democracy
Ranger
Guns
wants
##води
777
Gothic
Пол
surrounded
##iate
Frankfurter
##ression
написал
##mund
Engineers
февраль
##уз
vessels
618
exact
##core
depending
##шив
##oar
wol
постоянного
Copenhagen
steam
##gul
##lman
polar
temporal
secure
##rige
observation
replacing
рождения
##вел
##riti
##wers
##дени
estimates
variation
costume
danger
Монгол
Has
пока
occasionally
releases
памятник
536
463
##ables
##vera
достаточно
740
##латы
875
##sang
##ghter
executed
491
Нови
filed
промышленности
SMA
##uid
##amine
##sna
principles
##18
sand
глава
premi
Applied
knew
Epic
ике
##ходив
maritime
727
##аты
##еч
Mora
808
##ulat
##gl
скоро
##ife
##ыз
674
##коли
Boyd
1571
мать
Pic
##etter
##rren
champ
##rod
Libre
arti
председатель
##нина
известный
##plo
##ету
destination
Новый
Dec
##льном
1607
1692
PM
Chair
потому
associate
acoustic
##igi
##vani
ee
##овим
Practice
##ички
503
##дай
##school
assume
актёр
Hara
##sses
makeup
ane
##тву
секретар
Lea
holl
бол
##дён
Lil
НАСА
##ило
##aken
Comes
1578
980
nic
Germans
Героя
551
тие
##чва
BE
Мартин
##hut
##инал
counter
матчей
Некоторые
Azur
vene
##jun
prototype
территориального
##енной
##ppet
##rque
##pino
##глед
растений
Cycling
##туру
Sp
##няй
Ante
controversy
Carta
##SF
##gnet
бик
##rc
##рски
##kop
Waterloo
газеты
Protein
позволяет
основана
redes
Univ
Neu
Promotion
##ища
conception
anger
##арт
##ege
hills
influences
respective
573
русских
нема
##нами
ge
producers
vector
2400
artillery
##nami
Maiden
signing
bound
##eois
##рки
Sunshine
имели
##rock
##ейн
##щина
##rama
##ьи
лига
territories
Heather
Има
##зеро
##fini
##есто
##lose
Reuters
477
##нно
##истов
thousand
1582
none
##чя
##фер
Monthly
Fest
министр
trading
corporate
##zz
##тр
Nights
артист
пункта
Gospel
##gro
decline
##cede
##зывает
##hak
##тини
Presse
##ried
parce
Казахстана
Эта
##шина
форме
tanks
Vers
photography
rivers
##kam
Bund
Royce
##apa
eighth
boats
Madre
effectively
860
##нуть
директором
##xy
половине
1564
##rupt
техники
Iz
ове
482
wheel
различные
##vised
appointment
Marketing
##ront
belief
основной
##RI
Exhibition
illustrated
##нять
710
##dab
roots
##кала
##CA
путь
drawing
Arctic
mo
553
##iac
Marche
минут
##ook
Vereins
Jungle
surviving
##RT
immediate
unusual
honour
##erted
крал
##пки
Turbo
##cite
Reno
creative
##corre
percentage
##yli
рекорд
##PS
474
##kir
романа
Origin
966
##chan
Баку
vessel
##кат
Moment
##sters
Па
##lano
Opus
цели
select
Ou
##нена
Runner
##cet
роботу
boa
##тие
##dol
##iss
Rhythm
breaking
478
HR
Hz
##rib
##гаар
468
Ke
##oes
##дой
Ea
##ards
##tay
##ири
ave
##став
##рв
##ведение
##ssus
##got
involvement
OK
Tempo
##VA
##ously
чемпион
basket
вице
городской
Funk
qualification
524
U2
Lightning
месту
##ool
Bel
##гов
Clinical
proprie
##жные
truth
##gam
##rli
Foot
gar
Geneva
defence
Athen
Strike
городов
##lap
sto
AL
##рест
Административный
##race
Scala
Python
544
##вного
##deo
522
experts
meetings
studying
Agua
##dolo
498
725
phrase
Kali
Knox
Any
Critical
funeral
blocks
fruits
1515
borders
obtain
Hampton
detailed
##halle
##tili
Dag
##яна
##ходить
Микола
##rasi
##sure
##зин
церква
##kg
Chandler
Fifth
lay
limits
следующие
замок
##ционного
register
Wan
ME
1453
##онда
##rese
##Ц
concerned
национальной
особливо
Please
denied
Lockheed
rapidly
Lodge
##рх
геном
##21
континенталь
Walking
сельское
forum
словам
##cati
##нял
##tade
Два
landscape
successive
##take
тада
##izm
##agu
##uali
##жает
lasted
Harbour
1080
Instead
большинство
которому
Kung
##lico
Shell
##gale
1524
Norske
жени
commun
техника
interviews
express
1001
Shadows
##ugu
##esch
continuing
##world
moments
Estate
varia
ports
B1
##open
481
##hala
##рыс
##wind
license
Theme
##нув
Pie
##нены
631
##cura
##асы
##rr
buy
656
##bai
Marty
apparently
##rett
##tee
##bler
hry
Herb
драма
несмотря
##bound
whereas
467
##рим
##вите
conclusion
Centrale
count
кн
##xel
региона
##lya
группе
Flag
##еме
Chung
##льд
doesn
##zs
Джордж
##llet
предмет
##jit
##rolle
Holding
690
##plane
##тский
GDP
integrated
##phe
trainer
Аз
ende
reveals
funded
DA
Эти
Plate
начали
##nho
##рио
root
##вили
1480
Mona
1552
##нди
Britannia
influenza
chapel
Kern
Atlantis
Led
##тури
##mn
Destiny
флот
целом
Demo
632
часов
##olle
Rap
##ционной
Talent
##aling
##ере
KB
##нства
Али
Fun
##ач
зрения
##рих
Powers
greatly
##ensi
rescue
Hat
Echo
##ивно
##тку
Ninja
finance
Wes
ref
Закон
rated
герой
IPA
Belgrade
Capo
Honey
choose
DM
##едения
channels
македонски
3166
Always
partners
decisions
##очно
Mt
поп
Здесь
605
решения
##пия
##vind
Hole
alleged
interaction
graduating
##vic
вокруг
##imit
##vich
intense
vital
sh
##70
Garrett
##hardt
notion
##lass
bones
##кал
народного
facing
##kent
procedure
boss
педагог
##есна
normally
группу
biology
employment
##онной
Окончил
Герои
победа
##mble
##lz
##лый
##ify
legend
##гор
границы
каждый
##льский
benefits
Ned
principle
whilst
види
##ственная
005
ion
magazines
584
notice
descendants
hundreds
##жних
revolution
1519
##wise
faces
longest
Bright
grid
##sad
credits
правительство
##aming
##visa
##ега
ato
##оби
seek
Hôtel
м³
##bilis
##шке
vapor
##cott
socio
##part
item
##uat
466
turning
ati
themes
Pak
##ведено
Legends
Knowledge
newspapers
##ФА
MacDonald
rs
tail
##ляли
##kh
jet
представители
830
medals
дворов
Sales
apply
##rive
489
##pton
##tol
approval
##raphic
##тып
ride
clip
transportation
extent
##ац
##лим
##дун
1517
##dare
Usa
Arrow
##оров
absolute
ди
##чат
experiment
##pla
amongst
власть
youngest
Mens
Mikhail
##кол
Yuri
##сса
770
everyone
##нке
##тной
competing
##зор
Commodore
Remember
книге
##мма
widespread
Позже
##писано
Licht
Corner
Например
Mara
Sad
Distinguished
Teddy
##чении
creat
построен
venture
средств
##яет
##рку
quo
Mall
wrestling
императора
Meet
Var
lose
genetic
##лото
useful
команде
548
bai
Escape
##pai
visiting
refuse
Lab
дорога
##cce
Tin
##iting
Fat
biological
acted
Dina
voting
быстро
##iso
impose
##olen
##ига
президентом
Weather
##щены
1677
##bli
##wed
##чали
Lead
recommended
##fit
##жали
Вскоре
surprise
Santi
300000
##шёл
Ton
attracted
Coca
военной
##дик
##cun
generated
struggle
Think
Гран
Pl
Mouse
holder
Seri
являлся
Mack
Adobe
Job
Croatian
colony
лучших
ung
Millennium
мост
horses
ALT
ES
состоялась
Берлин
Neste
activist
##100
Sans
531
писал
##вин
Hussein
Mu
##olia
##нок
Южной
Schwartz
##ystem
создан
##cene
Conte
Gear
Christians
Ese
##йски
drew
529
##ряд
Mein
polis
пута
илл
турнире
uncle
##own
##ион
##мс
583
Ferro
##чному
correct
operational
understand
Todo
moves
##ельно
layer
##cor
541
usual
Shore
##ication
##tures
##AF
Worlds
agencies
##ственно
gram
##олог
sentence
##алы
indigenous
польск
Первая
Fuller
##ssel
##лад
##oom
##SS
##ливо
customers
восточной
487
##стен
##cycle
##diction
Planning
##aq
##итель
Ethiopia
seed
Doom
##орт
Technologies
plasma
dimension
##анию
##уч
francs
donated
NO
##his
607
log
String
Sami
Burn
Alien
opportunities
642
ON
1594
##dence
BR
зона
войсками
810
пише
сама
dominated
##erti
##чиков
##rise
##OC
##lga
##liv
дан
##нием
Principles
cit
Vier
submarine
collective
Вып
fighter
1563
giant
регионе
libera
jurisdiction
Platform
##raft
Unix
##бов
##nche
##west
quart
dee
##43
010
##quent
##там
##opa
Площа
##HF
517
writes
Partner
begun
581
странах
aut
##uncia
##овите
##stin
##ински
##dici
##hay
первое
Points
##пада
##чила
suffering
##cev
##phones
571
##оном
Mimo
Pool
##kun
chim
##lian
545
Baltic
Worth
Tears
Burning
##ьким
Иако
Serena
therapy
BB
Maestro
труда
db
##tali
правления
comment
Tien
номи
##arat
scholar
Español
##рена
Kad
Volvo
большое
##dres
viola
Rule
boom
Patent
singular
существует
injuries
##kee
charter
##овно
болг
579
favore
книгу
insurance
Guinness
Nou
состоялся
##oos
1470
pret
LG
appropriate
последний
Crash
Николая
suspended
животных
junction
##фон
##hman
Archbishop
afterwards
advertising
Город
competitive
produces
Англия
своя
Cabinet
Georgian
Rosen
483
patterns
wear
##еж
Ku
taxes
scientists
Sword
707
##inti
vince
Holz
Secondary
##inou
businessman
##ключения
Row
Sutton
Её
включает
Trouble
scores
AV
NT
lov
Fate
representatives
supplies
##чили
железной
##ционный
frequent
termin
537
Help
Beer
##lve
##лэн
##tila
spoke
exclusive
##аки
copie
615
##vey
западной
##честве
имена
crowd
origins
neo
буд
##жили
##cology
Girona
##ращение
##ratu
warm
##ися
propos
Мари
1510
ряда
тонн
стать
Uz
##сний
grandfather
Did
##yas
Dodge
assault
##ange
месяцев
Soldier
##mut
##thes
disk
references
##rode
##щен
Check
половина
767
##ING
американски
expand
##esto
##pir
Having
##chor
##hone
attributed
twin
##ndra
conservative
##жний
##lude
##mers
##rost
Официальный
Priest
Frontier
##laus
traveled
##ером
##тской
тело
##был
##ностью
494
indicates
canon
breed
##ayo
582
##strada
Io
543
бывший
##ymo
##yak
##lain
Sims
##wydd
Taipei
Elm
##ази
Flower
##вила
kr
sponsor
##евна
remainder
Издательство
Zhu
602
affiliated
electrical
##trag
##ieu
##чика
excellent
всем
матча
##мет
руки
##landa
земель
значения
589
bid
острови
essential
##bul
##tze
##lho
erected
фонд
corruption
Minsk
mobil
##дня
##iton
Manga
##ражения
deaths
уровня
Protocol
532
памяти
культура
##ография
##tao
562
##лих
Lukas
##lated
parliamentary
##рне
база
##ави
##тим
wider
fortuna
постоянно
##била
516
Hands
ocean
##цкая
##oft
##xie
училища
##fere
reconstruction
виду
##europa
Penny
##oud
Gross
##orce
instal
523
##relli
astronom
Candy
##rb
великий
mainstream
современной
variations
##ктор
##nali
substantial
##ута
Aux
##sius
Maxim
matrix
##rela
отдела
дальнейшем
краю
##чните
Bears
##щу
сад
Doc
##EN
emerged
##sl
##arin
путём
##тоа
lord
##дром
##дро
Clare
Liber
##арта
gradually
Красного
behalf
отделения
##vski
partly
представителей
Cho
отряд
##ленд
##оды
mechanism
Libya
563
hope
animated
Extreme
eno
Find
##уге
##иле
Shortly
Bin
ferme
##ением
vei
##тара
672
1543
##chie
Clan
ruling
##ьба
корабля
activa
##нет
soldier
locals
Dominic
matters
##utes
mart
612
мал
Extra
aka
действий
910
##фы
##нец
гвардии
##лж
значительно
##pose
1503
steps
##уны
gallery
AR
##аб
pitch
abroad
latest
##мый
pars
##mentar
##60
Novel
##ifer
выиграл
##amental
rain
динамика
##вый
1577
##Base
BP
Summit
Amadeus
##pace
Великий
относительно
tribes
AN
##оди
Тури
воде
бул
Meeting
##ssed
##oms
##tov
Ave
##лика
Чемпионат
##еза
unsur
Ван
continuous
##LE
Волга
BBS
Citroën
##pien
##ulen
KK
concepts
dialogue
##ирования
Wat
велики
privat
513
##roll
##linger
##ыла
дочери
1460
##иса
##лли
##arta
tram
Standards
uniform
neither
Croce
##ashi
D2
##сту
spending
##бит
машина
Tunisia
сначала
##дним
635
##yah
Армии
hearing
commanded
920
##pira
apparent
Commercial
##ady
Oricon
Хосе
##аг
posted
символ
##rion
Eli
Alam
##ddin
Partners
mira
residing
Заслуженный
C1
585
Джона
Cut
##тный
##дни
Praxis
seeking
##mov
##стар
машин
##бна
##tent
##nera
Elements
##мия
занимался
Amir
##visor
keeping
отделение
Math
##garten
Hamm
platforms
##DB
##oat
930
514
##strat
##тична
Oz
identify
viewed
##edia
##bab
Armed
мере
##ранения
Игорь
rebuilt
abuse
nest
режим
##ждён
конференции
Numbers
Rocket
Stay
доктора
Коли
##aha
shore
изменения
##льну
dream
592
##тери
##blick
Ci
##siz
Disc
shift
intera
##жном
дали
##gnant
WHO
encouraged
##scal
##fta
##pect
Ленин
Twenty
##aks
Chin
##dry
##BS
Dub
уровнем
##овом
##atti
span
Dear
revenue
526
брав
##альных
Event
Rolls
temples
Rok
##нати
##енного
Orion
departure
защиты
remove
hole
Петербурге
reduction
Pure
##ански
##hips
542
##umo
общего
Бул
заявил
Th
Basin
Сам
##нку
##яв
Lev
Sao
степен
##нды
Duck
##cover
длиной
своими
##64
Butterfly
##рская
1°
##cente
hero
##aven
Русский
построена
##orie
A6
assets
##zine
##АЗ
Castel
Porte
момента
rhythm
Nad
##gae
Wir
могла
curta
##pling
vary
561
anyone
##polo
depression
интернет
##mental
Sept
broadcasting
##isson
chamber
Ship
##ilt
##works
Alpi
##ilm
святого
##ыт
Telefon
##еси
Указ
##жным
Tara
##oya
Norwich
##rable
##ох
##вань
LED
##ствуют
Educational
Fellowship
##hid
##iving
offs
1593
##дийн
Finally
XXIII
##lod
Сити
legs
Garland
Ski
Rode
worm
##orium
Славы
##fik
relatives
Secrets
Sonata
Spy
##щается
tribute
##нике
Fontana
##torial
Reality
##usement
fame
##тического
##urg
##hian
Robot
##titude
##ologist
ук
##web
Reilly
Natalia
чемпионат
##SL
##др
dini
занимает
нея
PHP
mann
преимущественно
strategic
Cent
wings
будут
##veri
Journalist
Bone
caps
##bom
##ленные
##мые
тур
Pia
governments
##eat
Direct
##rif
enjoyed
006
Dell
##чем
1512
##udio
711
стороне
outer
compositions
##PA
603
Wedding
##бного
Highland
832
skip
Чемпион
palace
Cara
Xu
Института
##чком
raid
##шт
MR
Goa
mechanical
pm
смог
grades
##lys
Maps
1490
##AR
539
автомобиль
Ленинград
confine
Се
##agne
бой
Pioneer
Simple
##itions
##рман
519
KG
Housing
retail
##SR
orientation
desire
Various
мати
##фера
##erat
##uke
Keys
picked
Signal
Title
##нк
predator
##idan
##pr
613
##вов
использования
mani
##ператор
##hau
##ET
##prese
clearly
suspension
permit
##rly
принимал
##pert
##чул
permission
1529
##ulis
сл
##еф
679
последние
премьер
##tene
AND
основных
Voyager
projecte
1204
##чало
##yw
Mercy
уровне
688
locally
##aile
golden
##нала
1523
Revolutionary
образ
Tomo
rum
sir
активности
вариант
546
##porta
667
neutral
##лати
##зно
Castell
Pen
schedule
отдельных
Aber
##istent
##nikov
##рада
##mul
##вори
tou
ranks
characterized
##кот
567
довольно
slot
ITF
##есе
609
codes
Observer
память
Choi
Natura
wedding
вул
SL
pati
Хуан
##стр
Церкви
traded
editions
handling
descent
Ren
##йно
viewers
Selle
1533
LOVE
##ором
Wi
##how
Rabbi
##nchi
философии
кандидат
Brigitte
leaf
раза
Pocket
##обус
grey
claiming
##ference
497
Prison
resp
##mol
##mian
hur
Ольга
cash
##ndum
##жо
царя
clock
situations
##фикации
Judas
compare
##ието
mich
##ziano
##fero
##mper
шести
Доктор
##pulsion
628
USSR
##жив
Workers
##NI
##щую
Великобритания
##ically
##чает
Ако
##RC
Де
местности
Linn
practical
Михайло
##ленных
Expo
Антон
##эта
emperor
596
Description
##sim
705
##ION
##xic
crown
displayed
студии
##chid
aimed
##oop
Aug
explosion
Perez
тренером
intero
озеро
oppose
KC
##нних
Solid
concerning
restoration
##стический
##ссия
Sv
charity
##mio
Siberia
технологии
##ault
##dena
annum
tun
Brill
Petri
Trial
гола
##graphe
Hercules
Ready
options
именем
Babylon
enzyme
##orem
##str
севере
shopping
Files
председателя
##вид
##чек
swimming
сети
##gr
Bland
787
##vec
Тут
Восточной
IK
tol
implementation
##уп
##ёта
UP
##vate
##по
##ught
##zial
servant
дал
футбол
##zei
##print
теперь
##NB
975
assisted
1420
посёлка
hl
присвоено
бассейна
Мир
tool
основа
##tium
республики
1150
Наиболее
Япония
599
следует
exposed
increases
cave
Swing
ST
Paus
Hilton
doctrine
##MS
sentenced
##леп
legislative
##нга
##tya
margin
цю
Musica
##24
JA
carrier
##тить
throne
mixing
Sent
757
говорит
advice
##зина
Площадь
##hane
##шений
Flowers
##site
Chrysler
##uy
Cha
dk
586
должна
1440
membrane
##arne
547
##xis
##quis
##око
##thi
Fuji
possibility
оба
комиссии
помощь
тепер
термин
Sleep
##hil
##гел
##nded
##qu
##ческо
##pping
publicly
назвали
rotation
595
Iceland
стиле
##veni
##альные
##лением
##баев
684
opponent
историю
##lih
##вели
##iba
##ising
##pec
Boat
ker
##вени
Holm
периоду
civilian
Pest
Phys
##рной
##IF
569
Rocks
Правительства
соответственно
##турно
##amp
10000
Tem
##эс
consul
Feld
549
рад
##nati
researchers
##телями
Grupa
defending
Proto
Mojo
##hri
##тских
##rap
##ётся
Лев
professionals
депутат
940
DNS
##nke
деления
##елем
plates
финале
##hong
plena
правила
701
massacre
иностранных
Fusion
rising
##цом
641
bell
Леон
##зация
shoot
Мексико
##xica
##vasi
помер
merger
велика
##кл
cz
Disease
rode
subsidiary
##nah
батальон
сентябрь
printing
произведений
Ово
youtube
##ични
Premiere
деле
outstanding
reportedly
добро
повторно
passion
##vari
##кта
Lowe
секретарь
Dora
Voices
involves
Inspector
юге
##тв
Alpen
624
partially
языков
##eath
GSM
частей
##пуск
Nato
asks
##ckel
attitude
Ova
licensed
##thy
##gement
M1
bear
675
##19
Dogs
616
##kut
trials
andro
significance
##uter
Focus
экономики
636
Тур
##isha
ВКП
##нил
Dua
attorney
implica
554
бригады
minority
890
величина
pictures
weapon
карта
прежде
результат
##llia
воду
зависимости
fresh
экономика
circumstances
##док
belonging
Scale
##toni
photographs
MK
organised
tenure
вклад
Cars
671
##ича
Exposition
Task
happy
великим
Pack
##рный
##няется
Район
diseases
attending
##име
ons
##ссии
Пер
AMD
##жности
##ложения
Albanian
tape
##code
##oq
СС
##лого
##ндо
##щён
plural
Ростов
##пуска
рублей
##ату
008
circle
политик
Amour
международных
Род
ceased
##ути
протекает
##вним
Haas
ИКАО
хора
##оду
Министерства
Evidence
##duction
Madeira
framework
##тория
##shof
micro
trust
##dering
##чены
##plin
Monkey
Sunset
oz
советы
##ished
##hod
##rinde
##гии
spaces
##рина
##ените
##gging
Rebel
возможности
##viser
Additional
##duct
Ул
##dce
##gini
##лой
deployed
##писки
unan
Belo
Deal
fee
##tration
##нён
Vatican
##mei
##holder
touring
Sounds
##рто
558
closer
##тая
##уя
Zimmer
##иска
1532
Enemy
неба
drivers
образований
##жная
universe
##sp
laisse
учился
accurate
apartment
593
isolated
##дание
День
Role
implemented
accesso
##lemen
572
Blog
##обода
##×
шест
Nowa
условия
Nusa
##боры
##vd
Must
##лины
##чет
##рем
##жество
settlers
##DP
##ylum
##hado
борьбе
##город
##ntal
Lex
gauge
falling
##ается
Dion
Liberation
Arch
##uza
Streets
consistent
Ara
##вне
559
erg
араб
##quita
Sage
colleges
ITV
##kio
Representative
Chronicles
авторы
шила
Divine
##neri
##рг
Therefore
##стом
##дана
##лаг
Dias
групп
часа
limita
568
##nec
beauty
##GC
dum
merchant
ninth
##няет
cree
##ющее
556
Lunar
##лив
##мки
Royale
jump
народу
##fina
Ричард
##type
##нний
trend
живи
##сар
##лук
Bonus
##ept
постепенно
touch
счёт
Electronics
##otes
1260
##brook
##dn
614
Dne
Cartoon
##щия
veri
НАТО
ие
##cony
##овать
magnetic
tension
sheet
immigration
##TM
Abbott
fitted
##cade
происхождения
##мын
##рово
recovered
Maple
##rter
Ambassador
##ителя
NN
organise
Ту
##руется
##tang
советской
##еге
листи
округе
##tead
##грав
marks
царства
Северо
##аться
1522
listen
##тыр
Belarus
##тров
официально
##евский
irregular
bind
##вник
##ffin
##dic
##mil
economics
##lm
bond
##gericht
##pita
##rants
Vito
Allgemeine
TCP
infection
Atomic
##fund
missed
qualify
833
##rken
##уска
Networks
##xon
establishing
Sc
##cili
##pice
Quarterly
sufficient
pit
##нте
785
##есть
##ols
990
Перед
##яться
##ezh
cf
kick
##ько
##тти
peoples
Lager
брак
##bba
Jaguar
##пал
OP
hiri
##вою
гл
##дали
Bloom
uri
Московский
##ющихся
##vili
##рн
fragments
##тты
disorder
большую
информация
##jad
Witch
discussed
bourg
Syst
ranging
sounds
##кового
626
##рали
timber
##жба
voters
правом
спорту
отбор
Barack
fortune
##лс
##yme
советская
наука
Invasion
монастыря
regi
##enu
##ально
pis
военный
deb
##тний
##ames
avenue
Presidential
пяти
##brand
##аж
Mira
##etro
Steam
##lst
Cable
##AD
honorary
DD
farmers
functional
##politik
Bit
torn
##ег
##инского
УЕФА
##вшие
1180
repair
comprehensive
##тава
nat
##НК
политической
699
Chiang
NASCAR
Майкл
##phorus
Duc
крупных
delivery
1549
655
AF
##rab
flights
##рдо
##май
Петербурга
Aude
suitable
veteran
##TC
survive
ens
Kerr
Driver
острове
##тельная
lowest
борьбы
Као
районах
##gien
Photo
Opel
##fus
pairs
Har
##нную
Definition
introduce
drafted
решил
ep
interpretation
##вие
##рб
ena
favorite
Matrix
Extended
exclusively
ratings
следующий
##ежда
##scription
##hot
##gum
##брал
игрок
степень
remote
Dahl
##gui
точно
Excellence
587
##aly
Gama
NC
Velvet
Cure
##pl
dono
##OH
Ока
Experiment
##sible
2D
debt
##bble
томах
##рона
Максим
Zurich
##cure
belonged
гр
земле
известна
##енни
Belt
magic
clean
MP3
##слуг
Са
965
Latvia
Sama
##стями
Salisbury
##pent
##pf
Busch
statistical
electricity
##нцы
settlements
Merit
constituent
ecc
Currently
союз
##tiny
##фта
##сло
##culo
входила
gap
IGE
sor
##phere
##тке
##ьский
клубом
Mort
Rada
##РО
Tesla
715
guilty
aim
##иться
##nno
##ddy
Arm
##nee
##ящих
##форд
дважды
##ственным
##wit
Liz
ABS
Protestant
##унда
spatial
автором
soa
monastery
952
Rot
втором
Palestinian
exercise
никогда
##natural
wrong
##tual
устройства
##нско
tele
умира
lie
liaison
634
Billie
Gerd
wearing
художников
617
array
##щими
kt
Surface
##onic
Laws
judges
##bers
##шо
Biodiversity
hori
organic
connecting
##кли
##enko
Анатолий
##тую
MLS
slaves
выборах
withdrew
marche
aw
Лучший
conventional
decides
Тверской
611
средней
##mah
C2
##xan
ка
Democrats
Youtube
Mixed
thinking
##viti
##ingly
##зды
Throughout
Flynn
modelli
Emergency
prac
##рти
такими
политики
ef
bag
Brent
##рите
##йг
##пись
treaty
##unde
участников
##oper
Friedman
финала
commented
Abs
doors
ступеня
##phis
birthday
аж
##lke
profession
Booth
Inner
облик
##шний
##нск
Mighty
великого
experiments
kb
crossed
Pt
Naomi
Shu
arrangements
Помимо
##сны
##ющиеся
973
Nordic
cylinder
силами
1504
577
##тот
##гай
Ala
Sidi
radiation
illness
Raj
591
##dela
##eding
октябрь
desert
comparison
cooperation
sequences
##lights
##лых
portraits
trail
abandon
629
Wish
initiated
дерев
участия
топ
дава
NA
поет
франц
fled
##ators
##водится
##чёт
##nque
закона
##irat
##ruption
##ject
Qua
проф
##aye
riding
1505
622
manufactured
речи
##rust
RI
focuses
reaches
##jur
talks
switch
##анской
##рас
606
Metallica
##лях
расположены
##кает
птица
Vogue
Ah
rebel
Unicode
621
Futures
Initially
##енно
regulations
##тные
автора
Gap
тура
##писание
##kce
игру
##icis
exposure
##imate
##kawa
Isa
##рыла
Сын
Crane
##inet
cemetery
dialect
Dann
1380
песню
Lover
bars
##tist
714
форм
Rescue
##urne
##egi
##roi
Западна
Москву
##mouth
suggest
создание
носи
riche
##pard
hyd
Усть
Mello
##gone
RT
##gula
##ect
Название
9000
##ndu
##quiry
believes
peer
##building
Smile
Kazan
664
##жную
Река
Weil
627
Ilha
ages
manufacturer
##lv
##ования
Everybody
Перу
##ались
vet
1430
Crow
cattle
earning
Eng
современного
Quantum
rector
Yamaha
targets
##елен
##eds
##yba
##лните
##fix
pursue
Dai
Павла
##penses
repeated
boundaries
Mauritius
Nickelodeon
seeing
##leta
Author
seem
Properties
##тык
alive
##лада
##sek
stroke
##arian
623
answer
Nino
zi
Border
Хотя
##оу
##ovich
вступил
##овича
##шан
Killing
roller
scholarship
BMG
detective
housed
Resident
Округ
меня
##ipe
##тических
отношении
##чине
kHz
evil
##life
##ственное
##тского
##sula
ari
801
Nippon
1370
грав
##кса
##culture
##дних
dangerous
##пка
secured
##here
##oof
##pils
Yorker
Alicante
##asia
##ану
занимал
##vena
eventual
hunting
##кад
566
Gian
сериал
Thought
mac
bone
##ndor
narrative
Bridges
##KO
minimal
##берт
##fal
Morocco
##lci
Diesel
Memories
Farmer
Soleil
AAA
574
Церковь
входят
##cture
##зам
сельский
romantic
##брана
французский
граница
##рока
##mosa
##елена
Lithuania
Gud
Tas
Graduate
пак
closing
##stat
Restaurant
Calle
##уни
Lies
UC
surfaces
Российская
##йских
Looking
pilots
##cq
направлении
Mat
automatic
topics
prices
##tend
Platinum
619
старше
##wak
##UP
768
##хий
академия
Elder
удар
Greco
Kan
588
sharing
##ировал
rebels
##дать
##ствено
лауреаты
Rwanda
##nated
Linden
1e
Gong
Cove
Минск
Wednesday
Rim
##лога
ongoing
demonstrated
##бом
##ическим
ДНК
##тово
##blica
attraction
battery
886
Адам
ВВС
##hop
поверхности
##лялись
shi
Був
unsuccessful
##dru
tea
resti
topic
Supplement
configuration
athletes
1514
##emma
828
некоторое
V6
Holdings
проведения
##cated
speaker
##тически
будучи
##хе
Odd
##мента
##lave
hidden
Парк
##fas
##вое
##дэг
1240
боя
Iraqi
Shot
##tla
теме
##щество
Яна
Gerry
бюро
Rover
Григорий
Ред
synonym
Георгий
##kl
##лор
##ision
Martini
Ця
CBC
rarely
mentor
Goldman
curs
Manor
##syn
Ras
Tbilisi
devoted
systematic
Quick
##tress
ONE
##ерх
regulation
советских
Phone
##чав
Southwest
##dov
Move
blu
опера
классификатор
Birthday
Вместе
##nap
Филип
UCLA
identical
Ventura
##бах
##иран
bachelor
1475
promoting
##achment
responded
Васил
recipient
conserve
##pok
Weekend
##uet
##оп
##fes
expensive
сделать
##buk
##ument
beating
PBS
704
##acher
веку
Progressive
вопрос
##ента
Ericsson
Identity
начальником
##HA
режиссёра
##quity
Kari
##ГУ
дата
##еке
IEC
##фикация
##oco
helps
КП
концерт
costumes
##аде
Mestre
Впервые
Individual
speakers
##nary
segments
578
handle
комп
cult
traditionally
##rence
##кла
чин
Resolution
5°
ml
Electoral
oriented
##rgie
комуни
##lj
aluminium
##tras
communal
divorce
557
trouble
##рга
Град
##тором
fifteen
1471
maximal
Фильм
##ляют
UV
необходимо
транспорт
##ission
Mala
сериала
Sina
фильмов
Resort
##фти
Hermes
компанией
enters
##еста
рабочих
##дает
Furthermore
##steries
Foto
##chel
connect
бара
##два
##ьского
Khu
##ign
##kul
provoca
1230
##шов
##izo
##езд
712
Magna
Bean
latitude
navigation
Aves
load
##изм
##riga
scenario
##нений
internationally
eggs
##tens
Париже
1340
##ND
009
Ивана
754
своему
Tea
liquid
FAO
submitted
немецкий
##rug
surveillance
вошли
##чением
##вела
##дж
TO
rally
analog
велику
banned
##zle
##жное
Standing
717
чал
Barber
nua
##DH
##зо
##ушка
633
ОАО
##icate
##mics
adoption
992
comprises
trailer
noise
Является
##eration
Directors
connections
##trum
Национальный
modes
intent
954
ie
Odessa
Tata
##GE
liter
##бив
Galleria
вплоть
##DI
##дства
обл
Strategic
restricted
##зер
##rong
fl
Bye
597
situ
GR
813
clothing
имеется
sci
Translation
substitute
временем
##ground
##pson
GHz
Sheikh
computers
##nted
##щал
##vac
##гне
##лац
rocks
1050
predecessor
661
Overall
##уми
предприятия
##NL
Святой
##лима
Mol
##фу
Sei
653
truck
ISS
##ходи
##gee
##rebro
messages
##лики
landed
987
Марии
637
module
eligible
##жению
физика
архитектуры
1483
1511
685
Марко
thereafter
Burger
Mines
ХХ
Sabbath
1006
##oci
Eclipse
quota
638
ticket
rice
atmosphere
Doo
Рио
columns
completing
Михаила
1220
598
Waiting
ибн
интерес
##sens
Vietnamese
##izes
журналист
provisional
samples
##phin
ner
айыл
##former
RD
Chancellor
##ghi
unlike
PGA
rifle
Pot
ii
##ply
looks
Австралия
Cruise
Duty
##bik
waste
##иш
миру
##годи
Liberia
чу
##bate
##тический
Gallo
saved
Первые
##tue
##сного
coins
variants
##уги
##чие
##mbi
##cans
Kot
depende
export
нам
##veno
pin
bun
literally
##эма
Лауреат
Кировской
##eye
scientist
manage
raising
dimensional
##dess
тысячи
##tlen
##вство
marry
расположено
755
смерть
##ведения
##зован
БССР
Americas
упоминается
##бка
ras
muscle
Basil
halt
##ttel
Ale
recognised
подписал
##даж
##аа
##еб
dismissed
walking
925
preparation
##tons
overseas
1508
writings
входили
Государственной
buses
Monsters
jp
pes
##phi
##osis
##ывал
complexes
643
##яр
##evan
Dmitri
##aper
##ruf
Birth
##егии
907
##dr
##иск
Turismo
Велики
receives
Cannon
Vo
##тори
Уильям
банка
июнь
северу
##gri
убит
##тау
##изации
##инской
impression
supposed
##овки
Toy
произошло
##aster
Saul
##iral
compound
##rui
вести
##мену
лично
##bata
получить
##isu
продюсер
Darling
objective
quer
RPG
##тная
мох
1330
Tanaka
проходить
##yton
##дений
##dite
Automatic
Volga
##roga
accent
##NP
##ался
Bones
psychology
sisters
##passing
голем
##boro
Gamma
Вид
тему
профессора
##есса
TT
requested
Netflix
жол
материалов
значи
##личия
##хов
##EP
частично
##mated
wealthy
Умер
оружия
Wine
C3
ара
ко
праз
Uncle
##вора
CB
destroy
##циальные
teach
looked
##гом
conform
Василь
регистры
основания
fluid
лиц
##finder
издания
Could
Zee
Xi
##KI
##dz
##mid
фестиваль
Amber
Fortuna
Jets
blind
controls
##sea
voiced
Merrill
##жит
2600
действие
##жать
thick
2°
Oracle
##тии
Vieux
flash
594
trace
мастер
Обладатель
##ители
##кти
emotional
выхода
##еном
Lamb
tourism
unless
папа
##cona
часом
##lion
изменений
ward
##ports
defend
nau
##пора
##вари
##нтом
Журнал
deck
уезд
гидротехник
##ctural
979
##чени
Ky
hang
помош
ночь
Президент
Tutti
##зон
Mirage
moon
##лку
растения
##раны
восток
научной
cont
сержант
##ежа
##most
dramatic
##бель
Ol
##писав
##cension
outdoor
##шою
мур
##альное
##дской
отношение
##avio
приток
Element
##шев
Gala
известных
drift
elsewhere
##theless
originated
документи
Голова
##нни
preferred
measured
plastic
gall
##enna
##ipa
##цкой
##кул
##nari
Virus
##хта
amino
##стана
893
##market
##celle
вв
чемпионом
##oth
##ехал
nasa
##хин
Таблица
hence
challenges
##phen
Horizon
1410
Forrest
члены
sugar
весьма
национального
##enario
grows
канала
reserves
шесть
звезда
installations
##ирует
##гын
extensively
открыт
##ogu
##нц
Headquarters
Stirling
tumor
Advance
##tock
##даний
##heer
##нив
Quality
Wise
transit
##hawk
кадастры
основному
##TO
##cala
cuisine
##rody
##mem
Panther
Тогда
##nkin
##shan
назван
##цент
##гин
Voltaire
reporting
Pers
summit
##дина
##орски
##ьд
Sigma
quantum
Hours
Pet
cancelled
845
912
Comparative
Innovation
corresponding
##cla
уровень
affect
##шила
##щиков
гора
лучший
муж
начинает
##bst
##спект
Nana
Voss
resort
955
Praia
##йская
##узов
Роден
##gste
##DE
метро
Ещё
##ield
Fiesta
awareness
parks
лауреат
##рама
##ryl
tier
##wm
епархии
rent
Danske
climat
##pest
##aniu
##rud
##нче
##Ü
##як
816
##хав
сви
##gical
##icient
кара
кафедры
monitor
Западной
парка
Oni
##tical
##smen
SQL
##rush
##вить
##рту
050
##bber
##пив
1499
командованием
ot
Wet
тренера
Cuban
emphasis
##енное
Irina
##нцев
##рж
##nian
NM
##epe
##36
премию
##ающий
яки
designation
##инский
##vini
744
##еев
Jade
moc
##дица
egg
Hate
Multi
physician
protests
Riverside
Gupta
1280
Hidden
Cobra
reverse
Associate
##щества
Kod
поэт
Win
Pond
dama
обучения
##toe
fur
размещение
##gation
wealth
backed
##падает
Gale
Grab
##жному
##ider
##СР
structural
##hdi
##nding
##вале
Rubin
монастырь
ent
составляла
##нено
Тим
Gus
собор
##ghe
Buddhism
KS
lady
catch
##евского
Bing
Images
##mbu
##tiga
Био
##arti
Gina
началась
началось
##ывается
##metry
##бон
Fresh
##vated
##реда
сейчас
##рои
pupils
##вался
##чества
##зен
Hang
ООО
Саксония
Генерал
##vene
##ущих
каз
822
Effect
Engl
нему
звания
##vous
##тат
Азербайджана
815
elementary
interactions
##ptica
Антонио
Вашингтон
##шить
favour
665
dili
managing
Session
##nome
weak
##usly
##атар
4500
farming
##шили
##ridor
confusion
Tao
exploration
главной
travelled
героя
добра
##жала
SAS
feeling
##вао
каждой
пер
Sonia
Союзу
председателем
##рика
863
962
##бл
##етка
##90
Font
##bey
##ляться
775
Investigation
695
tourist
##sla
принято
belongs
Twee
##ционные
##тичного
Milk
Leave
slo
##ьор
thin
##gative
факт
843
certified
648
convicted
Insurance
##rba
##chn
##oning
Часть
группой
##wei
##III
Австрия
sculptures
Hare
constitutional
##нить
##ector
flux
новую
##ешка
Ir
comments
##рано
играе
##pool
##чаны
copper
Между
##main
campaigns
миллионов
поддержку
командиром
тау
##лину
formats
сделал
Индии
Отец
calendar
##come
##fir
##kova
salon
традиции
flies
monthly
Carlton
океан
casting
называют
hell
Mor
##mati
Mozilla
обучение
departments
evolved
театру
Same
SNCF
Taj
называется
внутренних
aust
##тска
##тона
##ушки
##ьер
asus
скорость
1066
лист
##мина
Playboy
telling
событий
##nth
веков
718
##еки
RM
##bain
##тала
театре
теория
Лас
Thousand
##чивается
##ppel
личности
Barn
##nac
fastest
Bet
686
1509
Lovers
564
##CS
Watt
Insight
##iard
reviewed
792
specialized
##lance
выпуск
##хой
Rosso
Franc
Pino
статусом
gods
рет
##оки
2200
##trat
##ysk
##ящий
Kur
oxygen
Amin
Zen
Eventually
Charter
tables
##ride
negotiations
еш
random
recovery
нов
##sions
##eady
killer
pounds
результатам
participant
используются
Знамени
##andi
##familia
worst
дати
объекта
##smi
plain
shops
##yf
Remo
##онии
##dog
1270
Contra
##obe
702
contributing
waiting
0001
hear
cache
Gift
Mori
##бок
Deluxe
##uler
##овую
отбора
редактору
##цата
##ият
##ьном
##ьо
##zis
##няв
##тати
exactly
Passage
##OT
sitting
1101
областного
##кага
##forte
Traditional
##оци
##HS
##asu
##bry
##sena
пункти
Nuovo
##servation
приложение
##rya
##enis
Agreement
##wder
##abi
fossil
Straight
Белоруссии
Witte
equation
##рист
Wolfe
732
##dati
##lgar
появился
describing
##AA
прошёл
Conflict
pointed
появилась
##iller
##placement
dieta
Када
##lever
assure
symptoms
##жар
высоте
##вена
##яне
Bela
##mone
execution
SN
queen
##уется
731
##ленне
amounts
легко
sky
Qin
Военно
guests
752
essay
011
##uns
PK
Spin
морской
##aft
AI
##ерс
##meyer
тоже
Aero
S0
##anke
package
Pepe
703
commentary
##pere
968
fighters
sure
Macintosh
Harmony
##нци
появились
##оа
compact
explains
##бур
##лому
moderate
substance
assessment
нове
##sity
extend
##emos
exhibited
ворота
Erasmus
Scream
##овое
CRC
возглавил
sna
Workshop
Клуб
825
consumption
gear
##poser
##аре
##logist
teste
MBA
1290
PSP
##java
##tated
Bou
node
victim
##зд
##fying
penn
##mino
##аля
theories
бывшего
##pedia
##vision
guardia
filming
##niti
##cisi
##eco
Datum
Especial
victories
visas
##UE
##ория
Feature
##рой
##rint
##овали
belt
войну
Timo
formations
encourage
##тро
вдоль
##cant
Turks
XXII
формате
##yg
##yst
Medium
##monia
следующем
##jot
distinctive
ект
##lg
##tof
Расстояние
Sem
##KS
Египет
##rophe
##зано
##АР
##чается
Chao
shock
комплекса
кам
legislature
XXX
8°
##kind
ret
мужчины
##hild
Levin
##лес
characteristic
##buri
reducing
выпущен
##uchi
inherited
##pli
##urd
Armor
Shiva
intellectual
##LD
Unity
Bat
границе
##йска
тел
территорий
verb
##usal
Budget
economica
ff
patrol
Советской
Speedway
Instrument
Matter
##нали
3a
GE
ask
enemies
panorama
##вани
##лым
расстоянии
approaches
cutting
##дала
##шку
##явление
##kr
караган
северной
Method
Marks
##ече
Звезда
##bow
##иня
##рних
slowly
##lean
Sender
начинается
TC
graduation
crucial
Dust
Nobody
revela
incumbent
остава
##vot
toile
##rupted
Чикаго
Владимирович
Bomb
##clo
выступил
Newark
##urn
идеи
оказался
Uzbekistan
sensa
participating
Польши
franc
708
##ходят
814
Cedar
##fies
##diti
inventor
местных
Amiga
CW
spend
1320
##pop
Ling
Plain
##uine
##еда
Investment
ren
##дший
##уза
Rough
##lac
органов
свих
Depression
Lisbon
Nieuwe
##шь
##ml
##OK
Sakura
interim
Золотой
bacteria
##aso
Seal
tissue
Pages
##ilu
Drum
disciplines
##lver
paus
741
##ьями
##tery
ял
Melo
lift
##itarian
FIS
местного
##ssing
Куйбышев
earthquake
Rin
Ent
Ralf
медицина
##stab
##стите
##PD
стиль
##liti
1390
Оценка
##ulla
cents
##lub
##uai
attempting
##mita
##oby
##tones
permitted
материалы
Skin
migration
шул
914
TD
approached
##чень
##nty
forty
##schi
opponents
##idia
Летом
Crimson
Gallagher
646
матери
##итет
##pend
##гр
motiv
самый
##уле
917
compatible
внутри
##bella
DIN
##евой
##жне
Bud
TN
fonts
состоянии
681
цвет
2300
##деление
pedagog
coat
##ступ
православна
refuge
sleep
Forte
Ruf
Mag
706
##fici
Африки
создании
##2010
gra
гри
##енка
breeding
essentially
теле
Dome
depicted
победы
##чей
805
Put
руководитель
##tinent
Button
главных
##учил
##ённого
choir
Франц
Rockefeller
офицер
644
winds
conscience
##стор
##реди
defended
nose
##opia
##шней
международного
Associates
boot
Yin
pne
983
каждого
exit
вошёл
Ruhr
outbreak
##hru
burned
##shin
735
горы
##уки
seas
Satan
##мка
departed
affair
##довал
##hali
Эл
##рных
disaster
RIAA
jan
словами
селу
##rys
##zur
##ожен
neck
dl
Аль
##gest
названа
722
##рид
battles
##валась
652
coral
парку
mouse
##acho
gent
##vesti
##raria
Aube
RA
chip
horn
##мене
факультета
##itive
Национальной
659
visits
Active
##ason
##ovy
##ительство
683
труд
meat
Петров
##над
##SH
antique
##ущий
Bentley
903
986
IRA
находились
##fare
##erts
##fio
##iling
Host
Украине
Decca
Isola
parasit
областей
##ванне
Beaver
Dynamics
spots
Артур
proof
встречается
KZ
##unti
enrolled
751
Stora
Фрунзе
современных
ruler
##cution
Lim
##quate
##chang
Cum
carries
##рди
Рада
##ленный
##bala
##твует
artwork
##taine
##eek
Август
flew
centri
messa
##чите
milk
Ars
collapse
##load
Ivy
##мак
snow
##пта
ado
##ытай
informed
##cter
пришлось
historians
rot
##тла
##йм
голов
издательство
создал
##нске
gallo
##тас
##нту
worship
входить
efficiency
Pepper
армию
##стях
##шает
FDA
Луи
Almost
##вае
##bee
713
##чава
SMP
##pted
землю
##erate
##uida
ordinary
basin
013
##hanol
soap
842
innovation
##oin
##uation
Ty
##тично
Fax
##ителей
##ейства
976
Krone
альбому
687
интервью
difficulties
specified
содержит
томе
##нса
communist
consumer
##turing
1a
automatically
##otis
drives
Sichuan
##utz
##мого
Writer
Civic
##sworth
##сил
доста
##nks
##pata
русском
Bosco
lectures
##ryn
##аба
FR
Moody
##ницу
##hana
SB
seemed
Camino
имела
Sar
стане
2100
##поль
Areas
##marks
##ination
##cting
##авная
Manson
##оле
nap
Архивировано
citizen
enforcement
Others
generals
##ktop
corre
выборов
##шти
religions
значно
##tec
Spa
interactive
##radi
##раи
машины
toa
##was
Wen
Гора
##мова
##lick
ukr
##жин
servi
NP
Masa
##ПУ
##бира
Мы
##oju
##roat
##шихся
Sal
началом
diplomatic
worker
царство
Sonne
Speaker
676
##так
##езда
integration
Found
Юнайтед
JSTOR
proves
##curs
##pid
demands
interesting
любви
конкурс
##thetic
attendance
Maximum
клубе
Gemini
##чае
styl
consultant
использование
##енна
##iments
##цам
эки
specialist
справ
##бру
##писания
revival
игроков
logic
##ндия
Sense
valid
haven
##ntis
rpm
##state
##тику
keys
778
signals
empty
847
Materials
Piet
gifte
VV
855
earn
extends
единица
##cide
##mpo
discours
статьи
void
ге
фактор
##WD
##мены
differenti
родилась
##posite
KV
##вам
##сус
Radar
установки
Patrol
институте
Starting
##meta
общины
Trip
##orno
Америке
##ификации
martial
modifications
supplied
##ссы
Ranch
arriving
##power
##tour
673
##ssia
##cence
##rooms
765
762
tribal
территория
##ipper
центральной
##croft
##lied
##timo
##вра
##уму
Проект
Ter
##gst
##сама
##istrat
Иран
большая
третий
Putin
rende
renowned
##boot
численность
Patria
aboard
##вается
ministry
removal
Moulin
##бник
Midland
bloc
парламент
simultaneously
##gino
##ух
fifty
wasn
Австралии
Shine
joins
##яло
minori
##рм
##tman
марки
##генда
обеспечения
##riat
##тические
Consulta
Cali
##mage
742
Mercer
Period
фронту
Tibetan
##вшись
Eminem
996
продукт
Манас
##ior
juvenil
Noise
##вина
PD
##чном
examination
##трия
pioneer
##cism
771
##tention
EK
1518
##tary
escaped
##bation
##hers
651
649
##ысы
Photography
waves
##CC
Sachs
siege
##льним
Crimea
новое
Mach
TNT
##ceno
Daimler
Parliamentary
##ерна
##льского
##вив
##лази
Coll
##resi
##fis
##hammer
##lings
##живал
##жав
Harley
Traffic
Understanding
existent
missiles
банк
##UT
##rner
Spectrum
806
##makers
Addison
##йские
efficient
очков
писател
##ступил
##тету
Civilization
triangle
Borg
месяца
ер
Maschinen
strand
##ained
Милан
коме
##ивного
bel
##ild
756
Download
deporte
тема
721
decorated
Coalition
##acon
disposition
##твы
Yourself
murdered
##haga
##polita
##здо
E3
pulled
##яч
hub
##mari
##нити
circuits
##plant
##нили
commenced
##квы
grass
654
кораблей
B4
старост
рух
##жащих
##mbia
порядке
sociali
gases
tested
Dor
##ннан
##хом
Coral
Золотая
ly
Sanchez
##RE
survival
##GM
TJ
Ola
lung
Bello
Fender
##ицы
##оты
width
##кома
##read
wish
заступник
##нички
Amendment
achievement
Photos
namely
Sunny
Panorama
гори
faster
##utt
переехал
Easter
resignation
connects
Poor
scala
Павлович
##uss
Muse
##жава
##овской
##nesi
Nil
995
##round
affirme
tio
##eption
difficulty
##kro
##есной
##зных
discrimination
семья
Diversity
Soft
##sance
##enter
pointe
Rhine
##rmen
Treasure
Kaplan
affiliate
##kre
##ffle
##емые
Sale
летию
ministers
Премия
##lite
##sari
Warfare
bog
Fidel
##кана
Oleg
stub
Path
##иков
##пел
стан
##ysis
##ическом
##ичного
##нила
venues
##uth
Activities
Forward
плей
##ceed
Cope
##stal
materiali
nominations
proportion
отряда
Ubuntu
##нэ
##cribed
745
Had
custom
РКП
доцент
Unknown
Effects
bearing
основании
пар
##чёта
##гч
##efer
реку
##ilien
картины
единиц
##pso
конкурса
фактически
Leadership
Dur
Serial
##inski
##aton
pen
##uara
ничего
Katy
Федеральный
##ттар
подготовки
##тника
discussions
##мал
##онных
##nymous
##kina
##rmal
задачи
aware
invention
клас
##зовый
окончании
обратно
Многие
##yman
Tier
проблема
##bone
Gal
##sur
##uas
##лади
ambient
682
поражение
двор
BY
##шель
Alpine
silent
шо
##trus
##posing
##erman
удостоен
Leonid
cluster
##дах
663
орденами
abstract
flower
найти
##эмы
switched
играть
Pakistani
размер
Бога
##dest
Process
##mira
##дови
Sawyer
##iest
##ёд
Moro
##pher
658
relating
##nating
Slim
default
##vian
Cast
Logic
Score
databases
отношений
##ёй
exhibit
программа
статуса
Classe
Анны
##fession
Sirius
ARIA
Jacek
##КП
##LS
662
Monti
tap
историк
placing
##нергия
Emirates
##ляются
##torium
Concordia
кит
sk
Alf
explain
bombing
русские
thesis
restrictions
##лета
Applications
S1
laboratory
comparable
delayed
Thursday
порядка
##ipo
curve
##marine
заняла
митрополит
##llion
##wels
##ственности
Sign
##рения
##озеф
Tong
consist
##кви
##ув
phases
criteria
Worldwide
##reme
##зию
Intercontinental
Основные
Новосибирск
Behavior
##олнение
##ntation
Поэтому
вопросам
государственном
Problems
dair
administrator
##монт
Omaha
beam
Polar
##each
##moni
##бет
Odyssey
Perm
Похоронен
Запис
##hov
##влено
##рел
мне
nominal
##падно
2021
Chain
##mante
##йного
##нута
##лями
Baum
Sep
Motorola
##NO
##ump
Ama
sending
крае
hydrogen
895
tournaments
большим
Валерий
семей
##жила
##нце
Monitor
dress
##зки
##cam
дип
##kil
виды
719
WORLD
##lug
##мя
Loan
historically
##reng
##штейн
A3
Universities
##IX
716
##uite
материал
692
##itant
cool
KO
##atories
709
Firefox
светског
##рла
##тей
##кло
##огу
стил
батальона
##pende
Sole
##чное
##erus
democracy
##dish
arguments
748
Events
студентов
Ark
Palo
LCD
Shuttle
reflect
эпохи
##rami
##53
915
##lates
##омо
Sands
успеха
Други
smooth
bra
induced
keen
среднем
##рация
Vive
import
provisions
составил
##style
пара
середня
##глашение
Outside
Бог
##rvi
атаки
Novgorod
чак
##дения
##anga
##big
774
Gol
располагается
allies
Halo
ken
##хара
Reason
предложил
##опис
статистику
exile
##mits
payment
Впоследствии
##efa
935
дала
зоне
##бки
##ступив
сказал
##оче
pub
##cise
НБА
Administrative
Sexual
##EM
Atom
получения
##овен
работали
вынужден
Integration
doc
ІІ
##mna
Gender
aims
stops
концу
Arlington
numeri
dose
##cible
Cats
##рные
##KA
Тому
ER
quantitat
volunteers
denomina
##олей
CAF
Klima
adventure
эпизод
##нора
##вная
Details
airline
##trie
академик
VIP
781
improvements
homi
888
##дав
##рема
##чим
##hua
804
жили
##овому
Nightmare
electron
fat
footage
##ствовал
1478
Dir
##како
dogs
##while
##тена
##оту
gardens
945
Else
Slow
hed
##dust
Poker
deemed
instructions
wire
push
Fram
##зни
##83
##дог
##nish
Aria
##yte
Twins
##erson
Дону
Growth
##gres
##атор
preliminary
##ландия
recalled
diagram
sized
Fins
##точна
##зована
##вестно
##rland
occupa
##wide
##ПС
1052
сцене
##елес
lover
Barra
##yed
##рый
##curi
##ьке
карда
##аются
##stitution
Радио
##мбар
##рована
estima
##rip
##чивает
Grass
##cological
##писана
случай
##иев
647
TNI
##йон
##bies
pollution
програм
Калифорния
KGB
##кости
breaks
agree
Новгород
##tau
Downtown
меньше
элементы
##ibility
drinking
нив
м²
lakes
рота
##брание
729
Jiang
##TF
##ирани
Давид
##mach
867
##grapher
736
##reti
##мок
второе
Aid
Violence
rocket
анализ
принцип
##uate
##32
hel
669
##нимать
Brit
связь
Спартак
##ковая
##олу
Bord
feelings
Альбом
seeds
administered
763
##жнее
Nike
хозяйств
dra
этапе
небольшой
724
Почтовый
presentation
##lins
игри
##йну
spectrum
##алов
primitive
##VE
создана
греч
означает
##уват
firing
территорию
##boat
1368
queue
сада
приняли
##idu
Theft
perception
##eig
behaviour
Kap
##sele
MX
displays
resumed
DP
garage
##ковых
##пископ
##ожных
1170
##сных
Begin
Mono
##backs
posts
кандидата
блок
Ove
venti
##rend
Computing
ун
slogan
куда
##uary
##pod
##villa
wars
##граде
герцога
корабль
##fang
цим
Ata
896
пари
Cam
операция
герба
NG
Lynx
установлен
Нов
##quito
696
##reg
ESA
##сход
Stat
машини
ERA
организаций
Rabbit
##ствует
чеш
portions
Cafe
##sell
##кты
##опа
Conti
##team
Уже
слишком
strict
743
Lay
##beat
##iru
819
Рима
XL
танк
##stellation
##ometer
hung
##hler
##eber
M2
traits
travels
Благодаря
proposition
##EL
telephone
##оружение
##cons
678
Храм
##raba
##гляду
##чета
Colony
diabetes
dissolved
attacking
Шевченко
786
службе
Crossing
Kris
Mineral
Clear
кв
Леонид
заводе
receiver
Boogie
причём
929
бизнес
numbered
состоял
Revenue
##ваний
островов
eat
participat
##угу
Flor
copyright
885
753
grain
creator
##ача
##blished
Indoor
arch
Flags
срок
##вии
##емый
##25
Gall
##ocha
celebration
temporarily
closure
kills
##enic
##PG
Meta
Mask
##stream
uni
##NS
elevated
##bato
продолжил
##corn
##ждена
##cay
Mint
##ficial
Principe
Farrell
##сади
##erg
Megan
##atic
##tly
##ttage
##анда
##ируется
fant
##АН
##ours
##био
Mental
penal
876
##itors
музыку
PCI
Amer
Generale
##водит
появляется
casualties
referring
##ывают
##solidated
OR
employee
brings
##iot
##гра
##вшая
UFO
HTTP
chat
VA
Жизнь
##now
807
##енности
657
thereby
##рност
##зможно
##гельм
Fool
Кам
##cient
диск
##цый
##его
crops
drink
зал
моста
##gination
698
JB
попал
##тук
##holl
##stitute
##алась
##вляет
##unes
##juana
##wag
dancing
прем
exhibitions
##анского
abolished
проходил
Манси
представлена
##лаа
Справочник
##rgo
Og
Creed
##градской
##pres
##vela
##логических
tensions
##lip
##lord
##езия
эл
##рци
##уске
776
Jacksonville
##оло
ferry
quick
intra
Elections
погиб
Главный
Different
##АО
arrives
B3
tuto
электронный
##пустила
##33
Марка
783
##йны
3G
Drop
главно
##wai
##одни
contracts
##peri
##jero
##щественно
Arabian
Ga
##hore
##vsky
##брав
graphics
sectors
759
##енную
##rins
Jude
новая
Glas
##аран
EL
997
Художник
номером
entity
##forced
##odia
documented
замуж
indeed
photographer
##borne
surge
Vide
Does
##UN
##кху
pra
ah
ан
Coffee
969
012
972
stability
относятся
Sources
thanks
непосредственно
принц
Listen
Ле
##оги
##ьку
летом
##вине
##ози
gathered
племена
##nture
друго
##рний
protocol
##тельным
дороге
живее
981
Colt
coffee
##ernal
##дование
957
valuable
##85
prepare
номинации
Като
Bend
##sita
крепости
improvement
##rior
dense
единственный
братом
TM
terrible
tenant
##rail
RSS
##bod
процессе
GS
852
Risk
##ести
тус
Above
mainland
##фильм
958
##posito
##she
hospitals
##мени
##sequently
864
835
практично
##рава
обе
##tail
двора
##kii
##ods
poll
pushed
рек
проходили
936
Corporate
innovative
Yong
procedures
elder
Участник
##wil
Oda
##oed
##пии
Reine
evaluation
##тих
##овного
Demon
##oman
##шня
agenda
Leaf
##род
Tuesday
coaches
Коста
##очный
Кызыл
Бразилии
##rase
##уры
924
##инских
##туре
Thriller
##йл
##альном
align
788
shut
##VO
##тао
##piece
плен
##лот
##чит
##дство
##ечка
##ару
##plus
##овной
secular
##эк
menu
привело
##hter
BT
Infinity
##паж
##воду
##стика
вследствие
##zai
передачи
723
южной
##шине
##ywa
correspondent
Глава
##іль
##graphs
##чак
Wizard
audiences
покинул
##осиф
##тске
##нического
##trica
Beni
##укция
Juno
NJ
карьеры
##pik
summary
##анов
##пат
анализа
платформа
игрока
Built
##фор
##plicit
##ОВ
Франс
правда
##овни
элементов
Ker
перевод
##сной
километров
##лично
##шол
##пления
quoted
природы
##wet
Hotels
divine
возраста
##taining
opens
Moving
исторических
другу
##рованы
Coco
##ическую
901
диссертацию
forti
hybrid
начиная
##loss
sentiment
##ugi
Cargo
##saka
##тства
##народного
traveling
905
Христа
##iati
Apart
cgi
Индия
Серия
merely
statements
stored
Entry
Tie
Connection
##lba
##lb
##дель
pension
Песня
престол
еха
Lone
verbal
##кха
##пала
##ulate
recta
##пустил
##estan
администрации
юк
bridges
работала
российских
##rising
ресурсов
literacy
Parallel
maxim
##deutsche
получает
скончался
##nting
988
readers
mentions
Gao
877
##летия
054
edit
Shake
неоднократно
Aerospace
##otion
warning
Netz
##inci
mono
##city
1392
нужно
MAC
Message
956
SO
tenth
Дэвид
flood
putting
RE
флоту
Ramsey
##реста
compounds
1190
##sional
693
##ющийся
сведения
##maid
parade
max
addressed
lifetime
lights
##азе
fatal
##bn
Karim
dj
##тою
Af
Antal
##хоз
##инки
Христо
CDs
understood
Именно
##rack
PG
##imet
RB
Петро
LR
Rad
curriculum
##vue
##last
vitamin
Лондоне
##ённый
Femme
Fairy
##вио
##орского
##nance
ry
политических
Qu
revolutionary
##вей
Ak
984
Труда
##пределение
812
Treatment
домов
Constant
Majesty
citing
##щину
697
compiled
origina
Rings
данный
Demi
RN
generations
английский
Doe
Floor
stabil
PL
indicating
##istra
Anastasia
##ковского
finances
евреев
Zaman
##rub
Ryder
случаи
##шнего
pla
ura
Battery
##чики
##ьбы
##нать
Should
##дный
Talking
##орот
Buena
количества
находилась
##kak
чаще
2560
отправился
##анский
civili
Semi
поред
##perate
prestigious
возраст
##bc
##етер
пат
##тко
транспорта
##вр
Loi
##ection
##rko
доба
##ВС
##bour
югу
Екатерина
25th
Avon
Yet
ultra
compensation
superiori
##парата
##aud
##hibition
widow
##зацию
##nick
##лая
824
869
AH
городах
метри
случаях
##bond
Flow
826
Arco
Citizen
Diploma
Корея
Primavera
Работал
##IE
trick
Ime
##ладе
##gates
##готовка
направления
discuss
modification
##plications
##cach
##явления
Dove
##roje
##овили
посмертно
##зала
predominantly
стихи
coin
##ints
##pression
1402
##hom
##жей
##зира
местах
##22
##чинения
refugees
##mse
holiday
##bidden
Guangzhou
Питер
Nevertheless
drag
tire
Уса
##fr
##hina
reforms
convinced
synthesis
##нное
##рске
865
795
Peer
layout
726
Армении
##iewe
оборони
020
rivals
dynamic
##сокий
шлях
peninsula
sid
dissolution
recruited
##blo
##duce
1455
862
##ватории
821
##положен
disorders
##ацию
##ецкая
courte
Nile
1310
##lbum
Lens
сравнению
##rder
##лыг
##лит
##мика
manufacture
##пски
anchor
conversation
Школа
Fonds
##лев
bright
consensus
barri
##ывать
##бии
tasks
1282
Tomb
perceived
##news
##pire
asking
##ящего
944
failing
Позднее
851
недалеко
##кия
##арда
broadcasts
##ficie
##инде
heir
RF
Organ
писателя
879
длина
##егия
сегодня
Первоначально
наших
Maj
##OX
##рты
написана
##outs
RJ
pw
##кле
##ственную
3°
democratic
площа
##дания
TS
##рованных
taxi
##орд
##дных
sustained
Русской
##иро
drove
A8
masses
##kow
Стара
еще
самим
##TI
##hie
angles
##лени
##юза
##mori
##quire
##хна
interval
авиации
##cked
882
Rep
руках
##ads
##эра
Hyundai
##лами
входил
##иво
Архангельск
руководство
##льне
Красный
площ
Mitt
##ичка
customer
##lendi
метал
##дил
иметь
забив
##ordinator
trap
тимер
энциклопедии
##egas
##лева
##tial
1185
##aise
##prise
##кон
##note
Stream
silence
922
Moll
##xit
Teacher
##cking
##сийского
##тике
##циал
##ивна
##тическая
герб
##cim
contribute
##reden
961
Fel
##quence
депутатом
##mig
Джо
Республике
##orp
maintaining
становило
Находится
871
Rote
creates
liber
849
математика
Dre
##вую
##лько
зоны
##ровали
preserve
Faces
##lobus
##льны
##вок
##ческими
689
вошла
actively
alphabet
##оружения
Objects
##äl
Goal
##achi
##riche
##жень
827
##яют
##lace
##рис
##чалась
B0
Sioux
Moran
##лец
##UM
##xte
##ландии
##ussion
Театр
traje
Жогорку
paint
ат
##vola
Roads
sweet
мин
##zoo
Phan
принадлежит
Resistance
искусство
##улы
Premium
troubles
##cally
события
##льному
##guan
opinions
##rrow
batteries
вся
Programming
##ael
##сел
kit
людьми
Vene
установлены
##yin
811
694
##media
##lts
abilities
Astana
shipping
separation
app
##lux
##гория
##бори
##IB
Internal
challenged
operators
##ctors
##оден
остался
##ntures
##ows
##пруга
##rber
celebrate
Acts
45°
Ng
Земли
высокой
##вных
##еї
##nders
##sumed
##овив
accommodate
##лице
Intro
композиции
Одним
thirteen
далее
MAN
lion
##ствен
шоссе
Question
Baghdad
corporation
CN
explore
dealing
##гез
статья
##pro
##ustrator
брака
athlete
absent
ICC
##sua
Юго
##icap
Km
Symbol
##тство
853
МГУ
confused
##ddle
Lau
##ината
graphic
##mospheric
Came
afternoon
Boa
##lici
distant
Application
extending
##лые
Телефонный
##egan
##chat
Update
##льными
##щика
Sb
##мад
деньги
Руси
cuts
instant
sensitive
remembered
##жней
1476
##тивных
дерева
facts
772
speciali
Magnum
##nuo
##PR
minerals
Messe
Деревня
##ngin
Греции
imprisoned
Hundred
algorithm
misi
##psi
728
##воров
##имость
866
FX
MF
incidents
стрелковой
##leh
mathematical
##love
##foot
##ash
shu
##дама
##trine
Devi
MPEG
Tehran
тома
##IR
Genera
Champ
Essential
##pou
nearest
председател
##нство
Nirvana
TB
##rmo
##вано
младший
приводит
##ято
959
Hubbard
Ora
##ough
##nast
##чела
музею
Абу
##dox
##quen
aur
intensive
Estonian
##figur
##rv
Liv
iPad
1444
дети
Dry
throw
##ected
Ano
населением
##уре
##жер
Vall
mixture
belong
##ляла
neighboring
##след
Wim
##нятия
beer
informal
Saab
App
##imes
##say
##lander
shorter
##жской
##ьской
образован
##rae
##vori
##ерно
##emot
характеристики
bore
academy
militants
##bari
intermediate
##двард
Terme
литературе
пописа
Bring
Герман
##öv
promise
##rott
женился
CSS
Marke
##llan
025
##aio
857
жа
Products
M3
Сайт
##verte
берега
1160
grants
distances
##щении
794
династии
##мая
##лике
карты
Сборник
##hera
809
Target
878
поход
844
reception
Assassin
Польша
##ссе
##ёра
класс
##vr
ED
769
##shing
requiring
CG
749
beaten
##ницей
##рва
##енски
841
выступает
##рага
Cream
##aque
##rens
##fig
##nial
focusing
Ik
##лиза
сценарист
любой
Asti
Sometimes
fewer
Inge
##ductor
reflected
ARD
##obia
##bern
##хоза
realized
##лски
zoo
##23
дворец
perse
##91
##рала
##фат
918
confidence
##шек
generate
основного
Rudi
nit
GA
##vator
##нести
Mord
##стата
оружие
##unter
культур
921
Макс
monitoring
##оля
Kawasaki
902
Teenage
Около
##гат
Ана
##яются
gala
##oral
argues
приз
Banca
Pin
##65
##бат
761
Sanctuary
##йд
ЦСКА
Laser
Мадрид
##унта
##ктар
##ьним
warfare
884
ranges
Kick
языках
Сибири
894
последнего
стадион
##ржава
MH
boards
##пания
##ratos
shots
friendship
##GP
гражданской
цикл
gel
Ethics
##ировки
pronounced
developments
##шийся
Inf
independently
##oran
##чально
4°
##йный
##ганда
677
sensible
##соких
probability
порядок
x86
Средний
##lbe
Lua
##ционален
ET
invented
reproduction
листа
Павлодар
##valent
##pensa
##жий
axis
MT
##trition
enabled
Смит
Saw
чине
##стиг
directions
моменту
Tribe
заместителем
секретаря
##азан
##fiti
folklore
rein
determina
полиции
VR
lying
839
1405
##омы
##rec
##яг
971
927
плана
founders
Dayton
swing
большие
1325
Transfer
##дку
##tide
больших
B5
pride
##ibes
##writing
937
Borgo
ambassador
Bow
ряду
##аку
1210
766
##ulations
главен
qualitat
##zov
##ади
1A
maintains
##уктор
Bf
psychological
##caster
##hla
високо
Алексеевич
rege
Nagoya
##nita
##FM
Hr
##нас
relay
##action
##tructed
##тельное
##жио
##овы
Vehicle
commitment
страница
909
##тапа
государственных
практика
##нут
possessions
Знак
##ечно
Pel
математики
Mazda
aggregate
Новой
##etz
##lined
##уль
758
совершил
##ивной
союза
##мку
contacts
communis
##йца
forcing
электр
##holders
Property
латински
Освен
90°
Mater
Savoy
CL
848
результатом
Seasons
##herr
##лод
##nock
Credit
##нго
Supporting
##ceded
knee
engineers
##valli
##чык
streaming
##dma
##сис
938
Всесоюзная
##pion
endangered
JK
##сад
Duff
##ирование
##SM
politicians
maternal
Siam
026
theatrical
846
##region
818
Mil
colleagues
913
##зани
seize
водный
##КО
928
карте
NSW
##cora
noti
говори
knows
##писал
##lust
стоит
##watch
##вело
Нового
отставку
##closed
heter
зону
##udd
aggressive
##ghed
MI
##вара
##циальным
requirement
ее
##нёс
##роки
##kwa
##дного
мини
результаты
governing
gameplay
писателей
Colo
##lue
##zzle
##cao
##ocke
##rdy
##rmin
##bay
Турция
##ласы
beliefs
правил
733
##yers
seriously
##bacher
##cua
##авного
журнале
прямо
##жие
##ичен
##перед
##motive
retreat
Banque
##illing
устройство
финал
particles
##иль
corpus
лице
vulnerable
##вёл
##рби
surrender
Социалистического
##руг
##ural
##oul
2022
fate
varies
823
##ьне
1074
большей
prevented
##rove
##онской
738
##иба
1404
##kles
VG
Георг
##вшего
964
Berkshire
Министерство
banking
заниматься
##онте
Группа
принят
operative
Greta
Playing
passages
892
acute
##ivated
015
##оба
rebellion
архитектор
926
##pment
intermedia
##dits
visi
однос
887
Taxi
Томск
reveal
##gator
##isma
вопросы
##brio
##гал
Quarter
teeth
freight
вели
intelligent
Nexus
##ечь
societies
indice
##тун
##erbe
Lithuanian
Швеция
ML
manages
cite
jail
##авы
evident
списку
optical
939
977
739
##рство
Единый
923
gu
##vereign
Mille
gaining
##ored
##йо
Print
делом
Vis
разу
##очной
лучшим
##oles
##oze
##pei
##веде
MMA
##orne
strings
Opening
##dels
infant
##jee
##рских
secrets
##cultural
##лис
далеко
##вшийся
cathedral
##pens
Cass
Lock
Смоленской
##гони
выходит
награду
##водить
##nsky
MUSIC
##рив
##arm
##ствовать
pseudo
JC
##siste
nai
##нимают
Tiffany
##енными
WRC
архиепископ
##гами
##чника
особенности
состояние
errors
народных
##hog
fairly
owns
##lios
##циональная
xx
##dicate
прошли
Воронеж
##сол
##уо
рост
##пуску
##ходом
##neous
followers
monster
##cti
Ober
светот
##рального
золотой
citizenship
817
provision
собрание
Hague
##авен
##quilibrium
##учу
764
Hirsch
Dubrovnik
##тации
##blem
Sari
mall
Генри
Acer
prisoner
installer
##coma
rep
семи
Slave
bd
##erald
##честву
reside
terrorist
##pea
div
бере
permanently
жены
Kata
delay
dragon
Groove
##ESS
##ssy
Ricci
Без
sever
Света
Portable
экспедиции
Bluff
##еров
Baza
Quinta
##инска
Dhabi
967
речной
announcement
Motorsport
##hib
##ради
##вления
Carrier
пишет
свыше
##versari
##ёк
##igned
##aps
Рейн
##гради
близ
##lyi
лета
доступ
##щему
##рива
1399
##hine
стрелкового
правах
##вят
solem
##ася
##держание
Clock
##рое
BEST
Catch
798
##нными
diet
##сию
##стри
nineteenth
НАН
##орна
734
spell
##истан
##xin
##ews
##рю
Amnesty
Bed
1397
746
Katz
##вку
исключением
Shock
##onin
##sfeld
##oked
##нские
2030
##tw
Infine
картина
объект
битве
##ъём
ss
##анне
Leopard
##чники
unions
##гарски
sixteen
офицеров
1295
retain
restore
ассоциации
##lette
874
##пра
##шала
##rue
##35
Dimension
Lancia
skill
назначения
##xida
##писаны
Ханты
##rmi
задач
##tich
generic
holes
парламента
Helm
любовь
##45
##rks
##итания
рат
Inst
Invisible
##posed
##ратил
##шных
Ass
coli
Window
releasing
narod
ammunition
Ямал
##gid
Guangdong
Besides
TK
Tun
clay
##mmet
##урс
Desire
Maha
Athena
##ences
##lende
Kristin
872
##uction
##имов
861
promised
приблизительно
oka
молекулярна
##hwa
##sya
##гло
793
твори
игроком
предприятий
xin
Milo
##duk
Одна
Treasury
##presso
##года
##ступления
803
победил
##spect
modeli
сцена
##пали
manufacturers
##менты
Фёдор
##NT
##romo
vitro
справа
##ключение
##ndering
libraries
cure
046
##ваш
voices
Carbon
##HP
##дела
соревнованиях
##гата
Национального
sharp
ruins
897
workshops
##gist
##право
Mundu
##rms
998
американской
##ткен
transformed
##ивных
##mune
782
Less
##ocence
919
Electrical
конец
FOX
Sve
014
##rowing
906
##lide
severely
UMP
##олю
##pm
civilians
сами
##пска
Hg
##ppy
##сота
основал
draws
##ML
##dete
##маны
entrepreneur
##etin
##gall
##peli
##бное
Contact
Strategy
U23
Rimini
текста
Tyson
##51
th
кыргыз
##ips
eating
Doors
Ay
Selection
высшей
едва
PV
восстания
##иски
##kha
##varo
##ентов
796
##glo
stones
Общая
лидер
становила
##феры
Cadillac
invitation
stationed
##deu
##pide
##ключён
болезни
Evaluation
Issues
Burlington
Sai
##ogical
voltage
836
Hansa
WBC
##ената
advocate
##iron
Held
1422
здоров
fourteen
982
##вео
##енен
##ensive
##орка
делови
##000
lighting
##ited
заводу
##нук
Хан
##sides
##tling
##тне
##OD
данной
Hui
губернатора
##28
##рыв
##ступление
качества
##крити
Система
talents
##сет
Chip
girlfriend
граждан
##fet
1225
##хад
##ителями
bears
##may
Пловдив
VC
conjunction
##asse
Чили
скорости
##торов
Ирина
cotton
большого
##яви
Def
Concept
##01
PAN
1458
Automobile
##вера
promu
Pax
repeatedly
##тип
##язаны
встречаются
829
Dock
centered
##start
##жского
сул
##зень
Speech
deals
essence
##NK
##лица
Elephant
estimate
Cambodia
kV
##unsel
##вление
china
##яз
observa
underwent
##lmer
Packard
guides
prediction
Ленинградской
##еро
улиц
##емой
guidance
##бинск
##зас
##ecta
##зова
##nson
##лля
##стых
душу
залива
##шиеся
931
##тине
##казом
demanded
##technik
##борах
1215
stolen
бала
Tone
belli
Cosmos
авторов
investigate
##bbit
модел
legi
pink
кен
##inea
allegedly
отказался
круг
свом
создать
##clu
##nological
##льшие
upcoming
##cript
##аву
отдел
##несе
bold
773
talking
908
взяв
satellites
journals
observe
герцог
##АТ
##анна
Diamonds
##34
sensor
##chuk
##влен
##ёна
016
Вестник
связано
##inate
sight
##говора
AFI
епископа
030
aquatic
ster
какой
##гать
ранен
##nition
welfare
кампании
последних
##citation
USGS
volunteer
858
Smash
Taking
cloud
##LM
рано
deem
Flame
напад
Slovak
Казань
labels
raw
##esu
1307
##дняя
calculation
##виг
march
##fone
##ыка
Венгрии
##нским
##ующих
##bid
##лаш
половины
##метил
Favorite
burning
##нос
emerging
tomb
##38
craft
объединения
##дского
duration
cognitive
Tek
##pac
##вным
##ражений
##алось
карата
Первое
##yron
##вах
##ченик
789
altered
discover
Danube
Mod
closest
ата
fog
791
SOS
##нот
##lift
могло
##82
Assessment
iPod
shoulder
реестра
##бло
##лану
##ader
##rship
##нания
Heine
провести
##йне
##упа
каб
Ново
comprising
Pal
##hyl
domination
жив
Countries
достижения
музее
Ima
init
##kull
времён
служи
##елы
Китая
##нятие
Hair
##aler
Mueller
##ession
deeply
середины
играет
кантона
Eaton
Micro
командой
магазин
##логической
здании
муниципальное
##нское
##ulin
Kensington
Kitchen
Oral
1356
868
##ndro
##логический
NED
Русская
Cycle
оперы
Slayer
1439
##лизации
##нам
##дою
pack
Карлос
##mortal
turbine
десять
militant
Ата
tubes
Bab
##giene
Новому
Oaks
sacred
N°
##работал
##habilitation
вторая
##inat
впадения
##ually
##given
##зом
renta
кола
##ален
##син
##ставка
Brass
Mining
monet
progression
ты
933
##уку
personally
##айт
разные
Domain
консул
##ctory
##ировать
Dona
Aby
вод
##crat
legacy
Международный
##aker
932
Identification
##енал
instructor
##iled
055
швед
##ffet
##иера
##сена
##инов
##BB
Barr
Австро
Режиссёр
Роберта
##гари
другому
##loc
##единение
##hav
танка
Pit
quarters
Amar
enable
Востока
gal
##smin
Fruit
varied
hypothesis
observer
живописи
##mora
##dula
##strate
881
sword
Австрии
phenomenon
fina
##quo
изображения
##obil
findings
##MI
Thirty
##sume
##бный
socialist
ASCII
conclude
пользу
##еги
объявил
neighbouring
##bec
##ирован
##графический
943
email
Wheel
Ан
Strip
##cisive
##ённых
Manu
##пасы
##iration
Below
##ggere
##ведены
Myth
арестован
наш
Riding
creature
lock
##unces
учасник
собора
Changes
Telecom
немецких
##елений
##eping
Clean
##ращении
Sunrise
chapters
##untary
##lef
##liers
научный
ша
##юри
improving
##жих
bbc
##zhi
Син
##inder
799
##garde
теми
2800
городом
##рака
##lob
##ённой
Швеции
fed
роману
Rond
subdivision
##sona
Natasha
Северная
##rity
kings
targeted
методи
Safari
сыном
Lands
Первым
873
Более
##boards
такое
##ploring
Конго
##erated
021
899
##MP
##ющими
Partie
rota
##some
Jaan
streams
органы
##бак
##чными
##woman
conducting
mechanisms
Ist
энергии
JavaScript
concentrated
##timate
Йохан
Flat
TR
лайн
##rigo
gospel
slavery
кор
делам
Switch
молодых
##учал
##дние
Category
##cist
голосов
##НР
activated
##бин
948
##мым
027
Aa
Towers
##idge
rit
Feng
punishment
##hli
Ami
конструкции
причина
фронте
D8
seized
##atia
притока
##yramid
##валось
854
##живания
Maxi
varieties
Друга
immense
##wim
946
##ension
##lifi
##дний
891
##vire
##ровка
##ёрный
suddenly
JG
Bug
SED
##хт
задача
##нология
##щать
Harvest
Игра
рака
пола
##ейт
Mee
registration
журналу
##лян
должно
Dolls
MacArthur
suspected
Шлезвиг
Dogg
##илия
991
filter
##чину
фортепиано
##rger
##иби
##ряду
##ерн
Warning
diagnosis
штабу
Laden
вторым
construct
779
finite
##логи
##active
##едно
##раг
EX
Idea
##reck
##ssis
Adel
участием
##hese
##гава
##пит
PE
##BSD
##iology
редактором
##game
Multiple
upgraded
favourite
deliver
A7
Styles
##tuti
1484
threw
##хим
##lating
##WC
##ковский
##held
##izer
##евка
##жня
auxiliar
ETA
возглавлял
##торы
клетки
dig
1248
0000
километрах
wore
курсы
##riere
##твие
developer
##aic
CJ
##живают
helicopter
Fortress
autonomous
COM
##рёл
##работки
recognize
Smoke
старшим
Mean
##atin
##nett
Wire
Бен
##чати
Parts
Turkmenistan
##firmation
collect
##ntz
женат
praise
поста
##awn
Bourne
УССР
859
Moe
Performing
##rary
##ьными
##mmi
##учение
Саме
NH
Cube
Peoples
##казав
##ьну
##тания
##kod
##жок
Select
pull
honored
##ези
Департамент
российской
NFC
##tami
##тня
Oasis
полковника
authorized
impressive
potentially
##ponent
883
назвал
##guard
##oned
Content
Mauer
Сост
дори
##zers
##vento
##ственность
Architects
##озы
Степан
##лату
encountered
##елан
##джа
2x
RR
##arma
shifted
##HT
продукции
##паду
##знания
регулярно
##исти
Большинство
##рох
shirt
080
##teran
Playa
sacrifice
##eering
dancer
##dberg
##гнал
##ресе
alien
brutal
##отна
interchange
NL
hosting
##ckets
vacant
singers
##volve
dot
856
Prevention
Турции
Shelby
Татьяна
Solutions
##ревнования
947
кубка
024
ВМС
Помер
Bluetooth
##iable
considering
##вива
Chocolate
##nomi
##тском
##mises
административного
Olive
##бить
Сергеевич
зараз
##зя
ситуации
##tomi
##ходно
##дие
Nazis
Sexy
travelling
##лику
Maker
##bran
##runa
##ржи
Astra
##ивный
privately
inhabited
Болгарии
##аря
Domino
theoretical
Ще
##31
Churches
Apr
disappeared
symbols
Бу
Манчестер
##лта
##рность
##oking
##raphy
ae
критики
Центральной
A5
Messenger
1387
Zombie
замку
congregation
##tatus
Jae
Yoga
##тока
##вима
fees
##циях
wheels
Гай
Sector
integra
Gros
ns
##fortable
graph
##ецкой
Calling
##oris
Patti
similarly
##urrection
изучения
зони
naturali
##тивен
treat
##leni
Lag
##ЕС
##mising
797
##энт
Sinai
##асан
extraction
Ethernet
Int
survivors
разработки
сеть
AZ
sad
timer
леса
походить
reactions
##hto
Alp
##dow
Embassy
##очных
toll
основные
##gth
934
##source
Cain
Masse
Smiths
Systeme
renewed
convince
##оят
separat
##mbling
flexible
scales
prizes
##rous
##жя
Tax
##voy
paying
Bono
easier
coincide
##готовку
nominee
Enterprises
occurring
недели
##date
##уло
Gara
прошла
1024
Jubilee
певица
Sava
доби
географии
torture
суду
acquis
##вшихся
1437
##ТС
##ходил
Amore
prayer
Triangle
098
nak
##усь
##брать
##46
burial
thermal
##timi
##vile
политический
##urities
necessarily
Две
##́
##аков
##еви
наряду
sapiens
hotels
##books
Diablo
decrease
##lco
math
Touring
##nok
##gma
pipe
expanding
Валентина
saints
##rans
Красная
Карло
twentieth
всему
##dicated
##шению
nationally
##fair
Afghan
##новка
autumn
Regular
Flood
маршрут
##лию
Кавказ
##CO
Материалы
916
lens
drawings
головою
realizat
initiatives
Грузии
loved
##рло
theology
HF
Искусство
viral
Марина
panels
##авни
Consumer
Pac
Tip
##ported
##меняется
##rayal
sap
##UB
Kis
режима
##ulator
018
Moi
Тони
используют
consequences
974
hopes
Petro
##дт
Памятник
##wamp
##елами
intel
pregnant
##була
beneath
##кали
##сбург
данного
главы
Buzz
rape
tackle
##щности
##anc
государств
##аду
##оде
Ding
##kate
Coal
##щенко
##эри
##gies
Таз
свободы
Bil
##рождения
Награда
##дет
##очного
##цк
##koi
deposits
838
Quran
##FF
##сси
Puerta
##usto
Над
##enar
##еве
Raleigh
889
Интернет
040
1234
837
WP
Savannah
члена
греко
семь
nationwide
##org
##гах
способности
doctors
laps
JAPAN
процесса
##tations
SJ
Cel
kids
McGill
##LL
##sd
heading
##ptic
Deer
##irt
Located
взяли
witness
generi
##grade
существования
##group
##льским
гена
##мали
плане
priests
Chicken
##нении
993
941
##коп
mature
##rsk
##lity
культурного
##мости
floors
##язей
Jobs
женщина
##ствии
предприятие
Instagram
##AX
##вались
##дру
##грации
finali
##кономически
##break
исключительно
крупнейших
Mem
##вшим
##нание
##vested
IQ
##хождения
эми
##лдар
##сят
Stick
##ilities
##амы
##WS
##58
Hamas
TP
##sumi
##лят
##ьности
DH
##дава
Framework
робота
Ut
крови
##лков
supervision
##деу
##INE
##лак
Нижегородской
##hya
##anger
Niagara
Крым
FL
ash
precio
accomplished
Колумбия
lessons
##UI
##uj
цара
посёлке
FS
wait
##бина
##уба
Salmon
Pla
##дены
Wilderness
##nev
##хай
живе
##lasti
##кор
звук
Twist
imposed
фабрика
трех
Ню
##лам
ridge
делает
самолёт
##cesso
##gton
breast
sketch
ответ
##ительных
##токи
Финляндии
##owed
##vestor
properly
хотел
##fora
Лиги
##SD
##ляе
1433
scandal
Премьер
##товых
##strom
Валентин
fede
ой
incorpora
##chua
posse
Value
occasional
Rae
Genius
услуги
фаза
farmer
Instruments
831
самолёта
performers
Решение
Riot
пары
##coa
conflicts
sail
смета
##арин
командовал
##stina
голову
Dix
##pts
току
kl
##agh
1394
##менти
роля
чему
персонаж
поражения
##wis
sheep
левом
##plosive
##vle
virtually
остальные
regardless
вступив
##ивные
organize
Broadcast
##venti
##WF
##чай
lawsuit
крупные
##pulse
##undan
##гий
1428
2700
Figure
Russ
currency
reservoir
золота
составила
Генерального
investors
##GO
##leo
решением
##uds
colours
Samba
superficial
Попов
##preti
среды
##учи
##amed
##дад
##стояние
##дио
##сак
fitness
##манов
vegetation
conferences
Бавария
##ups
5e
Exclusive
Doha
##thon
##мской
##RNA
##дора
942
farms
языки
##lank
##имой
legendary
022
Acid
##rgi
программе
##uder
преподавал
989
activists
Fam
Свердловской
рук
##oit
mystery
##рген
##када
##фаи
Ми
stick
environments
##cope
1326
французского
##стных
inclusion
##sg
##ограф
##рыва
##рея
Yer
Loop
НКВД
prose
admission
analyses
ежегодно
судна
Время
Teaching
Татар
основным
Новы
продолжал
##руют
Mediterraneo
Questions
##нскую
velocity
##ящие
применения
834
manifestations
hoped
##neg
свят
Woo
##dub
consent
структуры
1296
reader
Aust
taste
##PC
Ак
##елени
staged
mic
##льшого
приказ
##lok
##вя
##циальная
reactor
loyal
обязанности
##рога
060
Bottom
Companies
считает
Seas
populated
assembled
Баден
Владислав
##ьера
publish
##яя
faction
##тю
пределах
##quality
##urst
##ьны
minus
##RD
##fast
firms
##эна
##брали
layers
listing
comprise
##йра
архитектура
защитил
Autonomous
##missar
программ
Panda
##icien
watching
параметр
encounter
различн
боевой
##grat
##жается
школ
##hole
Лука
землях
Ok
##даи
Советский
##еним
##ribution
##dega
##фред
038
##ратно
##roma
handler
happen
chances
##operative
##дано
##dole
##feste
pursued
offen
месяц
motors
##iance
##qli
tos
основано
##vacy
Абай
Taliban
губернатор
##nue
##ulse
Таа
Quo
Lew
##fect
##шении
Rogue
##ллер
towers
##oog
GPL
Quiet
dying
textile
armies
Bury
##ekom
023
##дата
##тным
philosopher
птиц
##week
Lombard
owa
##влена
governed
евро
##mobil
##reven
Астана
##пции
Scientist
##rew
##ached
carved
withdrawn
##еди
##bic
##воде
enjoy
UNIX
Declaration
fail
Shopping
##names
null
директоры
##LC
##meo
##пити
Mortal
дель
##uris
revenge
##diso
##жени
огонь
Seo
раунде
##слом
##стань
##stial
dozen
hostile
ток
Psycho
грек
LE
Citation
Nag
moderni
feels
GND
Permanent
1304
##walk
брой
##efe
Guo
scope
##нера
##iban
constantly
состояния
feudal
Prophet
документ
3DS
этап
Destruction
Follow
##ющую
имеются
##uent
##уля
Браун
##child
colored
994
varying
##meri
##69
##илла
nitrogen
##бская
##wave
Bai
Wicked
##аша
kinds
американского
##жност
threats
allegations
Eros
tight
Hear
Pasteur
involve
собрания
Chrome
##ndr
Fact
Тип
структуру
##ностях
Ares
laurea
##pili
Seminar
static
##чности
##язана
Cult
##жним
##сени
KA
Shen
USC
Antwerp
##яния
##крыты
certification
##eague
##tering
##чио
BM
cand
крайне
государство
Confederation
Falun
технических
suggesting
utility
mutual
Мала
Центрального
принять
##aver
##uari
Saddam
##frontation
relieve
переименован
##isted
##азу
019
##поминает
##лком
1070
Kat
##gain
##несли
Муниципалитет
драматург
Suppl
spiral
офф
##mail
equally
1219
православной
##гара
Канады
Eco
персонажей
longe
1254
##рической
##api
лейтенанта
##бони
Dok
##ovie
Pick
Riva
Thin
##бр
Nes
Him
письмо
Речной
Dresdner
UD
##cret
##file
##ilitat
##tex
##sting
##одным
реформы
##няли
expertise
stronger
stretch
советского
tourists
земля
##дот
Малая
##bedded
##уме
ово
##рбе
Чарльз
##рч
##cended
первоначально
##NY
898
##ffers
##бал
пространство
##geni
Tae
##uggling
##ramm
##азывает
Gant
пытается
suppression
своем
##зди
##народном
journalists
Человек
ос
ACB
Counter
Beau
Overview
Qur
Король
##енном
fixe
Последний
выпуска
mansion
цу
##ург
Что
banner
стану
##urat
##зак
shelter
##гол
Related
##бити
##okie
##дной
##SP
##ланды
Dash
раньше
##родно
конфликт
состоялось
##ённым
Белград
depends
##course
сценарий
Общероссийский
Downs
Jag
Yesterday
##mitting
судов
rev
##ngton
##мум
##усы
##острова
##теп
##финале
consulta
##ества
solely
##яди
AIM
достига
acids
##йском
##parts
отличается
Jardin
strikes
NME
##алом
##dire
##цио
Rui
zinc
написав
##ассказы
##vement
##clin
reso
##ежно
implications
##раво
Остров
самолётов
руководил
##зод
##рамы
##рию
##ыта
Hen
1120
названий
##изация
##сточная
companion
HS
Vivo
защита
высота
завоевал
Ivanov
груп
жок
##урт
вещества
##CH
Sergey
взял
Happiness
nt
компаний
вестник
реда
воздуха
методы
None
ши
##jud
##дея
1408
##lves
salva
##uster
Prin
TOUR
Adi
Directorate
Perspective
##здух
TX
СМИ
##hrys
##igu
1242
Tat
Kathryn
##roe
##лыс
##дре
родов
законом
codi
Broad
NE
Solaris
##куп
Hacienda
##уне
syne
Saba
Vogt
##mns
SU
Bliss
peaks
tsunami
##kill
бригади
atomic
третьего
MTA
bench
doubt
elimination
доход
кого
##ежды
##nite
##рао
жене
Iso
корпусу
Участвовал
представлены
ээ
##ствовали
##рк
acquire
kilo
intensity
expose
##wir
Mats
##лялся
achievements
Moto
ASEAN
Bos
берег
десяти
##олем
##ПЦ
##аар
Constitutional
Forgotten
Pentium
##rox
##chant
Другог
##аби
IR
Mustang
вообще
##заний
направлен
райони
##словно
##уну
совершенно
1205
Duca
специальности
##UD
##rdin
##pate
нею
социальной
Homepage
Дмитро
##puter
##тыка
Depot
##водятся
practiced
храму
##rienne
rom
sailing
consequence
militia
сфере
wei
##вете
strategies
##ПА
workshop
##took
##знав
использованием
memories
##roc
призер
capabilities
Мекленбург
##пур
Blast
Ware
##combe
Lili
Реал
##wad
##ире
Hauptbahnhof
Bloomberg
GC
Finger
banque
Astro
ceiling
chassis
lifestyle
##еде
##слу
##ъезд
excellence
окончательно
##язь
Hua
Университета
немецкой
##чов
##шается
interpreted
составляли
ky
##duc
Бухареста
##ституции
ЮНЕСКО
1253
##дент
sits
##хема
дух
технологий
##oney
##тени
##cents
##МО
Cheney
lots
##bining
Moreover
fortress
chocolate
acknowledged
1235
##ёных
##орк
##бн
километра
Выпуск
Gateway
Groups
Торонто
##рнст
NR
editing
Avatar
valve
российского
##нася
##кона
Nest
немецкого
Dolby
##titi
developers
Назва
##crit
1341
потери
##times
intact
Оахака
##вный
##66
##onge
calculated
##струкции
приходится
transported
членами
##дини
##итан
##ency
##зий
письма
Улица
химия
##лья
##нят
Bold
trauma
##чальник
зданий
##ледж
contacte
Hybrid
борту
aq
сборная
##ycling
Kemp
Pegasus
моделей
Wait
##сот
##крыта
amended
##рико
1284
Барселона
##бные
##зода
##екен
##овину
##hik
##trem
творчества
willing
Boxing
expressions
охраны
forth
Ragnar
princes
1140
Исто
rough
##chenko
##вица
3200
critici
##ckle
Tatiana
vicinity
##рета
##ктер
feeding
Андреевич
##дый
##bors
##дати
##ална
investigations
095
##хард
##пили
##екла
IA
##VV
##щност
##временно
courage
##cations
##ворения
##ласа
##оря
##сё
предложение
отсутствие
ICE
geometry
mechanics
известного
##рила
calcul
структури
##citi
##жность
##ткан
Eat
##черк
##овин
bada
##aboration
Caro
striking
многочисленные
##зывали
капитана
journalism
##ёные
морских
поддержке
##дау
военные
##agna
##стка
Doppel
uranium
##мати
##umm
посредством
##emon
##луш
Kami
##рным
двигателя
##itch
##мберг
accidents
##йдя
##ходили
TGV
##трий
##орма
petition
Pay
##unit
##ынка
1391
##ония
вышли
сигнал
molecules
Завод
##session
##уха
malaria
поясу
##FS
##дника
##ynd
emissions
topo
прибыл
certainly
##йка
КНР
##инчен
международной
Wakefield
Текст
домашних
онлайн
##жён
##ведени
ASP
##гона
##fty
проводить
##ньо
##ставки
##oks
##ИК
Вера
##йма
##cursions
Tau
cn
miss
Esch
Lists
эпоху
##xies
##sale
##дные
##FK
степеней
женой
асан
Людмила
Falk
RAW
##убку
balls
Чтобы
секунд
HB
##стики
##ivation
Bundes
Gazeta
##атан
##больш
##leb
##цен
##чело
impressed
Enigma
VH1
casino
constructions
##струмент
оставил
##pred
поддержки
##логического
Наталья
##foni
cam
сям
Marlborough
Economist
##marked
lasting
##viet
##играл
следующим
Qi
Temperatur
Grands
Швейцария
##seri
##stant
##чины
Links
Interest
единственным
ви
##blu
НХЛ
finger
медалями
boxes
слабо
добила
##елно
идёт
наличие
##vska
AMC
Bugs
navy
scrutin
ракета
parameters
thrown
##SU
riches
Eno
близо
выступления
правому
золото
Порт
дели
Month
particle
furniture
педагогика
accordance
##99
##mitter
gathering
##asure
M6
noting
Хайнрих
Jie
Слово
физики
ходу
chess
газу
произведён
##walde
##irn
Cartier
collecting
1187
##KP
##ждане
##cella
##илось
url
портрет
DSM
bos
##ients
##сточного
##метить
083
desired
McKenzie
Menor
debates
##brella
Known
Vitoria
WEB
explanation
equations
##льском
Regent
аэропорт
##ркву
##соким
NES
кВт
##bban
ware
Somali
##нак
Ло
remarkable
составляют
философия
северно
##блемы
Педро
shield
Quattro
##воил
##riate
##очки
описание
##urm
##plain
##вски
violation
hitting
proceeded
##еу
##raid
1099
стати
##крыл
##чению
070
Россию
наследия
крестьян
Lamar
страну
missionary
##лк
принимает
##irin
Articles
1125
suburban
##акция
kitchen
outcome
##ranti
Гл
relie
robots
Similarly
наступление
##клав
##орда
##менение
##57
##mitted
##noy
Coro
precise
##фей
mild
##vedere
дизайн
историко
##тое
Postal
##itsch
российская
##hig
##иси
##педия
##ствующих
километр
enterprise
##реса
Balkans
##ymer
Ural
Spor
##sci
##бных
TIME
united
thema
##icie
##mised
##normal
##oons
##иви
ARM
##herent
##ленного
##одом
Mechanical
##limi
##АУ
##lca
дете
сотрудник
disputes
##regar
trips
coordination
1135
##cend
indicato
Трудового
instances
##xta
##нары
Shark
##амин
##против
##иц
sporting
мнение
##200
Catholics
Устье
##надцать
##рованный
Lux
##vay
##hei
##равы
License
##Pa
Большого
##пира
Therapy
clothes
##ofa
Coldplay
положения
Truck
advisor
##ливий
Pandora
##зват
##ступлений
Dev
Petroleum
залив
Lego
healthy
performs
Ирландии
##finite
договора
##гора
Лига
momentum
Федеральная
generali
Ina
замка
absorbed
midi
##держания
##тская
Ghosts
Nostra
##IG
##ehr
##нялся
Генрих
проектом
##ковой
##тнам
похоронен
##max
##iated
##рили
Wireless
entries
Approach
Quant
причинам
епархия
Yoko
использует
##циальный
NF
turbo
##равления
##welling
suburbs
1302
##lko
мужа
##рлар
##цер
##яс
##tainer
##мии
poster
повинен
customs
фестиваля
##EB
Народна
##лэг
закону
которыми
Comet
Dy
выставка
Poll
##CI
износ
Berna
функция
##unted
NB
##ъя
##лище
Examples
##lax
представлен
##рике
##rdon
Tian
Whole
##tream
elaborate
##кань
##уи
##shment
017
Heads
Yun
cleared
##альному
stake
nar
##есь
gras
сообщения
1218
##ельных
##пах
##ённые
ACT
##ЭС
немного
милли
##полнение
Pred
дер
##brate
Кот
Cai
Новое
устья
handled
Forget
Plays
Франциско
##tax
##ительные
сторон
##РК
##forcement
Character
##ктан
LSD
Kar
Екатеринбург
Aman
Варна
##timus
028
##рил
Roc
enhanced
##abo
опыт
ремонт
##бни
Empty
Secretaria
балет
##through
Аргентина
##bati
##нис
формирования
##iness
##чиком
fires
shallow
##опи
Getting
cyn
кол
##йы
sodium
##ention
плотность
Поскольку
революция
domina
##разил
##RN
##еска
lecturer
settle
##02
##ghing
##учно
Composition
HTC
##sic
Sander
Wein
ранга
##ples
Звезды
Coma
CX
Given
Формула
Plans
##стий
wildlife
торговли
##ельства
assignment
vigor
говорить
мач
##26
помимо
Torah
##loa
##ISE
Exit
порядку
Weapons
ГЭС
GSC
intern
##пир
##чеников
##тельную
##ящихся
Henk
SAO
importe
Ginger
Крыма
##ожна
идея
последней
##erina
##твия
художественный
##иди
dad
##аден
##мор
saving
##споминания
##upi
Косово
крест
##атр
##нама
##чались
Mets
##idat
##kort
##муна
оборону
##tip
##сера
Bianco
##osing
naming
##pian
Sloan
медалью
профессором
preservation
##FL
Gan
ссылка
Ani
preparing
##GS
шифру
expelled
губерния
##TB
consideration
Arti
хана
##27
##rical
Distance
МСК
##zinger
949
направление
библиотеки
##шат
Андре
Frei
##hön
rings
##VI
##дами
##роника
differential
grammar
##ьства
##ческому
##осковском
##сток
##istant
изображение
справи
##сада
1414
##слан
Георгия
##емого
чисел
##ляя
##mediate
imprisonment
##gating
smo
##иране
##евого
##ченика
TA
##авные
постройки
армией
##вач
##тио
Interface
##лён
Merchant
мов
роты
##тать
Фердинанд
Lear
##plantation
гимназия
##ococcus
rises
##42
souvenir
Иоанна
learns
reads
##читать
##onom
homosexual
9°
Faro
RAI
feedback
hac
##cei
##мей
##ционно
Новые
ail
##orse
EF
##IV
##opp
extinction
##mines
полу
##emble
##trix
##чился
pistol
возле
газете
1441
nationality
##minated
Международной
Красноярск
Победитель
Киеве
illustration
##roads
##нны
таран
Thank
созыва
Fed
1272
##video
контроля
chronic
##уков
##пом
##будь
Боз
дорог
##theon
##рации
классов
Shea
##зли
Cristal
осуществляется
открытия
bulk
Exodus
mater
Orders
##chnik
##ваются
##ающих
##пела
consciousness
##Net
##cline
##мица
##носта
##рке
Lor
майора
хозяйство
##gree
##mony
##сина
considerably
освобождения
metall
##нимания
получив
##gged
1303
Jar
простор
##рая
Cie
bg
1301
##erita
Landscape
activation
##oken
calcium
flooding
##arity
detection
##person
browser
##egg
##абет
##ibu
separately
##права
##eep
##нительно
Hum
Lesser
Root
##ulent
allied
##едение
Пермского
##icato
##viar
##бас
Medvedev
хор
##маль
tune
пунктам
Poul
##erance
##rimo
Кирил
##арри
##ваться
##erm
##тити
##poly
Международного
Алма
необходимости
подполковник
##очном
mammals
##ruit
Rene
naturally
Rostov
##soni
aerial
практики
##крет
badly
Kale
##ploy
##reat
##ьори
открыта
Tol
1221
Subsequently
##luence
gravi
injection
увек
##тивного
##ths
##жнего
##dari
сост
##пон
##уде
poli
##ditions
Dynamic
Франсуа
##овски
представитель
##долго
Nguyen
##ырым
Rosenthal
organi
##ьность
landmark
##CT
##яма
Ves
##енс
slide
оборудования
##гает
convert
SEC
##akas
Nanjing
##going
ими
заведующий
Collier
Жер
##стат
##лери
оценки
Anaheim
competitors
##amus
графиня
##ceni
chaos
eliminate
##riot
boarding
городским
##еног
рату
watched
##isms
##енд
##сей
##тельства
##ществ
##52
hire
snake
голо
##творена
##ерт
durable
gains
mutat
promotional
##нялась
Много
##нсе
ATM
sustainable
Flesh
дошло
measuring
##пера
##усского
##грес
ms
##omos
decreased
implement
##2011
EPA
sim
##цах
UNICEF
undertaken
##yri
Dacia
Karls
KDE
Bald
M4
##икой
Chez
артиллерии
Used
##очий
notar
condemned
вернуться
##ектор
marginal
##fields
##ществе
редакции
##pects
##ИИ
##valence
##lotte
Teachers
SW
##hment
##ellan
кожного
1030
новом
guided
##dles
##ыны
Maynard
##houses
##зици
Plastic
binary
##твор
##ничества
##04
Свердловск
##harge
fibre
брали
Cyr
Токио
ІІІ
Жак
##арс
priority
##uting
Bose
##tech
edges
##ьбу
способом
телескоп
##рило
##drat
##зная
##кономика
##рдце
##сточном
speaks
Петр
##езде
##ХЛ
##wiki
Герб
##bea
##vour
##зми
rubber
seeks
modi
projection
gross
держав
gates
truly
C4
представляют
modul
##player
1252
##tach
лучше
##гам
MCA
европейских
##исхождение
стандарт
Белая
Reef
1063
oak
Богдан
##сстание
counts
##овала
Университет
tobacco
поводу
##tains
obligation
proclaimed
специально
##clusion
##ведений
CAS
тав
фонда
##kell
##бной
##cilla
##уды
##шне
##рте
##zsa
PJ
океана
globe
##бийство
##жбы
prompted
##plu
donation
установлена
Stereo
##овник
Aki
Израиля
участии
##naut
Одновременно
informa
Джек
##инь
##lch
##unce
клубы
##атели
##щето
максимум
##истана
1226
##rkin
fraud
штату
##UC
blade
независимости
##cap
##tn
##ографии
документов
##dication
Garda
##ffi
всеми
liver
remember
##рви
bonds
сцены
результатами
РГ
Сезон
##анды
cycles
Верхняя
областях
##ристиан
Calendar
##amar
##YS
##ыры
##ipse
1259
причини
Product
##erry
Transformation
MAX
##CP
premiu
##cote
##обно
##MM
##еник
Sarkozy
manuscripts
lease
списке
##entia
climb
Крис
учебных
##малы
defa
##NE
lesser
##дцать
ABA
пособие
##leman
##ъединение
Sensa
strange
excess
BASIC
Bent
Thu
даёт
ballot
heroes
dinner
##рану
1383
Bal
##pelle
slopes
Rooms
##елом
водных
орудия
##jects
##pach
чемпионов
Axis
barrel
proceedings
измерен
Silk
Андрея
заслуженный
##leve
lab
##мий
accuse
##ателей
мг
##ителем
Yugoslav
organiser
rounded
Новгородской
iso
опубликовал
1194
cream
Статус
внесении
паша
Krasnodar
##оца
screening
1154
Cor
границ
Ravi
##удан
argue
##PO
##тины
UAE
poorly
##ишта
##initive
certificate
##зного
##placed
corn
##дею
collapsed
побережье
Shri
будущего
proposals
##тков
##lc
Mani
underlying
Rams
Швейцарии
##дува
##шной
Qaeda
##учные
химии
computing
природе
##лической
Словарь
##аном
печати
Mead
bro
##philus
Thom
базы
WBA
Команда
##NR
opposing
##айл
##слава
##чита
##asy
##трати
##gage
Siri
Seis
##олнения
##mero
##шних
##язан
websites
физик
##ffs
translator
Кога
французской
##лектив
##vab
Promise
conceived
##quest
##аметром
##писаний
Dual
rendered
suites
##нимал
exceptions
pursuit
Кубке
##бку
Ask
##ладение
##kern
Loud
Люди
##лежала
##менов
##ьт
1229
Fuck
##due
##ект
Кн
premises
Oko
##пециальный
User
##locke
##мян
dvi
R2
##sher
##менить
##осова
Elo
maker
##сили
2540
LAN
##idit
Pos
Safe
##acy
##жните
7°
adds
coordinate
dressed
##ровского
##ошёл
##heart
##сные
##rusade
##umption
##пособность
responses
##DM
Lauri
##IH
##тались
1060
##годна
##иже
##рху
Jing
революционер
Cop
Dama
##гри
##турного
Pirate
backup
Орган
##актор
withdrawal
##uing
##ечи
##шир
##pheus
##desi
chest
бои
MSN
##феру
Osa
conviction
основно
##ченных
qualifications
конкурсе
##онастир
1309
physically
renovated
Община
##бите
##зона
Messi
1147
##mle
западном
revived
RPM
составлял
##артира
Perl
##дается
##ывалось
bou
invisible
##выя
##slow
Йорке
тремя
measurement
##rots
##тоги
mos
##обу
##missa
PS2
##otions
##ровано
гвардия
изначально
##обы
provider
бай
disabled
##урла
obvious
##oint
##вт
высотой
T1
collision
##guo
prevention
unclear
##ref
##онах
неки
Варшава
Законом
interviewed
островах
попытки
assassination
bombs
##пели
новому
Someone
employer
##redible
abundant
messe
##cuum
##яной
Wand
архив
##ейской
Dum
tickets
сюжет
Наполеон
Xiao
MY
##жняя
succeed
##pti
Account
входило
prey
routine
facilitate
##tract
skull
##ливе
Kraftwerk
Govern
ле
##BL
закончил
светска
Yon
1264
Alexa
##rators
##biology
трон
##ptis
##tuva
jointly
##озе
источников
TU
##ъезда
vague
advised
1306
Прохоров
##tels
##mins
посту
##ровки
английского
##лялось
##юда
##кын
##женных
yu
##оже
tige
Пам
Земля
персонажа
Unlimited
##orren
JJ
##анс
##мечает
puts
##влялись
biz
##tiary
##цна
UDP
##гой
##уар
NDR
refuses
железнодорожной
##NF
##ciation
##раган
recover
eighteen
1209
##remo
mysterious
Альберт
1191
meri
sudden
##вные
##ходы
##etaria
метода
проектов
Ministers
##NV
подразделения
plc
Cele
PAL
Spice
оператор
generator
Harri
Maa
##chny
##ntic
Scandinavian
##зуя
##eci
летия
##соту
показали
reserved
Pam
##passed
##чара
Swimming
##жнем
##зависимо
##еши
Восток
##ительный
##жело
танков
##lative
##чая
##водят
##ободно
Stal
aside
##ortion
Suns
architects
Эдуард
##cud
##using
Blow
всяка
##pekt
##ifier
принца
##aros
Gaming
дивизиона
##полага
##женер
##стры
##щественный
##давно
##анаш
##ящей
##clic
nerve
marble
CDC
Sf
Zeta
##учению
##ozen
акт
Пермь
##ичке
veterans
1311
scattered
бази
##liz
зала
##онг
##lory
##мір
Epstein
##kovo
титула
##ctat
##tted
031
каже
##2013
##товской
##DC
##ычных
Graphics
Wiki
##ttle
Poison
mosque
##nion
cameras
ultimate
##SQL
Launch
Calder
причине
##taca
ранг
30th
Akt
granite
следующих
дав
##ассказ
Семейство
##itable
##vial
Egg
elu
карт
##chemical
##paper
##aner
##аро
##eger
##olari
Caucasus
##кота
графство
##рор
##plication
Dil
holy
верхней
inspire
Была
Geo
dynamics
Kaliningrad
ФЗ
Jen
Presenta
##ложение
Сергея
exhibits
Горького
врач
##making
##тэн
##iou
yield
##публикован
##ранка
##чана
композитора
rolling
##systems
brands
автомобилей
##EE
##едена
##учни
##ёнка
##рри
Томь
Христос
##ейде
Fabrik
ABBA
renovation
фильмах
Piccolo
монети
##пление
Avalon
Bara
##УП
Бо
##bori
##TD
##rmon
##есни
Neon
1054
##отор
##match
##EF
##bric
##show
deceased
##ференция
considers
legally
epic
##metric
##igue
##aring
BSD
передач
считают
donations
1288
оказались
##itur
startu
##hlon
##тром
##medi
Magister
erosi
##стави
NSA
владения
salary
##утно
##формы
погибли
##влялась
OECD
##АССР
заявив
##унком
struggled
##hama
trait
clar
##nfo
homo
позволило
##street
вы
##bolic
upset
Того
Multimedia
##числения
Пры
##sut
039
##quera
##никам
религии
##рст
карьере
реакции
##ылат
##хона
Korn
федеральных
##кав
##engt
##obi
##ьен
встречи
##рического
##щание
##PM
Meat
существование
##тиан
районам
##arch
Управление
пом
##essi
##yth
##поха
Bayerische
##hv
##terra
Suit
##dw
##яжение
##ывали
##яса
Elk
WDR
шен
##блена
оставался
determination
майка
##учшие
humanity
tender
##nito
##parti
##чему
базу
##iological
coupled
горах
##орно
##тез
Asa
##oline
исторический
кратко
##river
Прага
направи
развитии
##польского
commissione
##adow
##очу
##nity
##OCK
Snoop
Только
гимназии
##pressed
purple
депо
##таро
##rapie
##bustion
optional
1373
##дит
##passes
##фов
Platt
dome
##ardi
Chanel
commerciali
сложности
физической
ядра
##cited
philosophical
sacra
##900
##треби
##уются
##ранд
##циация
attract
Cham
FCC
средняя
гварди
энциклопедический
##реждений
Тие
##plicitly
##едленно
agrees
Vos
##stair
##ьева
Romantic
partition
##зены
##приятия
##стера
##люч
Psychological
celebrity
Judaism
##pectations
##ленная
Lec
kn
Алтын
psi
Supply
руку
##мик
Львова
##bero
##ковый
K2
##ocie
##здат
inland
mirror
Certain
##puls
1236
ESP
молодой
##леген
1256
##чевидно
hide
immune
ясно
##рого
combine
terrorism
##bov
##тину
##harf
proximity
##доно
свободу
##ещения
electronics
орудий
##ивается
##nificent
Bog
Goddard
известны
политике
##ecu
##нчи
##ратуры
##бль
родители
presidency
##ственном
развитию
##menade
использовались
##хала
Riviera
##vings
##щики
NEC
социально
влиянием
IM
consumers
##году
poets
известные
Ping
##пектакль
##зеф
##ням
##ополь
##пературы
##льская
Rec
SAP
##пособ
##versi
##agon
##omb
##тира
Cooperation
frames
##urre
verses
##hys
Enter
командование
обоих
##лама
большинства
##крыт
##скае
##icist
Tee
##ничество
отдельный
##gret
Psychiatry
optimal
RW
летний
##жаны
2025
резко
##хана
Spot
##рито
бит
##centra
##monds
процессов
##льф
SAR
Len
##rude
##pret
Будучи
откуда
planted
Ватан
Beats
##ntly
##рдын
Colle
территориальных
кафедрой
##mming
##xion
Fairfield
DVB
оркестр
##нятий
##bours
Panel
Sui
##пециалист
1228
комплексу
##omme
Tiny
##вити
##редно
029
Similar
##jr
фотографии
##marka
##нима
pani
##BOL
XXIV
##plete
##ologists
##barra
##одные
призван
##ронд
##шому
переводе
Inventory
L2
##оро
##astic
органи
042
insula
##vard
Вест
focal
столицы
pk
субъектов
cartoon
##товой
##ковская
Mot
bitter
##ulle
consistently
ма
##ренц
Северный
1244
ps
##avier
советник
пространства
organisms
##cept
Венера
Григорьевич
##рывается
ceremonies
proud
Previously
##aching
RMS
Donetsk
##тация
contents
##гард
Aya
##вском
##иа
Существует
##менении
Aqua
substances
##friend
omega
##istor
Barclay
Changing
suspect
очки
приема
##uos
1010
##inent
demonstration
##ешает
УНР
диска
##водили
##отой
mortal
##браны
##точно
дивизион
##ирана
##cque
##ьянский
kernel
Свято
кратер
peculiar
##водство
##инна
людям
Assault
CAN
##44
Chant
барон
##41
активных
известность
##ernity
bow
predicted
Сара
остаётся
тог
##bbed
начались
##много
втори
##ционная
Feat
Certificate
##rmed
##plies
Та
Designer
2A
TOP
attractions
Če
природно
##позиции
foundations
##teral
Bora
##ллин
##мав
##таж
##TION
##бива
француз
##jou
крепость
##менил
Aur
границу
Vas
Павло
Польше
wagon
##oha
##астение
##аци
Visions
отдельные
diving
Zion
##иско
##рском
hurricane
monks
distinguish
Израиль
марок
compression
048
marking
##твенного
Tanz
Ange
demonstrate
##UR
общественных
специалистов
unveiled
##efficient
##атты
isn
##ican
grandmother
Ким
картин
##вигатель
яму
##дарда
Dunlop
Вторая
mapping
##вестни
Citizens
##никова
##азы
##иб
lib
##телен
##пно
##улат
##ieties
##blin
090
третьей
##bell
##овья
##рная
smart
##ecker
##minent
managers
Филипп
##нтами
##стой
расположенный
gravity
Октябрь
repairs
##воры
##твора
##ringe
##аметр
стены
Bombardier
##трах
Виктория
045
##новой
##нённых
##гура
##ссо
Kraj
участвовала
американских
##hanna
##еку
победи
##stag
##абул
pregnancy
Ans
museums
delegation
patente
соло
conventions
1344
Copper
dedicat
рассказывает
##ctiva
##эв
1366
Silicon
1152
Китае
##пустили
Новом
##keeper
Dialog
Sten
Брат
##ass
##ocide
##волен
жить
номера
реестре
modules
распространение
Nor
immigrant
актор
Welfare
scientifica
##aby
##блений
##тто
##яние
##omy
Сил
035
alb
сов
##YP
##слен
##зите
##МФ
Москви
basement
simulation
##bona
blocked
оркестра
Сол
##ciliation
##cutor
##act
Vai
##твуют
agreements
##mile
##иция
редко
##манской
guards
Limit
Всё
##сль
aren
##физ
зрителей
##byl
##ident
хот
худ
национальных
##бинской
##сий
allocated
placement
stepped
##orat
##росла
##sole
wise
manifestation
ph
помощник
drainage
recurring
информацию
Warcraft
fiber
отсутствует
nights
сыновей
##аан
Returns
##ыска
##gott
##ложен
##айк
убийства
лит
##gradation
Allianz
prohibited
##овил
##рэг
##шему
##ВК
##сене
pound
jumping
Gast
Michelin
##agg
MJ
bana
прямой
Ростовской
Ай
Welle
поколения
##кови
##fos
bike
национальный
##сить
газа
Gori
Mundi
bowl
crop
payments
Южная
PCR
##icom
провела
petrol
приняла
nationalist
указом
inspection
rulers
##sorption
##chev
emerge
##ональный
Winters
##itten
##zards
Appeal
##vader
Sentinel
unity
##vah
Жена
##сийский
OST
Puma
wireless
Samara
##порту
средний
Luce
##TER
##55
##кина
##ulance
objectives
PSA
toy
умов
##cri
Associations
##dly
concession
##ётов
Mate
министром
##istance
##очка
##viation
##MC
лечения
transform
отношению
trucks
##aborative
##suite
Try
плану
##noi
translations
facade
arose
revolt
##avour
среднего
##чели
##nore
##садки
##дери
##итов
старшего
звезды
##lanti
##бурга
##шины
offshore
##49
circles
##кей
##сень
##прос
DO
##putation
защитник
причиной
##нета
responsibilities
контролю
плато
##нический
##кратный
Zi
robe
##AV
##tib
бывшей
выход
Colour
##сточно
##тения
Расположена
mk
фестивале
##ирма
Mis
##vro
##истика
Народный
politically
Франко
##тил
известным
Carlson
continuously
##HD
##vided
Arcadia
Damascus
##ФК
bankruptcy
##hab
Background
Dol
Voda
##министрация
##yrics
resolved
##dity
YOU
respond
096
##GI
##tena
##ровался
Leading
##mban
economie
governmental
##водом
hierarchy
##tely
##зду
profits
##tree
сайта
Pale
политически
сериале
##зные
accuracy
Куп
Dass
Vu
##кет
recreational
западно
показатель
VP
##ogist
##рохи
##блюдения
synagogue
Бориса
committees
Features
Magnetic
##щению
##NC
##lusi
##regat
##inite
Мюнхен
##pne
##ожным
Linkin
яти
Maserati
##teed
##ptive
##ебе
##ационный
smoke
##ДР
Icon
##рическая
tunnels
##овления
Dent
preceding
##фии
##ptor
##гана
Would
меры
##nomy
OM
##aff
033
##лект
hee
##авой
##цист
Merkel
Slavic
меч
##боратории
##маса
063
##peda
directing
##ставил
##fine
##аве
Saar
дебют
стадии
##рдан
академию
##анага
##щитник
уны
##mill
##word
##реждение
##дователи
##живать
##поля
скульптор
GMA
diagnostic
settings
##dran
Monetary
patio
Денис
##ctical
fx
Foods
##ченого
##hance
imported
святой
##97
##рук
Jovi
##urer
свойства
##dible
MySpace
evolutionary
##wear
capability
designers
1192
S2
PSD
designa
оказалась
Subaru
студент
##UL
Shoes
solve
##рце
1090
голос
##ичне
##опу
металл
применение
формата
1020
##нус
##овище
Drugs
def
##дум
electrons
##дский
masters
ghost
investigated
removing
Balance
Pavilion
tab
##нями
CK
##ledge
##organ
восьми
Bucharest
Флорида
Navigation
Labs
##еход
##communications
Crescent
##gnose
общественной
##ногим
Kaya
Rapport
escort
ислам
##CL
##riy
американская
##альну
Часто
##тану
буй
##арх
##йк
##uise
##hical
##тельству
Settlement
tech
withdraw
inde
sick
Мексика
участвовали
##пус
obstacles
archi
##ключен
##dahl
GameSpot
E2
##brunn
Trends
##ональному
Ислам
byte
researcher
Ба
motive
##зиция
##pola
Fountain
Shoot
##teris
##обных
столица
cruise
##пово
##ferred
##улярных
##чался
questioned
экономического
##cating
##posal
Indigenous
deployment
##цова
##гент
Machines
excessive
определения
##дию
##рупный
##фери
quit
##xpected
##ставник
concurrent
collector
##народная
##ратился
Lebanese
comparative
Eit
controlling
Dis
##fficial
Judicial
##имски
Ill
временно
человеком
differ
считал
##cience
##leu
##uable
voter
##реть
Greeks
##heme
##pri
char
proven
дипломат
##ятно
##biq
##ured
##колько
Bala
корабли
##nches
##пион
Рег
##creen
Prescott
##ower
учител
##ущей
Eiffel
говорят
старого
##uture
##ратов
056
##омых
культуре
Partnership
##mend
##правляется
##nics
памятников
##cipation
##знание
##умы
##oration
##жим
общественного
Lufthansa
Bolt
obligations
D9
##ктура
Ордена
Джонс
##глашения
continuat
gradi
##ждает
##птура
##иан
Custom
##елите
##goda
Abi
WB
##aday
##ресс
Ferris
предыдущего
Battlefield
восемь
CFA
действует
##ешествие
большинстве
examined
##portant
Rum
Shang
Было
МВД
044
центрального
Правда
##tard
1339
rud
##ulsion
##ровала
деятельностью
##beri
Illusion
ай
водном
##латна
##тани
tuberculosis
Марий
bishops
##justed
Португалии
Publisher
##нает
##ийской
tactics
##дают
##иду
##loaded
Vintage
Дмитриевич
ГДР
Каспий
##pari
portfolio
##яи
100m
##ретье
iu
mun
##тийн
депутаты
##fum
Ил
##ждат
##три
Struggle
##жны
Казахстану
##cussion
Tuo
Vlad
Комитета
##льское
##дить
##lop
молодого
##haw
motorcycle
##eba
##ивным
Duomo
База
##fuge
##екс
губи
Tv
temp
Cl
dreams
##мос
##щают
Spiritual
##2000
##едь
нефть
regulatory
долго
республика
##occo
MO
##zari
commercially
соревнований
##titut
##hd
ATC
##ications
АСТ
сочинений
##gha
высшего
оказывается
##ssem
##нутренний
Parkway
Response
pine
Фонд
##гресс
##apo
бог
запись
DK
T2
беа
Brick
##cars
Wo
##вская
давно
##жая
##рез
военную
passive
##green
##даётся
Северного
##qual
##брь
Diva
Ovest
##оме
1267
##app
##ебно
Comprehensive
##edu
выставки
наконец
Украинской
##teg
##olition
preventing
##sot
работой
##одства
GPU
Nikon
Начиная
##ждению
accidentally
братьев
##рчу
reflects
восточнее
лучшую
##инском
дистанции
indication
носит
##gani
##bere
gradual
адмирал
ido
элемент
##rimi
##нени
respected
публикации
##сады
1157
##ully
Extension
factories
geographic
mills
музыкальной
##имон
Cost
провели
Address
##овок
counted
referee
##елий
Elf
агент
##iple
Boo
recommendations
##ребро
barrier
Харьков
##ызы
поведение
attractive
068
##contra
##enomena
Lotte
случаев
Imagine
##токол
BL
fights
##онального
##снован
##крытия
paral
##рывает
##сл
##bulo
1B
##enger
##loni
сумел
##атель
##елу
##ише
Lyn
##раф
##щин
hep
##order
##крытие
##вами
##мба
1035
Prestige
Компания
tongue
Lagrange
награды
##strata
##ssu
##кко
equity
##irect
##cuda
##eton
##nology
##еба
##тави
steep
Вах
Disaster
pave
рабочий
физико
##узова
##вола
поэта
##йших
dx
##ritz
##жир
Победы
##ловакия
Би
Incorporated
Seat
исторически
##worthy
G1
dealt
доля
resolve
любов
##ёс
spite
##анги
trim
achieving
##rics
##оен
Brun
Abdel
##urion
clerk
музыкальных
loose
автономного
Collective
##айн
m2
партию
##дих
ACM
XXV
##ерман
##родних
##венная
##итлер
professors
проходят
##coding
##абель
##sli
Yeah
чемпионы
acceptance
экономической
##йб
Latvian
literal
##эла
веществ
Telephone
pupil
##aur
Cisco
вне
Freak
knocked
##ниц
##носиться
##UF
##водил
##пий
ян
##liner
##tsa
##вещения
##plained
ls
битвы
Yen
loves
plantation
Digest
календар
##деля
##avor
Mur
горе
Chat
Friendship
electo
конкурсу
Nove
наречен
отс
сообщение
##льда
##аю
Любовь
planets
##rmat
##одных
балета
творчество
Energia
украинский
neighbourhood
Faz
пилот
Советы
##tees
годам
фоне
decorative
боевые
##ginal
Ott
##cute
Вадим
местом
##ights
##canti
##zhen
##86
##улась
TER
##ternal
##вижение
##вное
Compact
##арли
певец
скорее
учи
##сник
##pron
##rapher
incorporates
##ocent
morali
034
##igas
##ыма
processor
soy
##lake
##арна
##пасности
reliable
##finity
Respublika
##скен
сектор
Witness
Fuel
обладает
##mpre
##нула
Сад
##smine
interference
целях
##omina
выступать
##lucose
астероида
Куба
##geo
неделю
##cl
построено
Африке
побережья
Sim
железнодорожная
контакт
##iples
##dges
Aga
Mau
eva
хутор
STAR
##кула
##ькими
gray
политику
##ishing
##вено
##водных
##леры
custody
##mire
Outlook
reca
##mitt
##СС
##альным
cabin
apartments
##действия
Лучшая
##РД
Yao
wishes
премьера
таки
##dise
5500
##тельном
1257
##roja
##rily
##грамма
Naga
ряде
Kei
Венето
conspiracy
##цену
Appleton
нашей
сум
##rations
##рним
жертв
##хист
программу
##брани
##ровский
loaded
##тари
Ava
##полнения
Латвии
статье
##tow
##твовать
presenting
Соли
Maka
accusations
##рог
##чах
астрономы
Тодор
медал
##ecule
##онский
052
обозначения
veto
чини
##кове
##rax
##EG
##бул
032
Иоанн
##artement
##onstruction
##wolf
занимается
##зацией
Другой
##ивными
##bust
Pizza
##про
ATV
CCD
##stras
Tail
##cedent
научного
judgment
электрон
##vancing
##minat
##гарско
DF
commissions
##ressed
##матика
##armaceutical
##яйственного
Hut
другое
реализации
Газета
##елия
makers
##pist
##want
##plaints
##аллы
##еслав
##хия
longs
мозга
Cyber
операций
##роды
Административно
##gust
сюр
##сточный
##ерта
Vert
##plied
знаком
##once
##ufs
##ературна
Speak
бога
##idt
odd
##citing
##редко
043
##rodu
##reate
##sect
##ордан
такому
##рко
Rather
Каролина
Bare
##ощность
Dalai
султан
whatever
##thers
Meteor
административ
каждом
##нальную
##расную
##седатель
##вж
Hub
зависит
средство
##ченный
Кале
Size
##рьба
Carry
западнее
##reen
звёзд
##телю
науке
##ccupy
##лкова
merge
##ловакии
Папа
##aun
##рони
инициативе
статистике
##aration
1211
Consortium
##lmen
##ужно
произведение
##вшими
marker
##горитм
##ейс
Dupont
##zid
##иги
ear
inspector
пехоты
##ested
##славии
carri
Кто
##мот
##ходов
abu
##ERO
##sthetic
##онная
курса
##озв
Zara
позиция
##GL
##люс
jungle
simplified
##tecte
Степанович
недоступная
##еханика
Subway
recorde
гор
airs
sixty
##vereignty
Angry
sends
##roch
##DO
##денно
Дана
##ценка
knowing
Sokol
##хар
гвардейской
Simons
complicated
crystal
clause
Теодор
дерево
дому
##ared
##unn
##тановить
Бюро
смогли
хит
0°
quiet
##rout
##онского
Penal
началу
##portation
##ниях
lengths
##ожет
071
##WR
cables
Sino
cruel
Ен
transaction
##илософ
Scholar
admis
Svetlana
##морского
Centers
##олнении
Hazel
destroying
##дино
##takt
##зово
Сталин
declaration
памятника
##fing
##zeera
##онд
Колорадо
громад
fertile
##itative
olive
fever
Тако
##cestors
##кспедиция
luxury
родом
усе
DOM
Grupp
героев
##peche
##лде
nn
metric
строительстве
##лижайшие
eligibility
##etting
##писывает
##овался
Migration
##мите
crede
##isfaction
##lope
##зв
##анг
BF
Rate
proceeds
серию
ITU
happens
##кара
##spects
surgeon
Turk
continu
Чувашской
excluding
hormone
денег
L1
dub
Галина
##сю
Eurasia
Noi
Comment
##дая
##ренко
селян
##зовал
1025
Chong
overcome
##мск
carriers
##fts
##несла
E1
VOC
irrigation
prints
##една
##ерина
##рква
SAM
extraordinary
##ZA
##ующего
Butte
##amer
Телефон
RK
Tur
Мексики
сообщества
Endless
ракет
##руков
Яков
ход
##ross
ноги
##пании
##hz
##гек
##сших
Fayette
Sens
RTS
artifacts
Локомотив
perspectives
##лтан
##нецов
##няга
##eleg
advances
##жай
##шет
Vox
##КА
##жну
Зур
Форт
##nations
##гти
Merr
##later
##pulation
##стки
##оге
##исты
Breakfast
##DK
##flow
patch
##71
accede
extensions
вблизи
##roca
##лос
материала
##радиционно
linguistic
древних
##цева
BV
PB
Exil
Regis
##кцию
дей
##тви
##ялись
explored
##тыш
##хранились
дворе
##WN
##ффект
##новы
edi
летних
##вардейского
##орию
##усу
entities
##rime
##левич
inflation
domains
Конрад
Gamble
cubic
Diseases
NZ
##common
начался
подряд
кафе
##удио
##tician
Genocide
##прочем
##ставке
награди
Processing
harm
UB
сотрудников
accounting
##clamation
Dow
##пар
availability
##terns
##ецк
061
applicable
##give
##iary
##oer
elect
##ьва
Пушкина
##gression
##лчу
##писать
##рве
Тоа
regulated
##турни
##gly
##солютно
sinne
Вопросы
##ресу
complexity
колонии
##leto
##еча
##ustration
##пасти
слава
##posit
##rj
##чайна
Overseas
blow
высокого
домой
walks
elderly
jur
Scientists
Sera
##бито
##кто
##таны
##труктура
1110
Finding
Nm
protecting
graduates
##змом
##танция
использовал
уран
tende
театры
Kom
Stab
##Wh
##ченные
##℃
##cendent
##анган
Само
сторона
049
Sacra
условий
##лить
##мою
HQ
участка
##бами
Witt
complement
pump
кафедра
наши
##cali
Rota
equality
Ташкент
экономических
loans
mandate
##heritance
Vir
наследство
##фом
##aches
чисто
##coded
Pr
белых
диплом
##имо
speeds
##argo
Pepsi
##hro
guerrilla
##ordination
##uted
valida
##akov
служить
Sha
##ктике
##тыми
##вича
##мость
##пео
modest
anal
высоты
##ворах
##лног
##ships
поки
##just
##вагу
##грала
##ewing
##ущество
Anas
NYC
floating
##жби
replica
##ейского
auction
##shu
##елет
strid
isolation
##перкубка
##сау
Станислав
ample
экипажа
##ict
##reshold
##янов
climbing
vocation
##сией
##saur
##нав
Kimberly
##nction
ACC
##лора
valued
##льзя
##путат
школах
##NH
additions
стана
##ларда
основна
adopt
исследование
supplement
##рства
shed
Bleu
величину
##zce
##менту
##слова
##tism
##чага
Landmark
##sr
##сине
disputed
upgrade
##пет
##орж
Стефана
##держать
##зависимость
Tha
aftermath
##loso
##edit
introducing
##joy
##stituted
transparent
деревень
##кати
вниз
harbour
##luat
мужество
diagnosed
##ГБ
работник
##зит
fac
pond
stari
mx
сражении
1x
##гарска
educator
##бля
##тс
Patriot
методом
Берлине
установка
##вности
dB
##Works
##filiation
##лал
##preme
##финал
Corso
##щил
geni
##atile
##ending
музыкальный
##ьному
##viv
победитель
Pai
Discov
названы
последнее
##ertion
Blacks
deficit
##мони
##рца
067
##олодая
##вокат
##затор
mask
остальных
fraction
##осы
Hee
Lounge
SNP
Hathaway
##itted
##алог
##вде
ям
Башкортостана
##hino
##фан
periodi
Большое
Boots
Neve
POP
командования
defines
##паси
obtaining
Постановление
##ивни
Мать
barre
соответствует
Maybe
078
статусы
часам
##inted
Roller
##мунд
##tago
elevato
##видения
##днем
Bao
##heng
лицо
фонду
contracted
Загреб
Sites
гражданин
распада
##petitor
##естивал
##респондент
cooking
ups
##рых
Nom
AOL
##sef
##unis
##ерхня
редакцией
couldn
keeps
Clin
##rries
##стерства
##уто
modu
планеты
##vul
##бед
Motiv
разработке
##авт
Operator
##pliance
correspondence
repeat
##onta
##кость
##лежали
##ратио
governance
LM
risks
войн
##yuan
Prat
Printing
##cable
Immigration
accommodation
caves
multitud
unlikely
##положительно
##рха
##ушкин
shells
Азербайджан
##owment
##мно
Monastery
Маргарита
фронтах
sphere
Reg
##осив
##нститут
##qing
herb
цела
VW
conquered
Ego
Известия
##mption
Astor
##рса
16e
##стерство
водой
sizes
иначе
многочисленных
##ронная
Canary
возвращается
##ованы
##сив
дури
##довы
##ждая
##уктуре
##уша
##шён
участке
##400
##loride
##жоу
##сшее
##еговоры
##ационной
faste
сцени
Тараса
Rīga
1085
veg
1251
enlarged
чемпиона
terrestrial
вина
##эя
CNRS
##кани
##вании
Dialogue
comprised
Илья
##турный
##stig
Export
tha
##чиками
лето
Jolly
arguing
armor
Курской
снят
##бие
tracking
uncertain
Высота
Скотт
наименование
##емя
VT
##туция
pretty
##шлы
##acker
##есме
отцом
##ерху
Absolute
документы
руководителем
##тско
bias
##PER
1056
endorsed
руководства
##ихов
##cout
Build
nurse
##mployment
##istics
##сор
republic
дод
##овление
##рде
##bolism
самое
BMC
resides
##raging
Alexei
##сие
Mg
##уан
##dse
##цина
видом
dental
МВт
1203
ушёл
##цины
merchants
Lotto
##дующие
Nickel
Notice
##unct
выйти
##Гц
##еше
McCain
believing
##работку
Shift
##umon
ОУН
##59
##казано
Расположен
##берга
##щаться
loading
sooth
Очерки
##противление
##упе
GL
luxe
набор
##iciency
Dot
##числении
##единений
присоединился
сто
##isfied
##rimage
##flower
##обов
pers
lod
##nl
##ведки
шар
##BU
##vaded
##нях
##правлен
Waves
##HI
##fected
critically
запада
##lighted
##тент
##piler
iri
offense
##едено
Владимирской
##ятий
##льшую
##тыс
Petrov
Оно
##demi
##jing
Bound
Cause
WR
Hus
NEWS
challenging
prestige
##wid
##колов
openly
susceptible
двое
##боров
Brewer
##Ч
Tex
sut
##lley
##utto
Общества
Lamborghini
##нул
036
trends
##року
бива
ансамбль
Hatch
трети
##готовке
Мали
listening
Имеет
##трат
Pig
тока
##хал
Rein
##anze
##sov
decree
математик
##trin
##TH
##inum
##личаются
ATR
Carsten
advocated
включена
##vance
департамента
судно
рейтинг
wound
Далее
Buy
##ёрного
приходилось
HM
##омобили
##шину
Bale
alternatives
Concorde
проводились
тече
##сит
Ros
ПВО
##haf
##дили
Эль
бр
минута
##бственной
##стонии
##раду
##руна
foods
##ТУ
##сновы
##чреждения
Unfortunately
merci
secretari
Ранчо
##meti
##space
##ндар
Document
corporations
##mpt
##ационного
##ошла
##туп
##атака
possibili
выиграла
sac
##тьми
explorer
##ludes
smallest
##sized
3A
##место
RL
Slot
гибели
##нанд
генерального
равно
093
costi
##ймае
##сшая
##являются
жанр
повести
FOR
Lemon
пытался
самые
стилю
brass
##следования
Remote
##дем
тез
##бежать
Disk
поэзии
bombers
самостоятельно
##ронов
chu
##иву
Sick
##made
Mana
##чева
wheat
таблица
##нальным
##урси
mach
Goals
iii
##ьон
##тск
##фурт
1269
Бил
##bring
##гнём
##зел
##жался
Нижни
seating
##зовано
##нсов
Sec
конфликта
Facility
MIDI
elders
flowing
Tourist
linking
часы
ЕС
##тнография
##йре
##tarian
##мейстер
##руды
EV
Серебряный
##ожные
Риме
##RF
##AG
##евал
##иком
##рома
##сколько
1175
witnesses
##bollah
##ntial
Loew
дев
##мна
develops
##зания
##зованы
годом
##етра
stereo
measurements
##rouse
##езе
##шени
##жити
DI
accompanying
##бирался
##ганга
кард
позицию
##runk
throwing
канале
##дара
2050
методов
##КС
##rmous
CAD
Uri
наследник
##national
##gregation
bigger
##mous
##rnet
##toso
##fram
##tings
Tala
Typhoon
Хенри
Seed
##hee
strain
Liquid
murders
##emlin
##nament
##viat
##абрики
Прем
##endix
Newsletter
прошлом
##ubi
careers
##scientious
relate
##rness
Ratings
Стюарт
spacecraft
соединения
accredited
probe
totally
формат
##овская
##уй
Terrace
существуют
##гентство
Trading
Vela
Боб
##рец
роста
##ужини
Португалия
##стап
Югославия
##ссор
##cell
Химия
##enty
##liff
slope
worse
contributo
##теза
##шены
самому
##аман
imaging
providers
##nect
##рык
Mansion
##жко
##ивы
реформи
quantity
##возможно
strictly
##рев
признан
KP
Fairchild
английском
##нген
##шним
Practical
Учился
##нилось
IB
chains
tsar
##vocacy
##ранение
##ыши
Ode
hol
вполне
##eathe
Blizzard
##pair
Алекс
##ffice
##народный
##щания
Литва
##грия
##pired
##последствие
##есс
trails
##enham
##дут
##ерен
##ивную
fault
£1
##cluded
##йским
insisted
норма
Культура
pathway
##redi
##вол
влияния
##ссажиров
##аке
##loads
##mali
machinery
##47
##алла
Zoom
##очет
Mystic
palm
Fink
##сембург
##вис
##укова
##улах
dust
участники
исте
Fargo
критик
##£
##¬
##®
##±
##Á
##Ä
##Æ
##Ð
##Ñ
##İ
##ţ
##Ž
##Ω
##Ё
##Ђ
##Ѕ
##Ї
##Ж
##Й
##Щ
##Ъ
##Ы
##Ь
##Ю
##Я
##ѐ
##ѓ
##ѕ
##ѣ
##ұ
##€
##№
##™
##→
##−
##∗
##∞
##≈
##≫
##■
##▪
##●
рас
сооб
экс
лю
произ
корона
##вирус
коронавирус
ре
авт
##преде
тре
##спе
##долж
оп
##рабо
ком
опреде
спе
сообщил
вз
рассказ
меди
бес
крас
##грани
способ
продолж
встр
вос
пос
соб
##тверж
расс
позв
ну
готов
объя
вед
вот
отметил
забол
моло
ограни
сох
увели
экспер
благ
##готов
насто
обеспе
выпо
кру
поль
эффект
вам
возв
##прав
объ
коронавируса
надо
Рос
боль
прек
завер
хорош
фина
##нару
раст
Кон
поддер
воз
##простра
испол
ситу
професс
предост
##блюда
вас
обнару
распростра
сни
Сей
высок
##ответ
допол
провер
сло
требов
##треб
Сейчас
потер
##образ
возни
##ствитель
##фици
##прият
руб
покуп
##влек
сказ
недо
##клю
рын
кли
защи
фото
согла
заболева
медицин
отказ
торг
пресс
##труд
меро
сообщает
осу
Раз
пользова
ск
##ссле
верн
##матрива
предлага
увид
паци
обяз
куп
вс
восс
конечно
смот
продаж
плат
оцен
учас
созда
необ
наруш
##вле
ожи
##форма
профессион
свое
запр
повыш
счет
утверж
популя
##строй
серь
ап
украи
##гром
совер
уч
окру
##прини
##плат
инфе
сок
теп
глаза
буду
пси
пус
прод
делать
бю
ведь
##VID
Ну
кварт
соответ
строи
заяв
требу
обязатель
COVID
исполь
приоб
действитель
гос
пуб
ры
офи
панде
понима
##йте
финансов
##ционал
ребе
реали
Гос
зна
кос
раб
обсу
заказ
коронавирусом
увер
сдела
иск
собира
отк
тран
устан
разре
опас
особ
глуб
иссле
Ране
ве
назы
осуществ
разрабо
Вот
угол
хочет
отпра
ох
прошло
проис
необходи
удо
остан
Сего
Сегодня
подчерк
энер
переход
показа
##иф
Ранее
обра
предостав
##ключи
процент
ус
рассказал
помога
бюдж
прису
##бя
ори
каранти
вза
ак
наблюда
огром
владе
четве
Пути
ави
сообщили
почему
связан
разме
рес
суб
фун
мех
спас
ника
похо
мо
оче
креди
телефон
соврем
пыта
##помним
заме
рекоме
задер
оказа
совсем
##мыш
бли
руково
мое
внут
пят
взя
услуг
##печат
физ
тебя
отли
производит
реше
уче
угр
позволи
##влива
какие
сказать
Лю
##груз
специалист
Напомним
взгляд
челове
##ичто
желан
сотруд
сутки
рег
##кономи
остав
механи
ссы
поло
раздел
автома
указан
мед
уничто
эпи
вирус
пожар
желе
никто
возм
переп
непр
расшир
подтверж
каса
сохрани
действительно
массо
неиз
идет
кри
отме
пло
##гно
оши
квартир
##блю
позволя
##вобо
усили
малень
тру
комна
##принимат
ска
достиг
Каж
выпол
мон
Ком
экономи
смыс
россий
##формир
интер
нее
счас
##доволь
дума
иде
зак
засе
здра
прос
посвя
исследова
##помина
оста
страх
ощу
внутрен
зах
серьез
восстан
представи
вызва
##уже
развива
друз
настро
взаимо
уто
пандемии
предпо
трав
свидет
дополните
##реги
нельзя
посе
кры
встреча
##йдет
реп
Потом
подоз
отве
переме
предус
##рабат
мик
чув
потреб
Сто
ситуация
знает
Тепер
поч
говорится
серви
Теперь
Рас
циф
производ
отды
реб
##тверди
поме
превра
психо
сможет
##стоят
пояс
ис
срав
позд
уди
изоб
информа
инструмент
собак
рели
тер
ключ
офор
кре
прекрас
улуч
разру
холо
##омобил
налого
выбор
освобо
Есть
привлек
испыта
тебе
непо
инди
станет
##покой
спи
пострада
рассматрива
##пло
##знаком
остал
нибудь
##воох
трен
представ
твор
предпринимат
сосе
зап
##дне
партне
втор
компью
десят
посмот
Ис
##ешь
подоб
объеди
доро
макс
##терес
исключ
выяс
здравоох
реги
##регистри
содер
сим
вес
реш
вак
чуть
недостат
эпидем
индивид
контро
напр
Еще
Раб
вол
люби
фи
реклам
бесплат
открыл
максима
выра
даль
##ож
демон
превы
Мне
корот
значит
обору
спрос
подготов
##ъем
##трук
выгляд
переве
вып
поезд
Осно
законода
зарегистри
привы
Ук
мероприят
##прово
китай
выдел
сколько
нрав
инвести
ведом
промыш
соответству
рассмот
облада
примен
препо
руководит
встрети
можете
неболь
связ
рынка
аналог
аренд
дальне
тю
пригла
вер
воспит
##потреб
фору
реши
отрас
послед
опубликован
Крас
конкрет
##фикс
устра
любо
здравоохранения
чувство
##уж
невозможно
комму
предполага
умень
коллектив
мероприятия
устр
дальше
управ
моби
еже
##плу
индивидуа
Мо
учены
вку
##вест
иска
бизнеса
пациентов
диаг
мужчина
стара
заболевания
обнов
дол
обвин
праздник
иници
исход
отмечает
Экс
техни
рынке
Осо
подчеркнул
перево
Пско
россия
положит
Ты
важно
смерт
волос
Ни
такая
переж
конку
присутс
кажется
стоимость
эффективно
##дви
цены
удал
наход
постанов
эк
перек
возд
Бело
круп
автомобил
попада
объем
избира
плас
рис
существо
добавил
полном
хоть
появи
принад
капит
требования
ветер
замет
маль
страт
стары
знам
штра
гости
рез
помо
хоз
зафикс
функ
эксплу
реально
мер
##назна
древ
взрос
Трам
экспериме
уж
окружа
исче
столк
сохран
изготов
подвер
уника
выполне
колле
тяжело
##шед
инф
##сшта
эмо
##юсь
тради
выяв
есте
жела
довер
возвра
уг
говор
смогут
обслу
компьютер
ребенка
разве
потен
##lenta
обы
прогно
потр
дис
Евр
##дется
спокой
тяже
старт
работают
анти
сель
кризи
подтверди
##ссажир
ближай
стаби
помочь
мои
аппарат
бума
купить
наступ
навер
произош
##все
попыт
влия
##шенко
называе
##ыва
подро
мой
##охрани
выступ
прошлого
[...]
