[UNK]
[CLS]
[SEP]
[PAD]
[MASK]
!
"
#
$
%
&
'
(
)
*
+
,
-
.
/
0
1
2
3
4
5
6
7
8
9
:
;
<
=
>
?
@
[
\
]
^
_
`
a
b
c
d
e
f
g
h
i
j
k
l
m
n
o
p
q
r
s
t
u
v
w
x
y
z
{
|
}
~






¡
¢
£
¤
¥
§
©
«
­
®
¯
°
±
²
³
´
µ
¶
·
¹
º
»
¼
½
¾
¿
×
ß
æ
ð
÷
ø
þ
đ
ħ
ı
ĸ
ł
ŋ
œ
ŧ
ſ
ƀ
ƈ
ƍ
ƒ
ƙ
ƛ
ƣ
ƥ
ƭ
ƿ
ǀ
ǁ
ǂ
ǃ
ǝ
ȝ
ȷ
ȼ
ɉ
ɐ
ɑ
ɒ
ɓ
ɔ
ɕ
ɖ
ɗ
ɘ
ə
ɚ
ɛ
ɜ
ɞ
ɟ
ɠ
ɡ
ɢ
ɣ
ɤ
ɥ
ɦ
ɧ
ɨ
ɪ
ɫ
ɬ
ɭ
ɮ
ɯ
ɰ
ɱ
ɲ
ɳ
ɴ
ɵ
ɶ
ɷ
ɸ
ɹ
ɺ
ɻ
ɽ
ɾ
ʀ
ʁ
ʂ
ʃ
ʄ
ʇ
ʈ
ʉ
ʊ
ʋ
ʌ
ʍ
ʎ
ʏ
ʐ
ʑ
ʒ
ʔ
ʕ
ʖ
ʗ
ʘ
ʙ
ʛ
ʝ
ʞ
ʟ
ʠ
ʡ
ʢ
ʰ
ʱ
ʲ
ʳ
ʷ
ʹ
ʻ
ʼ
ʽ
ʾ
ʿ
ˀ
ˁ
ˆ
ˇ
ˈ
ˌ
ː
ˑ
˔
˕
˖
˘
˚
˜
˞
ˠ
ˢ
ˣ
ˤ
˥
˦
˧
˨
˩
΄
α
β
γ
δ
ε
ζ
η
θ
ι
κ
λ
μ
ν
ξ
ο
π
ρ
ς
σ
τ
υ
φ
χ
ψ
ω
ϑ
ϕ
ϝ
ϟ
ϵ
а
б
в
г
д
е
ж
з
и
к
л
м
н
о
п
р
с
т
у
ф
х
ц
ч
ш
щ
ъ
ы
ь
э
ю
я
ђ
є
і
ј
љ
њ
ћ
ѡ
ѣ
ѥ
ѧ
ѯ
ѹ
ғ
қ
ү
ҳ
ҷ
ө
ӷ
ա
բ
գ
դ
ե
զ
է
ը
թ
ժ
ի
լ
խ
ծ
կ
հ
ձ
ղ
ճ
մ
յ
ն
շ
ո
չ
պ
ջ
ռ
ս
վ
տ
ր
ց
ւ
փ
ք
օ
և
א
ב
ג
ד
ה
ו
ז
ח
ט
י
ך
כ
ל
ם
מ
ן
נ
ס
ע
ף
פ
ץ
צ
ק
ר
ש
ת
ױ
׳
،
ء
ا
ب
ة
ت
ث
ج
ح
خ
د
ذ
ر
ز
س
ش
ص
ض
ط
ظ
ع
غ
ـ
ف
ق
ك
ل
م
ن
ه
و
ى
ي
١
٧
پ
چ
ڈ
ڠ
ک
ڬ
گ
ں
ھ
ہ
ی
ۍ
ے
ە
ܐ
ܒ
ܔ
ܕ
ܗ
ܘ
ܙ
ܚ
ܛ
ܝ
ܠ
ܡ
ܢ
ܣ
ܥ
ܦ
ܪ
ܬ
अ
आ
इ
ई
उ
ऋ
ए
ऐ
औ
क
ख
ग
घ
ङ
च
छ
ज
ञ
ट
ठ
ड
ण
त
थ
द
ध
न
प
फ
ब
भ
म
य
र
ल
व
श
ष
स
ह
ऽ
ॐ
।
॥
१
२
३
অ
আ
ই
এ
ক
খ
গ
ঙ
চ
জ
ট
ড
ঢ
ণ
ত
থ
দ
ন
প
ব
ভ
ম
য
র
ল
শ
ষ
স
হ
ৰ
ਅ
ਉ
ਖ
ਘ
ਜ
ਝ
ਦ
ਲ
ਵ
ਸ
ਹ
ખ
ફ
બ
ર
લ
સ
ପ
ର
ஃ
அ
ஆ
இ
ஈ
எ
ஒ
க
ங
ச
ட
ண
த
ந
ன
ப
ம
ய
ர
ற
ல
ள
ழ
வ
ஸ
క
ఖ
గ
జ
ట
ఠ
డ
త
థ
ద
న
ప
బ
భ
మ
య
ర
ల
వ
ష
స
ಕ
ಖ
ಗ
ಚ
ಟ
ಠ
ಡ
ತ
ದ
ನ
ಪ
ಬ
ಭ
ಮ
ಯ
ರ
ಱ
ಲ
ಳ
ವ
ಶ
ಸ
ಹ
ೞ
അ
ങ
ദ
ന
പ
മ
യ
ര
ള
വ
ശ
സ
ഹ
අ
එ
ක
ග
ජ
ත
ධ
න
ප
ම
ය
ර
ල
ව
ශ
හ
ළ
ก
ข
ค
ฆ
ง
จ
ฉ
ช
ซ
ญ
ฎ
ฏ
ฐ
ฑ
ณ
ด
ต
ถ
ท
ธ
น
บ
ป
ผ
ฝ
พ
ฟ
ภ
ม
ย
ร
ฤ
ล
ว
ศ
ษ
ส
ห
ฬ
อ
ฮ
ะ
า
ำ
฿
เ
แ
โ
ใ
ไ
་
༌
།
ཀ
ཁ
ག
ང
ཆ
ཇ
ཐ
ད
ན
པ
བ
མ
ཙ
ཚ
ཛ
འ
ཡ
ར
ལ
ས
ཧ
က
ဂ
င
စ
ဆ
ဇ
တ
န
ပ
ဗ
ဘ
မ
ယ
ရ
လ
ဝ
ဟ
အ
၁
၂
၇
၈
ა
ბ
გ
დ
ე
ვ
ზ
თ
ი
კ
ლ
მ
ნ
ო
პ
ჟ
რ
ს
ტ
უ
ფ
ქ
ღ
ყ
შ
ჩ
ც
ძ
წ
ჭ
ხ
ჯ
ჰ
ჱ
ჲ
ჳ
ჴ
ჵ
ჶ
ჷ
ჸ
ჹ
ჺ
჻
ᄀ
ᄁ
ᄂ
ᄃ
ᄄ
ᄅ
ᄆ
ᄇ
ᄈ
ᄉ
ᄊ
ᄋ
ᄌ
ᄎ
ᄏ
ᄐ
ᄑ
ᄒ
ᅡ
ᅢ
ᅣ
ᅥ
ᅦ
ᅧ
ᅨ
ᅩ
ᅪ
ᅫ
ᅬ
ᅭ
ᅮ
ᅯ
ᅱ
ᅲ
ᅳ
ᅴ
ᅵ
ᆨ
ᆫ
ᆮ
ᆯ
ᆰ
ᆷ
ᆸ
ᆺ
ᆻ
ᆼ
ᇂ
ሀ
ለ
ሐ
ሓ
ሕ
መ
ማ
ሥ
ረ
ር
ሰ
ስ
ቆ
ቈ
በ
ብ
ቲ
ታ
ት
ነ
ና
ን
ኖ
አ
ኢ
እ
ከ
ኲ
ዕ
ዘ
ዛ
የ
ያ
ይ
ዮ
ደ
ድ
ጅ
ገ
ጉ
ጵ
ፈ
ፍ
፡
ᏹ
ᐊ
ᑲ
ᒡ
ᓘ
ᚢ
ᚣ
ᚦ
ᚨ
ᚩ
ᚬ
ᚱ
ᚷ
ᚹ
ᚺ
ᚻ
ᚼ
ᚾ
ᛁ
ᛃ
ᛄ
ᛇ
ᛋ
ᛏ
ᛒ
ᛗ
ᛚ
ᛝ
ᛞ
ᛟ
ᛠ
ក
ខ
គ
ង
ច
ឆ
ជ
ញ
ដ
ឋ
ណ
ត
ថ
ទ
ធ
ន
ប
ព
ភ
ម
យ
រ
ល
វ
ស
ហ
អ
ឥ
ឪ
ឫ
ឯ
ᠠ
ᠣ
ᠨ
ᠪ
ᠮ
ᠯ
ᠰ
ᠴ
ᠵ
ᠸ
ᡝ
ᡠ
ᡥ
ᡨ
ᡳ
ᡴ
ᡵ
ᴰ
ᴷ
ᴺ
ᵀ
ᵊ
ᵑ
ᵗ
ᵘ
ᵝ
ᵻ
ᵿ
ᶑ
ᶢ
ᶦ
ᶴ
ᶷ
᾿
​
‌
‍
‐
‑
‒
–
—
―
‖
‘
’
‚
‛
“
”
„
‟
†
‡
•
…
‰
′
″
※
‼
‿
⁄
⁊
⁠
⁡
⁰
⁺
ⁿ
₁
₂
₃
₄
₡
₣
₤
₦
₧
₨
₩
₫
€
₱
₴
₹
ℂ
℃
ℓ
ℕ
№
ℛ
ℝ
℞
™
ℤ
℥
ℵ
⅓
⅔
⅙
⅛
⅜
⅝
⅞
ⅱ
←
↑
→
↓
↔
↗
↘
↦
↪
↵
⇄
⇌
⇒
⇪
∀
∂
∅
∆
∇
∈
∊
∑
−
∕
∖
∗
∘
√
∝
∞
∣
∩
∪
∫
∴
∼
≈
≡
≤
≥
≪
≫
≲
⊂
⊕
⊗
⊙
⊞
⊢
⊣
⊥
⋅
⋆
⋯
⌊
⌋
⌘
①
②
③
④
⑤
⑥
⑦
⑧
─
█
▢
▲
▼
○
●
◦
☄
★
☆
☉
☧
☫
☭
☽
☾
♀
♂
♄
♅
♆
♇
♈
♉
♠
♣
♥
♦
♩
♪
♭
♮
♯
⚳
⚴
⚵
⛢
✡
✱
❄
❅
❆
❤
⟦
⟧
⟨
⟩
⥇
⩽
⫶
ⱱ
ⲁ
ⲛ
ⲥ
ⲧ
ⲩ
ⲫ
ⲱ
ⴀ
ⴂ
ⴃ
ⴈ
ⴌ
ⴕ
ⴟ
ⴰ
ⴳ
ⴷ
ⴻ
ⴼ
ⴽ
ⵃ
ⵇ
ⵉ
ⵍ
ⵎ
ⵏ
ⵓ
ⵔ
ⵕ
ⵖ
ⵙ
ⵛ
ⵜ
ⵡ
ⵢ
ⵣ
⸨
⸩
、
。
々
〈
〉
《
》
「
」
『
』
【
】
〒
〜
あ
ぃ
い
ぅ
う
ぇ
え
ぉ
お
か
き
く
け
こ
さ
し
す
せ
そ
た
ち
っ
つ
て
と
な
に
ぬ
ね
の
は
ひ
ふ
へ
ほ
ま
み
む
め
も
ゃ
や
ゅ
ゆ
ょ
よ
ら
り
る
れ
ろ
わ
ゑ
を
ん
ァ
ア
ィ
イ
ゥ
ウ
ェ
エ
ォ
オ
カ
キ
ク
ケ
コ
サ
シ
ス
セ
ソ
タ
チ
ッ
ツ
テ
ト
ナ
ニ
ヌ
ネ
ノ
ハ
ヒ
フ
ヘ
ホ
マ
ミ
ム
メ
モ
ャ
ヤ
ュ
ユ
ョ
ヨ
ラ
リ
ル
レ
ロ
ワ
ヲ
ン
ヶ
・
ー
一
丁
七
万
丈
三
上
下
不
与
丑
且
世
丘
丙
东
丝
丞
両
丨
个
中
丶
丸
丹
为
主
丽
丿
乃
久
么
义
之
乌
乎
乐
乘
乙
乚
乛
九
也
习
书
乩
买
乱
乳
乾
亀
亅
了
予
争
事
二
云
五
井
亚
些
亜
亞
亡
交
亦
亨
京
亮
亰
人
什
仁
仇
今
介
仔
仕
他
付
仙
代
令
以
仪
们
仮
仰
仲
件
任
份
伊
伏
伐
休
会
伝
伟
传
伪
伯
伴
伸
似
佃
但
位
住
佐
佑
体
何
余
佛
作
你
佳
併
使
來
例
侍
侗
供
依
侠
侨
侬
侯
係
促
俄
俊
保
信
俭
修
俱
俳
倉
個
們
候
借
倪
倫
倭
偃
假
偏
健
側
偵
偽
傀
傅
傑
傘
備
催
傭
傳
傷
像
僑
僕
僧
儀
億
儒
儚
儡
優
儿
允
元
充
兆
先
光
克
免
兒
兔
兜
入
內
全
兩
八
公
六
兰
共
关
兵
其
具
典
养
冀
内
円
冉
册
再
冒
写
军
冠
冥
冫
冬
冯
决
冴
冶
冷
净
准
凌
凤
処
凪
凯
凰
凱
凶
凹
出
刀
刃
分
切
刊
划
列
刘
初
判
別
利
别
到
制
刷
券
刹
刺
刻
則
前
剑
剛
剣
剧
剩
副
割
創
劃
劇
劉
劍
力
办
功
加
劣
动
助
劳
勃
勅
勇
勒
動
勘
務
勝
勞
勢
勳
勾
包
化
北
匠
匹
区
医
區
十
千
升
午
半
华
协
卐
卒
卓
協
单
卖
南
博
卜
占
卡
卢
卦
卫
印
危
即
却
卸
卿
厂
厄
历
厘
厚
原
厥
厦
厩
去
县
参
參
叉
及
友
双
反
収
发
叔
取
受
变
叛
叠
叡
叢
口
古
句
只
叫
召
可
台
史
右
叶
号
司
合
吉
同
名
后
向
吕
君
吞
吟
吧
启
吳
吴
吸
吹
吾
呂
呉
告
周
呪
味
呼
命
咆
和
咖
咙
咫
咲
咸
哀
品
哈
哉
响
員
哥
哮
哲
唄
唐
唯
唱
商
問
啓
啟
啡
善
喇
喋
喚
喜
喝
喬
嘉
嘘
噛
器
嚣
嚴
囁
囂
囃
囚
四
回
因
团
団
図
国
图
圈
國
圍
圏
園
圓
圖
土
圣
圧
在
地
圻
坂
均
坊
坑
块
坚
坝
坡
坤
坪
型
垣
城
埔
域
執
培
基
堀
堂
堅
堆
堡
堤
堯
報
場
塊
塔
塘
塚
塞
塩
填
塵
境
墓
墙
增
壁
壌
壓
壟
壤
士
壬
壮
壯
声
壱
売
壳
壷
壽
处
备
変
复
夏
夕
外
多
夜
够
夢
夤
大
天
太
夫
央
失
头
夷
奇
奈
奉
奎
奏
奐
契
奔
套
奥
奧
奪
女
奴
好
如
妃
妇
妍
妖
妙
妮
妹
妻
姉
姊
始
姑
委
姚
姥
姦
姫
姬
姿
威
娘
娜
婁
婆
婚
婷
嫁
嬢
嬴
子
孔
字
存
孙
孛
孝
孟
季
孤
学
孩
孫
孵
學
宁
宅
宇
守
安
宋
完
宏
宗
官
宙
定
宜
宝
实
実
客
宣
室
宫
宮
宴
宵
家
宸
容
宿
寂
寄
密
寇
富
寔
寗
寛
寝
寞
察
寧
寨
審
寬
寵
寶
寸
对
寺
寻
対
寿
封
射
将
將
尉
尊
尋
對
導
小
少
尔
尚
尧
就
尸
尹
尺
尼
尽
尾
局
居
届
屋
屍
屑
展
屠
層
屬
屯
山
屿
岐
岑
岚
岛
岡
岩
岬
岭
岳
岸
峰
島
崇
崎
崔
崖
嵐
嶋
嶺
嶼
巂
巖
川
州
巡
工
左
巨
巫
差
己
巳
巴
巻
币
市
布
帆
师
希
帕
帖
帝
帥
带
師
帮
帰
帶
常
幕
幡
幣
干
平
年
幸
幻
幽
广
庁
広
庄
庆
庇
序
库
底
庖
店
庙
庚
府
度
座
庫
庭
庵
康
廉
廊
廖
廟
廣
廬
延
廷
建
廻
廿
开
弁
式
弐
弓
弔
引
弘
弟
张
弥
弦
弧
弱
張
強
弹
强
弾
彌
当
录
彖
彙
形
彦
彩
彪
彬
彭
影
役
彼
征
径
待
律
後
徐
徒
得
從
御
復
微
徳
德
徹
徽
心
必
忍
志
忘
応
忠
快
念
怀
怎
怒
怖
思
怡
急
性
怨
怪
总
恆
恋
恐
恒
恢
恥
恩
恭
息
恵
恼
悔
悟
悠
悦
悪
悫
悲
悼
情
惑
惟
惠
惡
想
愁
愍
意
愚
愛
感
愽
慈
態
慎
慧
慰
慶
憂
憎
憑
憲
憶
應
懍
懷
戈
戊
戎
成
我
战
戦
戯
戰
戴
户
戸
房
所
扁
扇
扈
扉
手
才
打
托
扶
找
承
技
抄
抓
投
抜
択
护
报
披
抱
抵
担
拉
拍
拏
拐
拖
拘
招
拜
拟
拥
括
拱
拳
拾
持
挂
指
挑
挥
振
据
捷
授
掛
採
探
控
掲
描
提
揚
換
援
揺
摂
摩
摸
撃
撒
撞
播
撲
操
攝
支
收
改
攻
放
政
故
敏
救
教
敢
散
敦
敬
数
敵
敷
數
文
斉
斎
斗
料
斜
斤
斩
斬
断
斯
新
方
於
施
旅
旋
族
旗
无
日
旦
旧
早
旭
时
旺
昂
昇
昌
明
昏
易
昔
星
映
春
昭
是
昼
時
晉
晋
晒
普
景
晴
晶
智
暁
暂
暖
暗
暦
暮
暴
曆
曜
曦
曲
更
書
曹
曼
曾
最
會
月
有
朋
服
朏
朔
朗
望
朝
期
朧
木
未
末
本
札
朱
朴
朵
机
朽
杀
杂
权
李
杏
材
村
杖
杜
束
条
来
杨
杯
東
杲
松
板
极
析
林
枚
果
枝
枭
枯
架
柆
柏
柔
柚
柩
柱
柳
柴
査
栄
标
栈
树
栖
栗
栞
校
株
样
核
根
格
栽
栾
桀
桂
桃
案
桎
桐
桑
桓
桜
桥
桧
梁
梅
梏
梓
條
梦
梨
梭
梯
械
梵
梶
棋
棍
棗
棘
棚
棟
森
棲
棵
棺
椅
植
椎
椒
椛
検
椰
椿
楊
楚
楠
業
楯
極
楼
楽
概
榆
榊
榔
榛
榮
榴
槐
様
槤
槻
樂
樉
樊
樓
樗
標
樛
模
権
横
樱
樸
樹
橋
橘
橚
機
橫
橿
檀
檜
檳
檻
櫓
櫻
權
欒
欠
次
欣
欲
欽
歌
歓
歡
止
正
步
武
歩
歪
歲
歳
歴
歷
歸
死
殊
残
段
殺
殻
殿
毅
母
毎
每
比
毕
毘
毛
毫
毬
氏
民
气
気
氣
水
氷
永
氾
汇
汉
汐
汗
汝
江
池
汤
汪
汰
汶
決
汽
沂
沃
沈
沉
沌
沐
沒
沖
沙
沛
没
沢
沫
河
沸
油
治
沼
沽
泉
泊
法
泗
泡
波
泣
泥
注
泰
泾
洁
洋
洛
洞
津
洪
洲
活
派
流
浅
浙
浚
浜
浦
浩
浪
浮
海
消
涙
润
涵
涼
淇
淑
淘
淡
淨
深
淳
淵
淹
添
清
渊
渚
減
渠
渡
渣
渥
渦
温
測
港
游
渾
湊
湖
湯
湾
満
源
準
溜
溢
溪
溫
溶
滅
滋
滑
滨
滿
漁
漂
漆
漏
漠
漢
漫
漳
漸
潘
潜
潤
澄
澤
澪
激
濃
濞
濟
瀛
瀬
灣
火
灯
灰
灵
灶
灼
災
灾
炎
炬
炮
炯
炷
炸
点
為
炼
烈
烏
烙
烟
烦
烧
焉
焔
無
焦
然
焼
煌
煙
煜
照
煩
煮
熊
熔
熙
熟
熱
燃
燈
燕
營
爆
爪
爭
爱
爲
爵
父
爺
爻
爽
爾
片
版
牌
牙
牛
牡
牢
牧
物
牵
特
犖
犬
犯
狀
狂
狐
狗
狛
狡
狩
独
狭
狱
狸
狼
猛
猩
猪
猫
献
猿
獄
獅
獣
獵
獻
玄
玉
王
玖
玩
玲
珂
珍
珙
珠
現
球
理
琦
琪
琬
琮
琴
瑋
瑙
瑜
瑞
瑠
瑣
瑪
瑾
璉
環
璽
瓊
瓜
瓢
瓦
瓩
瓷
甘
甜
生
產
産
用
甫
田
由
甲
申
男
町
画
甽
界
畑
留
畜
畢
略
番
畫
異
疆
疾
病
症
痘
痛
痴
瘡
瘤
発
登
發
白
百
的
皇
皙
皮
皿
盆
盈
益
盏
盐
监
盒
盗
盘
盛
盟
監
盤
盧
目
直
相
盼
省
看
県
眞
真
眼
着
督
瞬
瞳
矢
知
矩
短
矮
矯
石
砂
砍
研
砖
砲
破
硕
硝
硨
碍
碗
碩
確
碼
磁
磅
磐
磨
磯
磲
礁
礎
礮
示
礼
社
祀
祈
祐
祖
祚
神
祠
祥
票
祭
祺
祿
禁
禄
禎
福
禦
禮
禰
禺
禾
秀
私
秋
科
秒
秘
租
秤
秦
移
程
稔
稚
種
稲
稷
稽
穂
穌
積
穎
穗
穢
究
空
突
窓
窗
窟
竇
立
站
竜
章
童
端
竹
竺
笑
笔
笛
笠
符
笨
第
笹
筆
等
筋
筍
筐
筑
答
策
筹
箇
箋
算
管
箪
箭
箱
節
範
篇
篋
篚
篤
簡
簿
籃
籌
籍
籠
米
籵
粁
粉
粍
粟
粥
粨
精
糊
糎
糖
糸
系
紀
約
紅
紋
納
純
紘
紙
級
素
紡
紫
細
紹
紺
終
組
絆
経
結
絡
給
統
絵
絶
綁
經
継
続
綜
綠
維
綯
綱
網
綸
綺
綾
緋
総
緑
緒
線
締
編
緩
緬
緯
縄
縊
縣
總
繋
織
繹
繼
續
红
级
纪
纯
纲
纵
线
组
绅
细
终
绍
经
给
统
继
绮
维
综
缽
网
罗
罠
罪
置
罰
罸
羅
羊
美
群
義
羽
翁
習
翔
翘
翠
翡
翱
翹
翻
翼
老
考
者
耆
而
耕
耳
耶
耿
聃
联
聖
聘
聚
聞
聡
聯
聰
聲
職
肃
肉
肖
肚
股
肥
肩
育
背
胞
胠
胡
胤
胴
胸
能
脂
脇
脈
脉
脚
脩
脱
脳
腎
腐
腰
腹
腿
膀
膺
臂
臘
臚
臣
臨
自
臭
至
致
臺
與
興
舍
舎
舞
舟
航
船
艦
良
色
艳
艶
艺
节
芒
芙
芝
芥
芦
芬
芭
芮
芯
花
芳
芸
芹
芽
苏
苑
苗
苣
若
英
苺
茂
范
茅
茜
茶
茸
草
荊
荒
荔
荘
荥
荪
荫
药
荷
荻
荼
莉
莊
莎
莘
莞
莫
莱
莲
莴
菇
菉
菊
菜
華
菱
菲
萌
萍
萝
营
萧
萨
萬
落
葆
葉
著
葛
董
葦
葫
葵
蒙
蒭
蒲
蒼
蒿
蓀
蓑
蓝
蓮
蔡
蔭
蔵
蕃
蕉
蕨
蕩
蕭
薇
薊
薔
薙
薛
薩
薫
薯
藍
藏
藕
藝
藤
藥
藩
藻
蘄
蘅
蘇
蘑
蘭
蘿
虎
虐
虔
處
虚
虛
號
虫
虹
蛇
蛍
蛙
蛭
蜃
蜡
蝉
蝕
蝴
蝶
融
螺
蟲
蠕
蠻
血
衆
行
術
街
衙
衛
衝
衡
衢
衣
补
表
袁
袈
袖
被
裁
裂
装
裏
裔
裕
補
裝
裟
裳
裸
製
褒
襄
襟
襲
西
要
覇
見
規
視
覚
親
観
覺
觀
观
角
解
触
觳
言
計
記
設
許
訳
証
詔
詞
詠
試
詩
話
誌
誐
誒
誓
誕
誘
語
誠
誡
誦
說
説
読
誰
課
調
談
論
諭
諷
諸
謀
謁
謎
謙
講
謝
謡
譌
識
譚
譜
警
議
護
讀
變
讐
讓
计
让
议
许
论
讼
诉
词
诗
诚
话
语
诶
请
诺
读
课
谁
谦
谭
谷
豆
豊
豌
豐
豚
象
豪
豫
豬
豹
貓
貝
貞
負
財
貫
貴
費
賀
資
賈
賊
賓
賞
賢
賦
質
購
贈
贝
贞
财
贤
质
贵
贺
贼
资
赤
赭
走
赵
起
超
越
趙
足
跆
跑
跖
跟
跡
路
跳
踊
踏
踢
蹴
身
車
軌
軍
軒
転
軽
載
輔
輛
輝
輪
輿
轉
车
轩
转
辆
辉
辛
辣
辨
辭
辯
辰
農
边
辺
辽
达
辿
迄
迅
过
迈
运
近
返
这
进
远
迦
迪
述
迷
追
送
适
逆
选
這
通
造
逢
連
逯
週
進
遁
遇
遊
運
遍
過
道
達
遗
遙
遜
遠
遥
遮
選
遺
遼
避
邁
還
邊
邑
邓
那
邦
邪
邱
邵
郁
郊
郎
郑
郛
郝
郡
部
郭
郷
都
鄧
鄭
酈
酉
酒
酔
酥
酱
酷
酸
醋
醒
醫
采
釈
釋
里
重
野
量
金
釗
釣
鈍
鈴
鉄
鉢
鉦
鉱
鉴
銀
銃
銅
銓
銖
銘
銳
鋒
鋪
鋼
錄
錡
錦
錬
録
鍋
鍵
鎖
鎧
鎮
鏡
鐘
鐵
鐸
鑒
钊
钢
钦
钱
铁
铎
铜
铭
铺
锡
键
镇
镗
镜
長
长
門
閃
開
閏
閒
間
関
閣
閨
闇
闍
闕
闘
關
门
问
闯
阁
阪
防
阳
阿
陀
附
际
陈
降
限
陛
院
陣
除
陪
陳
陵
陶
陸
険
陽
隆
隊
階
隔
隗
隠
隣
隱
隴
隸
隻
隼
雀
雁
雄
雅
集
雇
雉
雎
雕
雙
雛
雜
雞
離
難
雨
雪
雲
雳
零
雷
電
雾
需
霆
震
霊
霍
霖
霜
霞
霧
霰
露
霸
霹
靂
靈
青
靖
静
非
靠
面
革
靴
靼
鞋
鞍
鞠
韃
韋
韓
韦
韩
韭
音
韶
響
頃
項
順
須
頌
頒
領
頭
顆
題
額
顏
顔
願
類
顯
项
顾
颂
颊
颖
颗
颜
風
颪
颱
飄
风
飛
飞
食
飯
飾
餅
養
餓
館
饼
饾
馆
馒
首
香
馬
馮
駆
駐
駒
駙
駢
駿
騎
騒
験
騭
騰
騷
驁
驗
驚
驤
马
驰
骨
骸
髀
體
高
髪
鬘
鬥
鬪
鬼
魂
魄
魔
魚
魯
鮑
鮫
鮮
鯖
鯵
鰐
鱀
鱼
鲁
鲤
鳥
鳩
鳳
鳴
鳶
鴉
鴣
鴨
鴻
鵡
鵩
鵬
鶍
鶴
鷓
鷹
鷺
鸚
鸟
鸡
鸭
鸿
鹅
鹹
鹼
鹽
鹿
麗
麥
麵
麻
麼
麾
黃
黄
黎
黑
黒
黙
黛
黨
鼉
鼎
鼓
鼠
鼻
齉
齊
齋
齐
龍
龙
ꜛ
ꜜ
ꜣ
ꜩ
ꜫ
ꜭ
ꞅ
ꞎ
ꞵ
ꦠ
ꦯ
ꦲ
ꭓ
ꭰ
ꭳ
ꭶ
ꭸ
ꭹ
ꮀ
ꮃ
ꮉ
ꮝ
ꮿ
ﬀ
ﬁ
ﬂ
ﮭ
ﮮ
ﷲ
ﷺ
ﺒ
ﻉ
ﻋ
ﻔ
ﻴ
﻿
！
％
＆
（
）
，
－
／
１
２
３
４
６
：
＜
＝
＞
？
［
］
ａ
ｃ
ｄ
ｇ
ｉ
ｊ
ｌ
ｍ
ｐ
ｒ
ｘ
｜
～
｢
｣
･
ｰ
￥
�
𐀁
𐀈
𐀫
𐎠
𐎢
𐎭
𐎰
𐎹
𐎺
𐎼
𐏁
𐭃
𐭉
𐭓
𐭕
𒀯
𒀳
𝕄
𝕡
🖕
##h
##r
##o
##m
##b
##c
##y
##t
##e
##s
##a
##l
##g
##u
##i
##ะ
##เ
##ภ
##า
##ท
##อ
##ง
##d
##n
##w
##1
##7
##5
##k
##v
##z
##p
##コ
##マ
##x
##j
##f
##0
##8
##ə
##3
##2
##q
##ム
##ß
##6
##4
##ø
##9
##沫
##π
##ε
##υ
##ς
##郷
##局
##α
##ι
##τ
##ο
##γ
##β
##ρ
##ω
##е
##м
##н
##т
##ь
##в
##勅
##ꭶ
##ꮃ
##ꮀ
##ꮉ
##ل
##ر
##س
##ا
##ة
##æ
##民
##文
##化
##指
##導
##所
##и
##х
##а
##λ
##χ
##ð
##đ
##国
##堀
##о
##σ
##ケ
##モ
##ン
##シ
##ョ
##ッ
##ク
##ɛ
##手
##取
##り
##ण
##म
##ɪ
##ʔ
##十
##公
##乘
##ʊ
##ν
##η
##タ
##チ
##和
##殿
##ち
##は
##ん
##楽
##し
##い
##日
##ı
##δ
##ア
##ャ
##ص
##ب
##質
##界
##と
##光
##ʋ
##ʑ
##ɕ
##`
##ɲ
##ɾ
##ʲ
##з
##с
##ي
##د
##μ
##ن
##孩
##不
##笨
##ɮ
##ɵ
##ɨ
##ʃ
##ʁ
##ր
##ե
##ն
##ք
##ィ
##レ
##ー
##ف
##ض
##ː
##ʎ
##ł
##現
##思
##議
##の
##р
##д
##к
##大
##න
##न
##家
##店
##战
##役
##う
##者
##词
##љ
##ト
##フ
##ロ
##夢
##κ
##θ
##カ
##ル
##ж
##教
##ɔ
##ˈ
##ŋ
##ի
##գ
##ա
##կ
##տ
##و
##ت
##魂
##て
##ぃ
##ɒ
##ˌ
##น
##я
##г
##康
##ξ
##ق
##ط
##す
##兵
##ز
##م
##式
##部
##記
##ェ
##リ
##青
##铜
##器
##全
##集
##ゆ
##邊
##ћ
##њ
##ʰ
##ন
##明
##表
##忠
##紀
##高
##裁
##判
##房
##宫
##賦
##र
##स
##こ
##ハ
##オ
##ｒ
##ｐ
##ｇ
##院
##ʐ
##ʷ
##ร
##ต
##ำ
##ห
##ก
##ч
##غ
##ه
##ʀ
##っ
##く
##ゃ
##ひ
##み
##つ
##絵
##本
##ค
##ラ
##ホ
##ス
##ʼ
##成
##才
##ม
##ส
##衣
##椅
##子
##老
##人
##書
##九
##章
##イ
##ɡ
##क
##仙
##地
##震
##上
##天
##下
##龍
##牙
##伝
##説
##キ
##サ
##ヘ
##þ
##စ
##і
##घ
##व
##भ
##œ
##ⵜ
##ⵍ
##ⴰ
##ⴻ
##ⵏ
##ζ
##セ
##津
##師
##範
##學
##校
##間
##僕
##射
##也
##官
##ʻ
##ल
##ѣ
##ح
##ウ
##ノ
##ネ
##.
##森
##ذ
##等
##爵
##ᅩ
##ᄌ
##ᅵ
##द
##色
##に
##ع
##ħ
##剧
##熊
##須
##鳩
##神
##分
##裂
##病
##埔
##ج
##य
##ல
##ᅢ
##ᄀ
##ᄅ
##ᅧ
##華
##話
##字
##ო
##მ
##ე
##ლ
##ი
##ʌ
##ش
##ᵻ
##作
##ይ
##ኲ
##ን
##ᅮ
##ᆼ
##ᄋ
##ᅡ
##ᆫ
##ᄉ
##ہ
##学
##ပ
##င
##ˠ
##門
##写
##真
##口
##結
##詞
##ट
##ל
##י
##ה
##改
##у
##ц
##浦
##氏
##க
##騎
##士
##エ
##ɑ
##木
##道
##𒀳
##б
##ф
##л
##泉
##భ
##గ
##మ
##п
##梁
##冠
##則
##溢
##嘉
##凤
##霞
##נ
##皮
##宙
##ニ
##漢
##之
##平
##ʒ
##ワ
##ｉ
##技
##さ
##一
##緒
##ᅳ
##ह
##鋼
##象
##山
##ը
##剣
##键
##危
##機
##テ
##槤
##飄
##ナ
##級
##ɣ
##昌
##其
##琪
##な
##世
##生
##劇
##場
##ە
##ی
##術
##太
##洋
##海
##戦
##た
##る
##ま
##隊
##長
##ɜ
##晴
##れ
##ɖ
##ʳ
##ھ
##國
##策
##鼓
##ы
##倉
##五
##炎
##ช
##少
##女
##ណ
##ឫ
##ទ
##南
##主
##沼
##葉
##軽
##ו
##ט
##ר
##狛
##च
##虎
##ˣ
##溪
##翁
##พ
##ย
##航
##空
##φ
##田
##你
##却
##总
##是
##笑
##我
##ュ
##嵐
##中
##յ
##վ
##զ
##ո
##ս
##ւ
##械
##鎧
##华
##ъ
##ɫ
##板
##印
##刷
##族
##ʂ
##再
##遇
##ツ
##บ
##ล
##魯
##閣
##戰
##爭
##ك
##傭
##ש
##火
##斗
##雲
##寧
##奉
##元
##曆
##島
##श
##威
##ম
##ণ
##権
##動
##素
##贞
##租
##獄
##茶
##三
##渡
##櫓
##附
##台
##棟
##ァ
##券
##א
##ד
##ם
##時
##計
##旅
##爆
##星
##خ
##ʾ
##美
##安
##ა
##რ
##变
##了
##树
##え
##京
##屠
##杀
##鼎
##白
##մ
##հ
##ゥ
##ⵓ
##ⵔ
##原
##ไ
##ธ
##ว
##編
##ǝ
##望
##園
##翼
##屯
##団
##ᄏ
##ᅥ
##ᄇ
##ল
##ই
##ɬ
##寶
##藏
##歷
##史
##越
##-
##ᄐ
##ᆯ
##ヤ
##衛
##八
##處
##樹
##ᆻ
##ᄂ
##ᅦ
##ﬁ
##亞
##統
##井
##柱
##鳳
##罪
##体
##莉
##栖
##哲
##金
##福
##か
##来
##ら
##村
##産
##王
##洲
##ヒ
##ш
##気
##ן
##ɐ
##郎
##涼
##頭
##塚
##理
##根
##性
##螺
##旋
##丸
##奈
##介
##令
##ј
##承
##恩
##彩
##充
##ሀ
##ገ
##ረ
##線
##形
##ю
##ˑ
##督
##二
##脉
##輿
##萬
##圖
##言
##港
##司
##ग
##ङ
##թ
##ᵀ
##极
##图
##ব
##গ
##襲
##噛
##ល
##ង
##ស
##ម
##រ
##ប
##լ
##弥
##武
##皇
##ミ
##प
##ष
##त
##メ
##थ
##ɺ
##年
##粟
##內
##馬
##楚
##宇
##ˤ
##鳥
##遊
##ʕ
##州
##皿
##屋
##敷
##甜
##同
##巻
##º
##深
##き
##籠
##科
##朗
##ʱ
##治
##ソ
##灯
##吾
##沢
##ב
##ת
##樂
##城
##ק
##魔
##霊
##符
##軍
##会
##社
##ศ
##名
##沛
##宁
##片
##若
##梅
##塔
##奥
##義
##館
##琮
##音
##ბ
##დ
##უ
##鸿
##毛
##彭
##将
##军
##云
##紅
##旗
##翔
##彦
##剑
##ด
##沂
##כ
##妻
##飛
##行
##船
##著
##脩
##ث
##秋
##左
##弹
##遁
##鏡
##輪
##眼
##陽
##ত
##ক
##降
##工
##開
##物
##那
##堂
##冒
##険
##ដ
##羽
##問
##箱
##ね
##む
##方
##玄
##竹
##齋
##箋
##譜
##畫
##苑
##ח
##ம
##豪
##品
##齐
##牧
##非
##采
##菉
##鼻
##極
##ข
##ใ
##ᅣ
##ᆷ
##ほ
##め
##龙
##寺
##へ
##涙
##綱
##血
##闘
##貓
##ន
##ត
##溜
##街
##鐘
##刊
##路
##流
##能
##瀬
##由
##嘘
##莞
##縣
##風
##柏
##魚
##密
##室
##殺
##事
##件
##尸
##琴
##鎖
##斬
##月
##ʿ
##差
##特
##別
##版
##影
##篋
##ฮ
##克
##號
##ψ
##久
##պ
##ᆺ
##ᄃ
##叔
##ⵉ
##杯
##ס
##宮
##廷
##翠
##ک
##敢
##为
##先
##面
##闕
##永
##君
##裏
##詩
##ய
##ர
##迷
##あ
##視
##点
##ע
##荪
##旦
##ན
##ܠ
##ܝ
##ܐ
##ब
##薇
##妹
##蝉
##脱
##壳
##勳
##豆
##遼
##鬼
##咆
##哮
##ⁿ
##信
##号
##ɳ
##政
##関
##俊
##ʝ
##も
##共
##舞
##小
##刀
##庇
##ղ
##ց
##沉
##沌
##死
##依
##有
##選
##מ
##打
##守
##โ
##贤
##阁
##ធ
##春
##ई
##臣
##東
##男
##如
##歌
##ල
##פ
##咲
##合
##蓮
##弓
##矢
##住
##造
##強
##を
##知
##や
##ں
##鉢
##荷
##領
##域
##ฤ
##徒
##均
##犖
##験
##箭
##谦
##跡
##ក
##ច
##گ
##狼
##撃
##煙
##宵
##聖
##謀
##夜
##佐
##傳
##零
##外
##แ
##寔
##ܣ
##ܡ
##準
##備
##第
##着
##業
##建
##艦
##画
##ჯ
##ნ
##ƒ
##惠
##德
##心
##添
##財
##怪
##奇
##篇
##尉
##鍋
##焔
##身
##見
##去
##出
##興
##愛
##黨
##澄
##怖
##種
##服
##銃
##ფ
##肖
##像
##শ
##丞
##相
##椛
##佳
##多
##ろ
##右
##憑
##ך
##ณ
##ฑ
##段
##突
##楯
##咙
##胡
##礼
##蛇
##盼
##亮
##秘
##宝
##គ
##迦
##使
##季
##節
##修
##羅
##郡
##李
##报
##ڠ
##雜
##敏
##六
##要
##後
##爱
##尔
##賓
##寄
##せ
##仲
##達
##草
##灣
##堆
##填
##區
##延
##寿
##ध
##ญ
##จ
##微
##垣
##悦
##交
##帖
##よ
##щ
##妇
##联
##骨
##亚
##坤
##庆
##河
##吸
##投
##け
##艳
##曾
##经
##问
##个
##休
##無
##耆
##坊
##枯
##野
##廻
##ォ
##輔
##回
##目
##川
##议
##宅
##१
##ى
##半
##立
##孫
##述
##ཙ
##ག
##愍
##騒
##彪
##禁
##ծ
##農
##բ
##ड
##ᄎ
##ள
##ட
##通
##罗
##燃
##ხ
##ჳ
##ს
##ಡ
##ಬ
##定
##辨
##正
##槻
##ᛇ
##ᛋ
##ᛚ
##ᚻ
##ᛠ
##ᚱ
##ᛞ
##朝
##親
##經
##ฎ
##淑
##英
##担
##狗
##ሰ
##ሐ
##剛
##ტ
##語
##侯
##穌
##ꦲ
##ꦠ
##ʉ
##芸
##ვ
##ɽ
##岸
##わ
##ᅱ
##ᅯ
##ᅴ
##１
##த
##頃
##法
##舎
##县
##岩
##棍
##鱼
##県
##浜
##丘
##盘
##വ
##ശ
##景
##碍
##菜
##西
##絶
##都
##市
##ऽ
##智
##玩
##具
##厂
##童
##ᠣ
##ᠯ
##ᡳ
##組
##銀
##ｰ
##遠
##万
##ජ
##ධ
##ය
##案
##參
##考
##資
##料
##复
##水
##移
##ɯ
##照
##御
##ᄒ
##ᅪ
##砲
##ﮮ
##ठ
##勝
##祿
##枝
##ⵎ
##ⵙ
##ⴽ
##ⵡ
##ञ
##ព
##ϕ
##宗
##宿
##希
##የ
##ከ
##ነ
##ユ
##四
##型
##夫
##利
##ฐ
##ษ
##詔
##制
##ᆨ
##雷
##ன
##ձ
##花
##氣
##占
##ﬂ
##お
##姉
##恋
##颜
##舟
##歩
##瑞
##探
##息
##米
##ふ
##ˀ
##模
##ဟ
##န
##条
##研
##究
##期
##誘
##拐
##内
##尺
##鷹
##鎮
##э
##執
##秀
##叶
##度
##宋
##远
##坑
##代
##师
##滋
##ⵢ
##意
##阳
##吟
##芬
##赤
##壁
##実
##增
##霆
##尼
##ⴳ
##泊
##ฏ
##ฟ
##番
##谷
##觀
##壓
##力
##蝶
##疾
##块
##比
##萨
##צ
##衙
##ȝ
##步
##賢
##伴
##初
##历
##凯
##逆
##隱
##渦
##ಶ
##ಲ
##祖
##卒
##雄
##誕
##ለ
##蔵
##進
##曲
##殻
##ջ
##電
##ყ
##边
##糊
##想
##拉
##迪
##句
##ስ
##ታ
##ቲ
##ኖ
##牛
##府
##腐
##镜
##鉴
##的
##新
##加
##坡
##义
##譚
##ף
##സ
##助
##隸
##注
##良
##ʏ
##乙
##双
##拳
##ᄆ
##辭
##ழ
##ᡝ
##ᠰ
##甘
##岭
##ཁ
##འ
##է
##產
##స
##త
##ల
##祠
##芳
##鍵
##吉
##補
##潜
##黙
##示
##録
##བ
##弘
##桓
##ኢ
##ት
##ዮ
##ጵ
##ያ
##辆
##车
##磅
##肉
##念
##架
##ɟ
##迅
##ᵿ
##դ
##径
##ء
##坪
##铺
##库
##樓
##居
##唐
##妖
##甲
##陣
##北
##征
##懷
##憲
##観
##測
##ป
##汉
##ⵇ
##攻
##略
##鮫
##佛
##刘
##亦
##婷
##聯
##盒
##泡
##ங
##未
##穂
##滅
##ぬ
##繼
##偵
##悪
##敬
##摸
##卦
##難
##石
##ჲ
##申
##護
##可
##汗
##戸
##以
##次
##东
##喜
##歡
##ಠ
##帝
##客
##到
##长
##好
##ⴼ
##転
##検
##ᠠ
##ᠨ
##ᠵ
##ᡠ
##硕
##柔
##藩
##連
##諭
##ఠ
##ѡ
##ظ
##讐
##育
##律
##叢
##會
##µ
##向
##砂
##ঙ
##প
##ৰ
##憶
##棘
##善
##用
##軒
##變
##古
##叉
##补
##ѥ
##ძ
##ರ
##邑
##譌
##獣
##嶋
##姫
##蓝
##达
##煜
##鳴
##ᛁ
##ச
##錡
##夤
##髪
##乃
##颖
##授
##銖
##超
##拟
##语
##系
##统
##裳
##劣
##私
##僑
##蕉
##座
##絡
##ɦ
##庭
##拖
##碩
##額
##駙
##脈
##声
##梓
##շ
##崎
##百
##警
##幸
##找
##傅
##葵
##ڬ
##ถ
##鶴
##町
##ᅭ
##切
##朱
##雀
##幻
##ɓ
##岬
##帥
##召
##鴻
##ზ
##ょ
##雪
##雳
##球
##在
##走
##չ
##彼
##圣
##გ
##悟
##情
##浪
##强
##ᆸ
##游
##塘
##靂
##汤
##貞
##劃
##境
##何
##时
##跟
##亨
##装
##巡
##冶
##侨
##必
##稽
##椒
##ண
##ג
##স
##দ
##而
##誦
##є
##荘
##诺
##秦
##林
##塊
##ռ
##破
##限
##惟
##窟
##楠
##礁
##岛
##ぇ
##江
##來
##ហ
##វ
##解
##清
##朋
##滿
##ज
##匹
##马
##ਜ
##ਲ
##ܚ
##ܘ
##群
##医
##顔
##側
##ץ
##油
##友
##査
##最
##億
##閏
##髀
##算
##颂
##放
##送
##土
##桜
##健
##贝
##计
##划
##円
##丹
##灰
##施
##設
##澤
##除
##祭
##輝
##ရ
##တ
##汇
##与
##级
##纲
##蓑
##ር
##ና
##ܢ
##橋
##雅
##釈
##約
##束
##首
##自
##然
##鱀
##豚
##保
##护
##区
##騷
##重
##駿
##波
##豹
##丁
##堡
##廣
##碼
##ភ
##缽
##底
##願
##靼
##漂
##泗
##臺
##چ
##早
##湖
##濃
##角
##賀
##巳
##周
##铭
##选
##讀
##თ
##漠
##卓
##妍
##乎
##巫
##總
##商
##柆
##争
##満
##足
##煌
##談
##將
##跳
##還
##典
##例
##ⅱ
##孛
##股
##份
##ꭸ
##ᏹ
##ɻ
##砖
##陵
##ᆮ
##@
##屿
##端
##决
##蝕
##仮
##棺
##२
##ـ
##愚
##ឯ
##ជ
##ខ
##爪
##職
##香
##吳
##錬
##緩
##夕
##疆
##繹
##庁
##ヨ
##響
##ゅ
##里
##绍
##维
##禎
##暦
##ਹ
##崇
##没
##追
##悼
##祈
##ぅ
##ȷ
##细
##喝
##摩
##撒
##廟
##ܕ
##ܬ
##ᅲ
##ᄑ
##熱
##庫
##婚
##杖
##倭
##洞
##话
##黒
##邪
##借
##苗
##凰
##隠
##٧
##芙
##臂
##膀
##揺
##婆
##鼠
##桑
##包
##妙
##刻
##食
##ɤ
##关
##ப
##财
##际
##椿
##爾
##楼
##松
##卖
##閒
##瑠
##弦
##坂
##椰
##绮
##製
##々
##耳
##權
##羊
##雕
##辉
##瞬
##昭
##齊
##ˁ
##ɹ
##庚
##胞
##邁
##ฉ
##卿
##艶
##暁
##旭
##衢
##閃
##鷺
##沙
##耶
##ｃ
##ｄ
##ぉ
##厦
##臨
##麾
##繋
##胴
##锡
##赭
##茸
##果
##及
##伯
##伊
##賞
##受
##展
##綺
##そ
##唱
##红
##馆
##酒
##菇
##盤
##准
##伐
##娜
##灵
##驁
##末
##縊
##常
##闇
##忘
##衡
##黄
##踢
##脚
##ஸ
##陶
##痴
##ǂ
##შ
##镗
##綾
##廊
##届
##夏
##运
##动
##鉦
##換
##ҷ
##父
##省
##న
##池
##蛙
##屍
##茂
##倪
##ผ
##ɰ
##喚
##掛
##蠻
##概
##փ
##խ
##习
##培
##养
##节
##瑋
##復
##魄
##监
##異
##邦
##罠
##霹
##炮
##泾
##数
##鉄
##ʹ
##央
##革
##组
##ဝ
##ယ
##က
##命
##瀛
##ז
##闍
##梨
##駆
##抜
##幣
##曜
##宜
##失
##習
##吧
##票
##促
##进
##株
##颗
##फ
##營
##厚
##ⵣ
##ⵖ
##陛
##碗
##粥
##ซ
##顯
##လ
##မ
##帰
##ළ
##甫
##ᶦ
##肩
##横
##階
##尚
##桃
##儿
##劍
##翹
##և
##爲
##ᛟ
##ᚾ
##ᚨ
##貴
##ᅨ
##乱
##छ
##珂
##芝
##稔
##ɢ
##仇
##வ
##登
##陈
##伟
##岳
##暖
##箇
##誓
##読
##変
##瓜
##沖
##র
##ভ
##員
##斤
##虐
##头
##庙
##豐
##撲
##ے
##晶
##曦
##හ
##ර
##镇
##様
##ｍ
##ａ
##２
##活
##鋪
##報
##告
##為
##圻
##ʙ
##烦
##恼
##给
##付
##柳
##七
##災
##挑
##猫
##銓
##ฬ
##聞
##恵
##ሥ
##ሓ
##毬
##振
##鐸
##紙
##列
##综
##终
##調
##耕
##莘
##尾
##炬
##哉
##即
##榮
##弱
##净
##孵
##梏
##ख
##蒲
##感
##謝
##沒
##図
##散
##ট
##寬
##弟
##独
##竺
##抓
##起
##玉
##奪
##璽
##қ
##ର
##封
##尽
##飾
##志
##抱
##笛
##怀
##滨
##ᡨ
##ᡵ
##確
##卫
##係
##鹿
##质
##权
##对
##盟
##发
##响
##鰐
##璉
##风
##札
##斎
##操
##ద
##协
##筹
##备
##乌
##贼
##梭
##數
##鐵
##虛
##詠
##支
##題
##証
##郁
##蕩
##己
##য
##炸
##桧
##牌
##務
##ང
##薙
##竜
##ᚷ
##苺
##奐
##ﮭ
##ﻔ
##օ
##斯
##盆
##扇
##悫
##靖
##ܪ
##壽
##終
##雞
##些
##頌
##前
##宏
##铎
##读
##載
##圧
##攝
##ﬀ
##无
##藤
##幡
##鑒
##ʈ
##欠
##程
##委
##娘
##丑
##芦
##鸡
##门
##笠
##直
##滑
##從
##聲
##升
##鞠
##ᅬ
##瑪
##竇
##規
##矩
##翘
##芮
##پ
##韓
##ឪ
##虫
##納
##吹
##始
##唄
##母
##囁
##磨
##鹼
##瑾
##畑
##ქ
##桐
##環
##融
##養
##ђ
##ѯ
##够
##አ
##ዘ
##በ
##拘
##留
##落
##鬪
##說
##對
##錄
##棵
##痘
##禄
##ষ
##鵬
##ማ
##យ
##舍
##入
##ར
##ሕ
##ዛ
##ብ
##派
##籍
##應
##只
##他
##栄
##ც
##抵
##钦
##栽
##副
##坚
##ថ
##拍
##酥
##ө
##ⴷ
##徽
##ਸ
##ਝ
##迄
##賊
##ᇂ
##墓
##ഹ
##ತ
##答
##橚
##発
##夷
##郑
##供
##呂
##焼
##挥
##呪
##ƿ
##聃
##尋
##緬
##壌
##喬
##筍
##締
##管
##叫
##蘭
##豬
##ਘ
##槐
##恥
##醫
##ɴ
##徹
##析
##梦
##𐀁
##𐀫
##千
##ⵛ
##優
##莱
##后
##蜃
##植
##ゑ
##憎
##荻
##帆
##ฆ
##悲
##允
##檻
##蒿
##డ
##బ
##仪
##秒
##嫁
##珠
##罰
##虔
##功
##弁
##当
##今
##ᵊ
##運
##看
##兩
##個
##壯
##腎
##ヶ
##ɭ
##關
##簡
##过
##ɥ
##博
##书
##協
##籌
##唯
##尊
##瓷
##虹
##巨
##ฝ
##ᒡ
##ᓘ
##ᑲ
##硝
##盗
##晋
##車
##歲
##ཛ
##၂
##၈
##၇
##ಕ
##鈍
##传
##維
##論
##帮
##謡
##牢
##冬
##３
##脂
##ɚ
##材
##ས
##雾
##菱
##迈
##币
##驤
##ಸ
##継
##淘
##汰
##巖
##紋
##映
##断
##烟
##气
##蠕
##湯
##筐
##斜
##狸
##精
##岐
##膺
##乩
##彌
##彬
##狩
##হ
##致
##霰
##弾
##ᶷ
##標
##戎
##慶
##控
##勢
##冉
##返
##奴
##祐
##兜
##肚
##朏
##ဘ
##课
##ꮝ
##ꮿ
##昂
##層
##崖
##禮
##ድ
##珙
##薔
##渠
##倫
##幕
##採
##購
##窓
##憂
##愁
##峰
##瓢
##箪
##綯
##厥
##葆
##祺
##莊
##პ
##ዕ
##ቆ
##細
##與
##湾
##ჱ
##売
##経
##岚
##狱
##踏
##ප
##ƀ
##请
##陸
##漸
##棲
##屬
##止
##決
##杏
##聘
##俱
##岡
##処
##玲
##ᡴ
##ᠪ
##ᡥ
##泥
##覺
##歳
##礎
##識
##榔
##嶼
##熙
##渣
##們
##靈
##忍
##叡
##开
##浚
##'
##托
##咫
##救
##両
##紹
##线
##濞
##暴
##奧
##勘
##扉
##源
##ష
##壷
##醒
##润
##𐎰
##𐎢
##𐎼
##𐎠
##棚
##兔
##柩
##狐
##辯
##这
##就
##鷓
##鴣
##漏
##们
##办
##晉
##襄
##侬
##併
##宴
##纪
##实
##ᚩ
##ᚦ
##辿
##抄
##禰
##丙
##ժ
##獻
##ꜜ
##翻
##坝
##铁
##稷
##ශ
##勇
##钊
##惑
##防
##芒
##閨
##礮
##ደ
##袈
##裟
##位
##ᚢ
##ᛏ
##ᚹ
##泰
##卜
##廿
##લ
##સ
##ર
##悠
##亡
##刃
##ਵ
##户
##亀
##,
##漁
##ᵝ
##続
##毅
##篤
##週
##栗
##嶺
##荼
##洁
##ര
##ങ
##继
##ѧ
##წ
##似
##汝
##适
##択
##訳
##敵
##穎
##恆
##覚
##隣
##得
##予
##凱
##ⵃ
##ⵕ
##ɘ
##ખ
##妮
##ಗ
##ദ
##引
##獅
##ʽ
##遺
##ˢ
##雉
##態
##跆
##駒
##ള
##处
##狂
##割
##ｘ
##持
##嚣
##杜
##莎
##臘
##姑
##ϟ
##暮
##鞋
##罸
##杲
##易
##背
##裝
##ᆰ
##衝
##ܒ
##灾
##恢
##援
##孔
##戯
##鋒
##察
##騭
##弐
##拾
##ಮ
##据
##启
##鲤
##聚
##踊
##雎
##歴
##𐎹
##𐏁
##筆
##怎
##么
##兰
##站
##इ
##焉
##侗
##彙
##ヌ
##釗
##儀
##标
##鮮
##瘡
##ම
##樉
##堤
##墙
##誠
##诉
##ಟ
##ᶴ
##壮
##炼
##菊
##ನ
##仔
##伏
##荒
##誌
##ದ
##紡
##雁
##კ
##祥
##格
##症
##候
##幽
##沽
##焦
##阿
##瑣
##卡
##戈
##麥
##積
##歓
##煩
##寞
##咖
##啡
##因
##鬥
##完
##稚
##卸
##儡
##姚
##韶
##囂
##驗
##淹
##塞
##ᠴ
##እ
##蔭
##ལ
##献
##鸟
##浮
##圓
##ۍ
##過
##尧
##姿
##條
##瑙
##勒
##容
##潤
##ճ
##逢
##發
##獵
##宣
##张
##恭
##禾
##ү
##灼
##応
##观
##嬢
##渊
##頒
##糖
##跖
##靠
##腿
##థ
##布
##寨
##ܔ
##恒
##烙
##鹽
##烏
##綸
##糸
##庵
##瑜
##吞
##藥
##牡
##棋
##麗
##ɸ
##貫
##負
##磲
##味
##桀
##午
##兆
##襟
##亜
##郛
##霸
##儒
##仕
##綜
##ܗ
##𐎺
##謎
##霖
##顏
##広
##艺
##蘅
##ᄈ
##ཡ
##侍
##堯
##থ
##勃
##豫
##泣
##蘄
##給
##ѹ
##ｌ
##匠
##珍
##药
##𐭉
##𐭓
##𐭃
##𐭕
##消
##減
##誡
##酷
##収
##銳
##纵
##驰
##奔
##鈴
##姦
##营
##犬
##圏
##姬
##雙
##ந
##残
##欽
##傘
##苣
##琬
##芯
##厩
##祀
##祚
##ව
##辰
##需
##慧
##巴
##旺
##溫
##广
##任
##６
##ϑ
##漫
##體
##丽
##萍
##ᛗ
##禺
##欣
##鵡
##課
##穗
##対
##ᅫ
##豊
##斉
##淇
##猿
##ర
##ဇ
##阪
##晒
##蒭
##縄
##騰
##ⲩ
##ⲥ
##ⲧ
##ⲁ
##ⲱ
##ⲛ
##涵
##急
##颊
##怒
##ſ
##裕
##巂
##翱
##狀
##囃
##創
##毘
##丝
##燈
##వ
##徳
##昏
##樸
##瓦
##录
##妃
##梯
##酸
##丈
##淵
##賈
##খ
##序
##壱
##裔
##籃
##宸
##殊
##緯
##総
##臚
##盏
##皙
##温
##ɞ
##讼
##遗
##蓀
##貝
##贵
##雇
##蕃
##爺
##富
##ಭ
##జ
##掲
##敦
##琦
##静
##寂
##桥
##喇
##侠
##孝
##མ
##炯
##簿
##奏
##麼
##置
##拏
##瓊
##屑
##蕨
##括
##轩
##乐
##孟
##堅
##燕
##饼
##肃
##爽
##机
##更
##近
##烧
##網
##描
##he
the
##er
##in
##on
##ed
##nd
##or
##at
##es
##ar
##en
in
of
##an
##al
##it
##ing
##as
and
##is
to
##ic
##ou
##ion
##re
##om
##il
##el
th
##ec
##ent
##st
##am
##et
##ro
on
##ac
##ad
was
##ur
st
##ol
for
##le
##ly
##ir
as
##id
@-
@-@
##ter
##iv
##ig
##ot
re
##ut
##im
##ow
##ith
##ay
be
al
with
##ation
that
wh
it
con
##ers
##em
at
an
by
fr
is
he
##us
##ch
##ce
##ver
##th
##ul
##os
##and
ch
##ain
19
his
##her
##est
##ag
##av
##um
com
##ct
su
se
from
pro
##od
##ess
de
##ri
##ap
20
##ist
##ect
##un
ne
##op
##ere
sh
##ill
##igh
##ies
##art
##ard
##ber
##if
or
##ld
ar
##all
##oc
##ak
ex
pl
were
##ate
##ich
##ort
un
##ab
pr
##pp
##ant
le
sp
##ud
##gh
##ong
tr
##se
##ated
##ity
##ive
##ie
en
##ame
had
##ore
##ack
##ip
##our
##ast
##ear
which
##ge
##ov
##ough
are
not
##ian
##ment
af
##ell
##ial
##ound
##ost
##pt
rec
##ia
##ight
cl
##qu
##out
##ust
wor
##ary
whe
##ine
br
##oun
ad
##cc
##ical
##ave
sc
comp
fir
her
but
##ord
this
inc
##ther
200
cont
##ould
tw
##ous
ab
##ish
after
int
first
gr
##ions
##so
res
its
new
##ure
their
am
all
man
##og
one
##ue
##per
per
##ass
##ign
also
##ome
mar
##ok
##ub
us
rel
she
##oll
##ater
tim
##00
##age
##ide
##ond
they
##orm
ser
##ire
##hed
two
##ru
part
ag
##ry
fe
comm
des
##rit
##ans
have
##du
bec
##ally
##ff
##pl
dis
##ence
who
app
##ree
go
18
##ile
##ance
##ra
@.
@.@
we
##ition
##end
year
##own
##iz
off
has
play
##act
##uring
been
ro
##ely
other
over
201
@,
@,@
im
car
##ult
##lud
##ice
##ory
out
##ations
co
##ember
up
##ach
inter
att
ev
##ace
##ke
dec
fin
##wn
when
##land
pre
bo
##ade
##ib
##pr
time
##ail
can
during
##ens
##ount
##urn
fl
includ
ind
##ced
te
##ric
would
sec
##eas
##ks
fil
##ang
##man
##ward
##one
into
##we
him
act
bl
##ite
##int
ear
##ates
war
jo
##ied
##able
bet
more
##nder
char
##ose
##ited
##amp
cent
form
film
par
##way
##ents
me
acc
##les
##ces
cons
##ors
el
##old
##aw
##ason
##form
##ings
while
mus
##vel
##te
most
##ild
game
##ft
##att
there
thr
##port
kn
rem
nor
##ind
##ict
gen
##gr
##ick
ass
##fer
##ious
##ake
how
##aus
qu
em
##reat
##iss
bu
no
later
song
produ
again
only
reg
##gan
so
##rib
##ved
under
work
##ction
##ood
##rop
sy
may
them
##ey
ret
than
some
po
##als
three
pe
col
about
##ubl
##eld
199
##ix
##ween
##ath
##ons
between
##ollow
##oth
day
air
##ered
high
bro
mon
rev
##hip
through
record
follow
eng
##ock
ma
##ational
bas
second
##fore
end
##outh
li
ph
releas
ac
num
sub
##ters
min
pres
##eric
##hn
##ph
dr
##ug
##orn
sa
##iew
pol
alb
season
def
four
ep
pos
americ
world
do
north
where
cap
before
team
mov
##ral
##ular
spec
##ating
##ames
writ
arm
lar
sm
made
sch
##ision
gu
will
##ived
##hes
such
sur
##son
000
sing
##ton
album
publ
##ep
met
##ished
sever
##ever
years
##ained
##io
##itt
##ode
##ics
##ros
supp
loc
##red
10
call
count
str
south
back
show
##let
add
inv
gener
both
##ning
##ected
##ual
##tern
then
art
##ily
however
##ery
epis
used
mill
batt
rece
##ific
being
these
well
##oup
##ury
##ection
set
stud
##ve
series
against
ed
##air
##ank
charac
bel
##ale
inst
##velop
found
number
##ife
##led
17
lead
many
music
##other
sim
##ement
mat
perform
##ten
main
long
##ather
op
##ert
city
pop
##ane
##az
##ool
ter
##ause
##ince
##oy
develop
##ron
##fl
became
united
dire
##au
hist
several
including
##igin
sl
cre
state
brit
mil
early
##ise
div
##ower
##ier
origin
##vern
##ised
ob
15
12
198
trans
did
##anc
##its
appear
##ork
##ures
dist
##ines
nov
##iet
194
ext
##uc
ship
contin
govern
##olog
pers
##ities
conc
win
##are
prov
##ole
episode
##til
states
##ross
##elf
est
crit
said
john
##ird
ann
##ful
following
const
##ley
design
group
##ield
cr
exp
could
dif
med
##ative
oper
16
return
##ouse
run
american
##ought
desc
##sp
##ann
bar
alth
known
##der
dep
although
##eng
near
direct
aust
any
ger
west
##ivers
sign
serv
har
197
##emb
mod
jun
king
pass
down
##ase
11
196
##ually
##ah
##ll
land
##uch
##ident
fam
disc
##iver
##iam
##ued
began
red
like
gre
offic
##ined
eff
until
lo
ste
feat
##row
##ople
##ism
##0s
##ject
##ange
##ty
##aking
##ern
school
along
because
own
##ided
point
released
rep
open
port
##ccess
resp
##ele
##enn
##ized
##ins
called
imp
national
prev
##ts
star
maj
##els
##ists
people
##ured
##up
##stem
wee
##ys
##ially
##ution
class
adv
million
##ull
##osed
just
##ium
cour
system
id
british
ever
since
head
13
six
aut
##ession
best
around
aug
cor
major
award
ju
life
var
la
##cept
if
each
success
##any
##ains
attack
sept
##ets
av
bre
##xt
##gest
##ene
##ently
##ments
coll
character
##ark
##oot
##rap
use
arr
september
describ
august
start
##amed
##ont
same
##ible
road
tri
ge
east
##aced
occ
final
support
result
oct
dem
another
hel
five
public
14
##aining
##yp
sw
##ik
prom
km
##ired
great
build
##ended
old
my
camp
austral
you
##aving
195
det
gl
##cl
##ues
took
sk
band
german
##ruct
ra
##ob
line
book
area
mid
house
small
complet
##ted
##ner
report
193
consid
##ove
century
##ober
##und
turn
received
##raft
##get
october
contro
##uss
chr
##ants
stre
##hern
rout
univers
##ives
##ically
##hing
191
##ble
what
games
partic
due
short
##ison
last
government
hal
##ility
vers
##ina
leg
rest
march
##ately
ent
ke
command
##gin
person
##ored
##ians
##oss
way
##ink
june
jan
mag
home
prot
mark
del
third
general
##inc
single
conv
squ
##ting
##ission
july
child
tit
capt
##iving
##sc
men
november
##urch
track
##omet
death
apr
fur
care
review
event
much
island
##ute
york
##app
april
top
differ
dam
##enc
large
##uary
cal
accord
power
##lish
even
left
soc
town
##res
che
eu
##ash
##ural
cast
gun
##ger
vide
intern
allow
##ively
30
month
##aim
pat
##idge
kill
##ilt
story
progr
appro
vis
based
##bo
family
##ague
place
cur
now
##ms
vict
##ales
incre
expl
park
ant
black
##bert
##ified
right
spe
##over
law
company
army
ele
##avy
enter
##empt
conf
december
25
history
club
played
addition
storm
according
post
river
included
##by
##..
name
##ats
led
january
water
##rote
battle
##ench
192
##ention
##ient
##ograp
hand
ang
##aged
##ared
wind
##ball
##ime
##ling
##apan
##side
wom
ii
wrote
won
hum
##hen
##ven
##ony
##eal
##erg
japan
times
##min
##ages
##ott
organ
opp
...
val
##ience
requ
previous
far
within
##ract
deb
##ody
rad
make
described
init
##ital
##med
those
bill
still
champ
video
##ides
##erv
next
##hest
memb
late
stand
##omin
named
##ption
belie
bus
##hy
week
original
among
release
##na
further
attempt
repl
##aff
##ister
##por
list
##iven
league
##ilar
force
very
effect
dest
poss
foot
view
iss
route
##iod
##bru
100
##ior
real
##itions
##mer
commun
production
##ps
exper
species
##ret
members
##ached
sound
cy
##br
inf
polit
##ival
infl
europ
milit
former
ref
christ
##ren
tour
febru
february
tak
similar
sol
elect
white
##ances
nort
##ne
sold
period
division
though
repr
days
built
match
##ences
tem
roy
nat
super
tele
control
side
##hor
trop
prop
held
sout
europe
##ck
plan
youn
university
rock
##ars
light
french
##ented
good
pa
##ney
##ness
cle
say
service
typ
president
##ched
fle
role
##augh
local
desp
estab
help
##wards
2010
fre
equ
21
order
eas
came
coun
tot
every
caus
##ech
cross
sen
beh
having
never
##oci
william
##ipp
##sh
sum
##ler
few
##ford
sug
mor
##ulation
##uted
##line
##ax
mount
test
associ
player
chart
prof
2008
see
often
common
24
stat
pet
take
##ards
##ices
half
hur
2009
career
geor
continued
low
##par
##ese
ten
sty
pri
claim
histor
##ator
2011
level
sent
press
fire
mich
##ruction
different
##omb
without
fun
##ying
##estern
despite
##atic
##ots
je
cover
england
wat
rom
mer
##ology
less
22
court
comb
considered
##read
party
##ops
##ried
dav
development
fact
##me
field
##ves
church
##aster
arch
2007
##iend
don
repres
##af
tre
increas
night
country
county
##con
##hel
influ
##ham
champions
royal
songs
friend
##ones
version
##ittle
hig
english
military
##ring
moved
highway
colle
vol
##lex
written
##essed
position
trad
want
strong
##rodu
##vision
program
mi
2012
lim
become
forces
anim
ve
chang
bur
##alk
23
lost
##ize
son
lond
international
building
little
miss
tropical
given
london
total
##ened
mo
invol
author
suggest
##elt
ord
##craft
refer
vir
phil
announ
vi
let
190
##eder
pur
##ged
##atter
##ald
lab
street
hour
read
project
import
sel
free
##ai
##irc
##ising
##iety
get
canad
eight
##que
aff
##sequ
surv
rail
performance
defe
gold
ly
sal
station
gave
earl
went
##bs
find
cop
father
##ae
##ches
returned
somet
##ailed
using
broad
jack
need
published
coast
produced
conn
western
arg
compet
##oint
hun
reported
##ead
##xim
trav
mass
popular
##ably
particular
##roy
recorded
children
television
cult
2006
##self
ins
##ories
stated
aircraft
special
##aign
ball
hol
##ama
ships
interest
dev
##ency
ground
campaign
circ
##echn
should
front
include
live
making
hit
##iter
critic
dou
love
27
hom
age
##uck
##ief
women
28
hurric
central
##ef
##day
vo
throughout
##yl
50
prim
##used
upon
##iment
region
cas
once
young
##iness
##ploy
##ength
##osp
suff
obs
himself
official
australia
2013
##co
tro
championship
techn
depart
wall
mot
aud
##cess
ap
rich
characters
vill
##ned
non
##ensive
fav
26
sea
##play
present
du
##rew
mad
##alth
40
tur
players
squad
relations
sit
##itive
##vers
ft
##ither
fall
instead
##raw
southern
title
base
##akes
produc
james
writing
seven
away
hor
189
cost
fac
begin
##acy
across
fem
introdu
center
cam
hall
died
remained
months
##ense
##ges
fort
ir
signific
developed
enc
grand
promot
full
cond
political
look
net
various
occur
manag
modern
##ument
##lo
fif
hot
##ple
##ape
cat
pal
hurricane
wood
##utes
hill
put
too
hon
##fic
##itted
ham
aver
ill
pra
race
fight
##field
decl
##ration
office
hy
##ael
big
##ille
##isted
##ries
bow
hard
works
america
sil
felt
areas
indust
noted
wr
mal
##erc
eventually
russ
style
born
announced
college
created
miles
thought
reached
brother
##ett
hop
##ering
destroy
##dom
##ana
construction
japanese
stri
engine
bri
sun
hold
successful
northern
2005
##most
29
cro
san
body
cut
pain
seen
mc
heavy
struct
esc
agre
followed
adm
range
sym
toget
mem
##ements
together
meet
performed
##ress
civ
##iting
##ization
brown
served
##ality
member
activ
##ked
##work
##ows
##orts
2014
bridge
george
hen
mur
mix
football
curr
##iction
god
tor
killed
cert
significant
round
que
##idence
saw
taken
##olution
able
mm
establ
bomb
##ature
##ming
##elling
ident
gar
##ids
impro
##cent
sat
becom
action
reb
los
human
points
pi
does
##enth
mean
##ecut
established
originally
invest
##yn
sn
thom
australian
subsequ
grow
##ped
##aval
others
insp
##tain
##enced
##ox
##irl
entire
appeared
david
located
director
##rict
features
voc
##oon
process
crew
stage
##ara
commission
##bur
##ground
business
##aves
den
afric
started
##ius
playing
pot
mother
##odes
expr
caused
##ray
decided
civil
critics
##ects
kingdom
##be
##ogn
feet
word
##ript
rather
rank
##ators
mater
fourth
##ament
ur
##ster
##epend
fell
econ
edu
##cil
econom
inform
independ
behind
##gg
formed
site
ital
discover
represent
##ani
bi
magaz
added
resear
fleet
important
31
188
soon
pred
##ateg
##ample
##emy
##reek
comment
##ivid
##aur
jud
mart
sam
know
##wood
guns
eastern
ru
##iers
##hic
damage
pen
educ
##ades
completed
population
tom
mult
almost
green
##den
##head
sex
neg
peak
##ata
robert
inj
##aces
##su
##omm
lang
close
##ination
interv
cup
##less
key
indian
commit
jour
##go
initially
awards
di
##erm
##itar
princ
loss
treat
2004
##ways
##ship
##arch
scre
lack
opened
case
creat
##ki
##eth
social
##oney
host
midd
##ino
michael
pract
proble
ul
##aps
girl
186
relationship
nar
individ
##ceed
sus
fund
##rick
sett
sour
##lin
leading
weeks
##ee
tradition
2015
bay
working
separ
radio
##ending
clos
prem
##cast
worked
france
diffic
difficult
recording
lou
secret
##chest
towards
exc
##ma
##ula
mac
appoint
##medi
##oring
##istic
union
mel
scene
council
laun
##umb
##imes
rain
republ
##asion
goal
wid
er
##ky
angel
pit
room
henry
##igned
quick
##anch
norm
rap
break
material
records
navy
accept
vot
##ena
training
##ica
colon
washing
least
scored
provided
reach
must
wanted
ey
rob
fig
##ze
500
troops
brought
average
brig
dut
recogn
##board
featured
cru
earth
##ams
##iding
##ological
##cher
feder
##osition
either
foc
tar
nomin
##off
quar
redu
187
proper
allowed
fa
fut
past
estim
##ential
wife
contract
unc
victory
respect
studio
##here
placed
generally
##aut
avail
washington
inn
rul
cho
ach
priv
##eter
phys
runs
example
dark
events
dro
magazine
battal
chief
##antic
republic
paul
board
##li
summer
##to
cred
grad
##duct
staff
2003
particip
##uel
joined
designed
squadron
##ville
surf
hours
wil
regular
esp
##gar
employ
quest
35
##ells
operation
shot
speed
nine
stru
##mp
##xic
bal
threat
opening
##iff
relig
media
believed
##ka
##ving
regard
##anks
come
der
##tim
cycl
##omp
mary
ox
flight
transport
replaced
mph
step
bir
##aper
prior
ide
scen
winds
infant
pay
stone
##erous
##imin
sequ
captain
mcc
police
involved
stop
european
##ification
##gn
langu
minutes
earlier
##west
##fall
finished
conduct
research
society
news
contrib
length
possible
saying
##ago
##men
immedi
pil
depr
commerc
change
association
trib
space
keep
middle
admin
remov
largest
2000
##for
highest
bad
particularly
boy
films
fly
scott
beginning
exist
lower
ny
##ha
##ecutive
available
##ishing
piec
roman
##ris
respons
uk
percent
virgin
forced
section
2001
assist
plat
flor
better
ver
##icated
##sel
atl
weak
deal
achie
disp
##hib
outside
##anned
##ems
taking
anti
lear
##reg
meas
novel
##mar
charles
committe
##lement
span
##of
heart
grant
##ography
thomas
turned
increased
ended
##itz
viol
##erson
reason
units
clear
feel
##ested
community
##bor
reviews
calif
acad
passed
praised
##oph
californ
hous
##heast
move
product
##wer
##key
emp
going
es
beat
##ios
2002
above
additional
future
##iation
##ude
##oke
appearance
##itor
ty
phot
thus
tex
guitar
bird
pan
canada
##aded
lik
enough
liter
infantry
##ership
ordered
lake
smith
plot
lat
pun
daugh
previously
castle
##gress
franc
##ests
##ush
##oul
##ocr
personal
signed
musical
minor
account
theat
doc
territ
##rison
richard
type
market
shar
alex
##agon
elements
instit
rights
##arily
dig
##pped
california
pac
positive
corn
ber
##ida
nec
##ections
prob
##berg
critical
our
dead
##ference
##tr
abs
##nal
parts
food
lord
profession
background
lines
give
travel
pow
##ening
debut
female
##rated
impr
reveal
spent
beg
##pper
poor
overall
term
##ased
told
money
mic
##ilities
scient
victor
ps
tax
directed
flood
45
##uation
committee
##back
##usion
deep
blue
##elled
interview
failed
##uter
domin
kil
##nes
required
roll
ren
groups
chap
##nel
concert
mach
germany
happ
##ises
broadcast
##ique
##bers
district
constit
env
anal
##ston
itself
##ume
health
india
peter
battalion
christian
evidence
sometimes
fore
frank
##isl
object
##ga
##my
60
##ibility
appl
prison
wal
bank
185
occup
reception
chic
election
investig
ha
commercial
asked
transfer
##gen
except
##ension
##ready
##aker
##stand
##ex
##erved
parl
lu
##ability
living
##edy
administ
##ays
sov
whose
##apt
doct
mexic
natural
##ream
study
complete
##airs
react
already
claimed
governor
##onna
approxim
ol
score
clim
##tt
##round
bey
square
soviet
##onse
frequ
introduced
##kn
minister
##igan
32
whom
##ii
amb
##onst
think
usually
burn
##bc
muse
woman
##wor
students
##enue
bul
education
quickly
idea
ben
limited
wild
bud
rh
##aint
guard
might
effects
construct
movement
concern
stars
syn
response
##atory
subject
issue
tun
commander
polic
centre
slow
rac
##ites
queen
##bour
##ump
plant
surface
certain
your
##ores
anc
lie
lib
lay
espec
department
got
fifth
arrived
hosp
sand
##che
britain
especially
face
decision
services
##oor
##ergy
operations
village
teams
##esh
voice
parliam
self
compl
structure
box
shows
museum
contr
gard
##anded
impact
industry
walk
larger
ultim
gro
writer
science
mas
lyric
fest
becoming
remaining
estimated
latter
episodes
remain
defeated
carried
##val
heav
parliament
access
##ba
multip
ran
network
draw
discuss
##aries
##iron
##ties
pressure
blood
flag
1999
##wh
surround
scenes
kh
##ully
36
cm
consider
brief
##ective
leaving
##ulf
cand
running
changes
sem
acqu
virginia
jew
##ift
susp
##ror
diss
naval
##porary
suggested
entered
meth
##orial
nearly
depression
fail
quarter
appointed
winning
##ania
influence
dom
date
approximately
subst
chall
twent
emb
size
bat
van
##ander
capital
leader
##inct
##ining
language
fant
regiment
##erve
shortly
empire
islands
establish
script
federal
favor
course
today
jackson
finally
princip
wide
##oms
cann
screen
##change
upper
tracks
mission
oly
louis
amount
destroyed
proposed
##pre
daughter
##anced
aw
current
75
purch
##ulated
olymp
##ecting
higher
wing
producer
##burg
manager
arrang
spanish
corps
lad
experience
nature
pict
distrib
gi
environ
fer
300
##iser
horse
##abor
provide
subsequently
canc
##oid
brigade
battles
spir
##idents
railway
professional
##selves
altern
compared
breed
democr
complex
iron
concept
intended
immediately
emerg
cele
married
cer
liber
##inese
##king
private
184
saf
fans
temper
journal
supported
agreed
mont
##ope
stay
entertain
mr
card
shoot
intens
80
archit
bord
##alled
compan
done
model
edward
imm
feature
jose
increasing
initial
awarded
weap
fiction
display
##tained
chicago
chinese
whether
helped
related
fair
##hem
legisl
planned
##ria
##down
books
##ication
officer
1998
ho
soldiers
##oles
create
bring
longer
artic
trade
penn
kar
here
gal
##atively
color
##aring
attract
cause
plans
captured
33
##thing
valley
##teen
yet
##gy
buildings
conserv
unit
block
forward
pu
changed
sev
##ector
conclud
withd
winter
##icted
martin
coach
##ban
##ching
associated
friends
##aph
mom
dance
something
kore
officers
instr
spring
pacific
remains
mostly
singles
billboard
johnson
##abit
themselves
standard
rat
##rupt
##ronic
##ken
countries
lyrics
exam
mixed
probably
##riage
hero
##itting
really
method
extended
ray
##mon
moving
numerous
ple
financ
##umn
draft
##ta
sir
##uit
oce
##ny
information
ast
tas
portray
contem
copies
always
nation
rid
37
##can
scot
location
##asy
visit
goals
admir
##isions
##rd
individual
birth
##rol
sales
##well
focus
1997
issued
counter
##olic
congress
confl
status
##ands
leave
energy
atlantic
##andon
includes
artist
cit
conference
jim
suffered
mess
singer
edition
hospital
traff
tal
via
male
hu
prec
florida
maxim
termin
problems
gall
albums
70
meeting
likely
##hood
##uk
bene
china
increase
##etic
carry
revolution
assemb
double
independent
##isc
removed
approach
00
morn
##bury
dog
celebr
bond
movie
##tic
carol
##hl
##fact
##bed
texas
inspired
##ili
lin
foreign
##atives
##ental
rang
##ously
master
terms
primary
creek
dv
majority
kind
compos
sar
offered
##jected
consist
vehic
qual
minute
##vin
ut
refl
##ograph
tons
ice
stad
ens
kr
inters
dail
##ette
drum
adop
attacks
##aj
##lands
od
fox
entertainment
makes
confir
takes
oil
composed
183
damaged
raised
combat
simp
canadian
ranked
environment
observ
africa
##ounds
wa
log
##aches
intell
cyclone
letter
daily
adult
##era
und
mun
appears
selected
fighting
bor
mountain
categ
revealed
era
##uth
train
discovered
ath
##ado
metal
active
determ
wrest
russian
ign
##chester
##ify
##ucle
34
morning
inside
conditions
architect
##leg
twenty
kent
tv
unable
##uries
launched
ven
##urs
dun
accomp
greater
38
deg
##light
##ails
##umed
respectively
angeles
wit
iv
incor
sched
1995
whole
numbers
##ription
issues
needed
sister
smaller
below
bed
gas
thir
lived
ali
touch
contains
##oud
yard
schol
attempted
slight
attacked
ca
traditional
yards
dar
shown
stra
newsp
##aught
occurred
##rect
culture
##ste
religious
##lor
##uments
iii
cart
pick
##zz
nick
##uals
cab
##oo
silver
##gs
##aging
ring
sports
bab
defeat
##ault
tourn
##ortun
##joy
actor
##ev
annual
experi
rein
constant
elected
festival
larg
2016
peace
##olk
1996
referred
fear
reform
##izing
##amb
francis
mind
bon
neigh
##urity
asp
ocean
sav
##vert
theme
##rial
19th
audience
os
schools
resulted
##com
psy
largely
express
ris
prince
assigned
magn
covered
##ari
##enant
fast
link
##osaur
90
italian
listed
variety
collection
indic
purp
##ogue
coup
##uated
pair
1994
competition
conflict
glob
viet
cath
ash
names
earned
stadium
controvers
##quar
recover
##ocks
expected
commented
cham
haw
imper
starting
##itude
dvd
rapid
attention
closed
##ya
performances
nucle
##tered
question
prevent
airport
zeal
##use
michigan
giving
extre
spl
legal
refused
mir
economic
figh
continu
crow
ros
cust
greatest
waters
##aped
contact
enjoy
##asc
electric
##rian
tower
wales
ability
serious
direction
notes
disapp
stories
##ipped
native
hund
promin
declared
rate
##ker
meant
forest
matches
hus
49
vocals
##bridge
poll
things
stan
##bre
180
hundred
##isher
mention
abandon
##ples
##ims
levels
##ij
progress
words
athlet
swe
##iest
text
nearby
chann
##yr
die
fill
marriage
nin
matt
produce
##yan
##gl
defense
##anes
necess
constitution
cry
practice
doctor
mech
constructed
41
kenn
hyd
advance
emper
occasion
source
wear
##hold
##ols
##ona
##odies
lot
##ging
##win
fantasy
candid
1992
mu
kilomet
##road
weather
vocal
##cy
separate
##overs
##wide
highly
labor
oh
means
eth
##kin
1st
farm
writers
overs
##ional
medical
##uct
mexico
##itation
spot
zealand
executive
exhib
##ellow
directly
##ishop
positions
ultimately
northwest
##acher
ess
sle
continue
les
400
presented
reduced
effort
african
##rie
cub
flow
##mas
admiral
da
chem
bound
##writ
dyn
brad
##rey
efforts
55
dism
##ibly
defend
strateg
animals
##ingu
formation
mechan
##band
lieut
houses
##oper
tried
chris
memorial
##rical
attended
batter
studies
ram
accepted
stating
theatre
financial
crick
perm
talk
rule
libr
lif
madonna
symb
##vement
##rier
bob
seem
specific
1993
20th
##gu
1991
##une
thick
prep
recomm
advent
inch
incorpor
favour
##isation
prepar
ending
begins
mol
##track
saint
cerem
179
jer
bell
organization
honor
pilot
traffic
sides
enemy
cases
scotland
true
##ca
multiple
jones
mos
39
attend
luc
mob
##illery
drive
##ersey
chair
pack
rough
flying
##house
##ners
responsible
eye
##ung
##iance
managed
forms
wound
meaning
42
arab
uses
cold
resulting
greek
##uff
dan
tournament
ll
kept
##olf
48
##utions
lieutenant
soundtrack
academy
dropped
showed
diam
##ita
repe
authority
policy
##ero
182
bost
##like
exped
quality
path
prime
strugg
hors
row
emperor
wick
artillery
apart
combined
spirit
ded
dru
boat
##ceeded
acting
rose
founded
secretary
##cing
trial
##ada
continues
administration
marked
edge
##nam
passeng
inches
##cend
property
##ires
print
williams
systems
encoun
subsequent
propos
181
artists
contemporary
attempts
search
territory
paris
##essions
##iated
##gypt
northeast
rear
appar
steam
marsh
companies
##osh
suppl
##thel
planet
potential
perf
presence
coal
ni
metres
viewers
##ees
##icip
allowing
convention
ban
thous
egypt
studios
sixth
##ulations
rod
##essor
recent
scale
##ils
1942
officials
conducted
target
behav
##thur
job
respond
fat
distinct
seg
digital
filming
##inem
machine
headquar
contrast
##rain
##oe
transferred
collabor
colour
##standing
##ket
latin
lee
parents
yellow
scoring
opportun
bott
maximum
65
47
senior
sac
corpor
figure
coming
ec
demonst
stephen
##ications
##enge
allied
joseph
featuring
beaut
torped
##aga
therefore
georg
primarily
relatively
elev
oxford
owned
opt
theory
peaked
piece
student
becomes
diseas
temple
titled
torpedo
mort
actually
hers
portion
distance
battleship
citiz
##sen
concluded
ton
stock
boston
##orter
##unt
manchester
invasion
mut
harrison
strength
situation
bass
write
bit
premi
jeff
transl
psych
46
52
broke
resist
function
observed
selling
physical
##ding
security
alongside
swed
lov
rot
plays
doll
personnel
results
concent
share
##istics
sources
divided
paid
seconds
calling
mis
rating
cities
1944
##ini
slightly
43
border
inh
returning
powerful
columb
##stein
jersey
management
imperial
ott
tree
64
historian
##rawn
arts
historical
shel
44
sust
kg
conver
minim
mile
onto
vess
actions
else
##aming
platform
adj
##za
##anna
nothing
##iced
birds
beach
influenced
ow
freed
activity
carl
innings
trust
fan
suc
poet
##astic
residents
ire
comedy
bbc
tend
designated
promoted
nominated
1990
passing
resc
cultural
et
cricket
crown
appeal
completely
croat
##ips
guest
problem
##de
##don
avenue
lane
weight
height
mainly
sexual
trail
##mond
struck
##omy
orchest
##istry
charts
doub
arms
##iber
sought
replac
encour
charge
hands
sense
1945
seasons
content
webs
equip
1941
subm
ancient
150
paper
vari
feed
pul
fish
##rate
image
bowl
reaching
document
sr
##while
spect
##ills
weapons
cell
italy
##iano
##olved
dang
medal
americans
channel
widely
##ider
instrument
shell
##ques
baseball
appearances
##ota
habit
harv
wars
intellig
alone
emot
##oman
confirmed
##rative
##iles
hotel
gained
##inn
##ylv
##pass
beyond
##cle
##ura
2nd
compar
##adel
ireland
choice
liver
brothers
join
murder
reign
older
element
sport
steel
deliv
proved
analys
versions
library
##uled
headquarters
##zy
manu
floor
il
dw
explained
##oration
defence
says
offer
ahead
##erse
expans
negot
##known
##mans
bol
serve
rainfall
1989
sens
##ns
alt
51
sant
causing
comes
speech
send
1943
victoria
suit
charl
fal
compr
require
catholic
##ih
expressed
##ew
equipment
##town
workers
article
roads
reports
growth
##ety
pap
entr
gross
prominent
offensive
branch
##yer
drama
surpr
advanced
##ano
##ancy
rog
capture
identified
officially
setting
husband
soft
snow
interact
worldwide
armed
dur
pattern
dani
manufact
category
jul
##icient
##ighth
reserve
tells
joint
heavily
##ule
senate
##bon
tay
justice
matter
##mark
surre
computer
represented
escape
activities
##iring
spread
extra
pieces
places
meanwhile
adapt
treatment
leaves
clar
actress
trees
leaders
figures
avoid
unf
fired
orb
expedition
soul
why
injury
believe
##ube
toward
duke
1940
mit
agreement
1980s
albert
supply
##ds
##ece
dutch
lives
##ylvania
##where
##abeth
unknown
illust
anth
doing
casual
data
unlike
barb
imag
bart
eliz
editor
laid
##har
strike
golden
debuted
##rel
consisted
dream
din
##acity
exec
walls
##ads
##emic
##egr
mig
aired
argued
##pool
opin
##ushed
stations
##dy
watch
##osen
typically
opposition
motor
##ears
severe
moment
ric
reference
jon
ta
homer
formula
mounted
spin
twice
1970s
claims
affected
nations
600
polish
description
actors
animal
##bn
##inson
##eman
faced
industrial
powers
##hew
sher
store
supre
emph
notable
challeng
maintained
accident
couple
technology
1960s
trying
protection
value
##hire
knight
convers
fellow
visited
##ifying
orders
horses
##worth
pros
ba
criticized
survey
assault
tech
landing
delay
fuel
som
carolina
broken
holly
hair
sail
fully
resident
mul
53
growing
##ala
label
##icks
chosen
##ockey
motion
##ote
abb
twel
cool
hat
##intend
institute
1987
solo
##lines
cooper
scottish
twelve
##gian
1988
criticism
youth
producers
frequently
gil
##stone
##ete
85
##lam
seventh
bac
philos
summ
condition
wounded
md
looking
penns
accompan
sky
ce
vice
##more
##uce
oppos
##ici
newspaper
surrounding
lands
billion
urban
##rael
independence
reinfor
degree
chor
lew
operated
composition
register
##ordin
assembly
nuclear
champion
republican
comic
##izes
cinem
##agn
##la
##bi
serving
moon
grew
##ayer
dry
creation
##ola
southeast
bc
simply
##rid
rival
incident
follows
expansion
vote
losing
famous
tel
tam
killing
##ux
contained
risk
##urb
newly
agric
gh
##wise
christmas
herself
passes
oppon
honour
andrew
##yle
weekly
54
experiment
individuals
caval
ends
##ivity
normal
jac
##wall
split
heard
perfect
emphas
##ocked
attrib
homes
aer
consecutive
##ucky
wilson
##ledge
##isters
95
nav
##ends
taylor
97
chronic
crossing
56
measure
cannot
##jo
thing
website
narrow
evac
supporting
##ram
##pton
parall
1986
consequ
chose
##fully
elizabeth
opposed
note
perman
joe
##ographer
sequence
alexander
historic
volume
participated
agricult
themes
famil
von
##water
rise
wave
leadership
rare
adopted
##resp
colonel
eyes
opera
##gend
eld
fresh
capacity
skin
abandoned
disease
dub
advant
##ancing
arc
standing
##rane
##iled
democratic
filmed
tall
nic
defin
trip
plants
egg
max
visual
basis
straight
##anda
negative
sund
pennsylvania
budget
##born
deploy
177
##greg
pier
prompt
rand
failure
dim
creating
benef
gameplay
mike
regarded
possibly
tank
column
##kins
harry
treaty
irish
##isers
bodies
palace
seat
##under
##ko
try
distingu
pin
canal
girls
foundation
kid
lady
##amm
interchange
sin
spain
domest
horn
excl
legend
##uses
lap
merch
worth
gri
kick
##illy
ideas
zone
eag
retired
advert
dismiss
ped
76
surrender
lind
mist
tell
##engt
extensive
ridge
178
hyp
lic
1990s
##ias
##azz
aid
younger
nob
hockey
roles
scholars
explos
garden
basket
dial
atm
railroad
analysis
classic
bishop
hope
franch
1939
##uls
##set
sud
drew
repeated
improved
merc
achieved
economy
israel
aim
effective
##ja
##aly
briefly
glass
hay
banks
lem
61
core
piano
gate
chamber
wed
unsu
##orters
currently
southwest
##ato
household
necessary
##iana
ga
calc
vehicles
arthur
regional
granted
66
defensive
gather
purpose
##otyp
1985
rejected
sche
speak
citizens
fame
turns
caught
##arked
sell
organized
1968
braz
##oma
recently
types
genus
kilometres
marine
province
atmosp
receive
expanded
secondary
##lusion
authorities
flooding
commissioned
fro
online
didn
rhy
1970
drop
##lers
##het
ori
roof
##iments
cavalry
ohio
##oln
kir
##tv
transform
families
successfully
performing
letters
ka
determined
freedom
literature
describes
fought
vac
ble
##cel
agent
assistant
tail
##utation
##ym
dram
safety
unus
picture
##ases
##iday
##adelph
1984
##uate
##eg
upgr
800
goes
custom
singing
prefer
freeway
##umber
##illa
##iate
acquired
journey
ron
philadelph
titles
suggests
##stream
commonly
planning
gives
57
##rich
centuries
deck
revol
supreme
##alty
##ading
##oted
spr
##ifications
mentioned
georgia
distribution
cambridge
controlled
scheduled
az
contain
web
withdraw
alternative
##pi
120
myth
dip
protect
philadelphia
depict
##och
ell
sets
shooting
contest
trains
cook
##attle
##haps
kel
chance
principal
unique
reaction
62
decre
virt
perhaps
regarding
graph
sie
fix
wrestling
1967
##outs
finds
save
witness
russia
tag
extrem
integr
request
submar
estate
##umes
crime
rum
rules
facilities
1980
gill
demand
reading
specim
arrival
##aven
recru
gain
scientific
##amin
korean
session
ss
ok
containing
##shire
exchange
publication
linc
accompanied
rub
rated
teach
deter
lis
tact
nintend
mouth
locations
belong
fighter
price
finish
touchdown
jenn
thor
ceremony
liverpool
##inger
selection
brid
boats
##eck
hits
quite
##agan
brook
evening
nintendo
moder
asia
entirely
cd
brand
mand
simple
tab
##hol
##aver
##unk
columbia
58
##etts
existing
cloud
om
firm
dedicated
crowd
##once
intensity
extr
singap
resistance
contributed
fash
prote
legacy
jewish
hydro
remix
provides
74
purchased
##station
ax
casualties
kings
adap
grey
windows
1983
brazil
page
resemb
campus
throw
##eless
##itan
battery
##room
advantage
whit
##inity
carey
sites
##ulate
occupied
72
boys
francisco
1969
eighth
singapore
bes
##respond
correspond
basketball
gib
table
holding
1964
##oses
lincoln
##iences
towns
##ington
gulf
heads
bron
promotion
structures
trou
nap
bright
gay
elimin
miller
protected
drawn
regions
##hens
resour
coastal
1914
conqu
hms
##kes
receiving
disney
closely
tenn
playstation
cars
##fort
1918
code
##laim
laws
judge
##onic
fit
##itled
opportunity
turning
##ompl
##rons
generation
1971
59
##rig
1982
lewis
##iny
alle
##iro
calls
##usc
consists
roughly
##fri
1972
1979
1966
steve
reserv
symbol
defined
corner
acts
grade
anderson
byz
brian
jr
##burgh
##han
sha
strengt
##wick
experienced
anything
olympic
losses
rolling
fashion
task
heat
##garian
##eb
99
##ware
protest
hem
##ocated
byzant
##box
patrol
flu
1965
bands
focused
retire
##awa
religion
daniel
viewed
engaged
hind
##ua
politics
intelligence
providing
armour
relief
developing
hip
1975
3rd
map
nhl
##ella
##ping
phase
oak
uncle
##mann
rapidly
semi
investigation
shared
bottom
wond
shall
hired
males
tow
walter
enl
gram
instruct
hollywood
temperature
highlight
credits
germans
solid
rene
mountains
introduction
everything
##pa
folk
faith
launch
missing
flat
##oster
guy
recognized
junior
equal
63
exact
18th
1974
hart
painting
##ifically
cou
rome
davis
vent
##rant
belief
gam
##opher
##eper
77
1973
hell
##bound
73
isol
lb
ans
getting
gord
##heim
falls
##iot
substant
shape
typh
prepared
descend
jean
tick
franchise
##ilton
knew
naz
serb
opinion
domestic
cens
1976
sab
thin
significantly
global
##mouth
projects
intersection
approved
sort
auth
literary
lit
beyonce
adding
##ek
##eed
philipp
penins
##eals
confeder
##een
##iel
han
##wart
knowledge
pret
reasons
wheel
vic
hung
wings
##ender
##erted
cris
##ographic
unsuccess
raid
##ishes
##ologist
challenge
##iat
playoff
##apped
ward
poem
##iful
250
##ira
##sey
syd
autom
archae
musl
67
bull
shaped
unl
views
rar
stages
settlement
cabin
##achus
escort
##lav
evolution
##ador
operating
bern
lun
exerc
storyline
parallel
cra
sed
##asty
ari
shut
##unte
labour
nas
##break
internal
renamed
##istan
scul
reputation
rebu
thirty
watched
neverthel
employed
baby
nevertheless
proceed
volunte
allies
popularity
fine
##zen
limit
injured
##eral
professor
humans
paint
guide
females
##tar
jam
ross
neut
blues
cape
increasingly
cited
kentucky
82
96
headed
torn
68
neither
1946
consc
models
wealth
declined
1981
hills
finding
connected
sculpt
##antly
collected
violence
las
details
##aka
##hi
##mes
existence
converted
grav
depth
sustained
enjoyed
1950s
##onym
##inum
learned
controversy
norway
entry
uns
consum
volcan
connect
ken
1917
impl
sad
##ients
massachus
##iger
olympics
87
outer
championships
cad
##eds
applied
##istol
synt
massachusetts
crimin
camera
##iform
allows
lev
premier
##ceived
##rif
nest
gang
teacher
swim
ways
cells
##ava
clark
approached
entrance
160
arsen
##osis
vel
interp
decade
carrying
easily
designs
##ropri
tests
loy
responded
gray
confron
foss
extension
downlo
##atures
##roll
1948
discovery
technical
hang
tu
##ali
##onia
bush
pitch
chairman
buried
duty
700
hug
##rec
##ima
convoy
1960
gradually
##ati
mayor
succeeded
##aine
sections
69
specifically
##psons
breeding
hull
acres
ts
showing
programs
simpsons
raw
micro
astron
##ignment
municip
sons
raf
door
jay
scar
prize
##esc
##itors
install
91
stret
mode
sax
address
items
prisoners
exclus
plac
1978
purs
pear
arranged
shop
78
none
credited
gone
util
genre
triple
##ogen
maria
##ctions
similarly
vietnam
statement
teen
weakened
seems
winner
producing
additionally
improve
earliest
parties
cryst
landfall
leon
bath
##inal
bear
ot
##come
rural
warning
routes
presidential
1915
threatened
divisions
jes
candidate
engineer
fields
##put
adam
retained
sounds
ottoman
94
inner
##entions
combination
sharp
sydney
##inary
lasted
products
spok
1977
poland
hear
1950
brain
moore
kim
mtv
##rations
jur
maryland
98
lam
ones
##issance
##va
shr
##inking
replace
kur
supplies
81
##taining
dress
lock
chemical
adapted
basic
interior
evil
animated
frag
downtown
repair
##arm
afterwards
##imet
engines
grounds
delivered
peninsula
inspir
##itage
tra
speaking
1963
agency
cul
dele
##rest
filled
maintain
message
surviv
rhodes
crash
##str
magic
equival
stopped
entitled
permanent
affairs
architecture
cow
##rence
##itch
1916
indicated
supporters
clean
climate
extremely
wides
##inton
##rets
##izations
engineering
71
deaths
##aud
##leton
greg
causes
##nic
##wa
diamond
##ushing
fruit
mine
alien
buff
drug
89
secure
importance
proposal
restaur
poly
##apes
returns
##bl
ak
mulder
gordon
mars
eric
##emies
deleg
bos
spons
acid
ira
ratings
##othes
typhoon
##math
##ela
knots
streets
composer
##ropol
implement
1919
mans
1962
ches
pig
##book
tanks
##iversary
survived
classical
##aling
aftermath
##hr
kat
na
describing
88
compon
references
rab
writes
##bourne
convin
giant
classification
bought
alf
concerns
images
songwrit
holy
##time
##inois
flo
1938
ruled
someone
medie
typical
sale
##eton
entering
rivers
##omic
armor
environmental
remember
studied
arrested
decline
portrayed
jane
##entially
sor
preced
cruiser
vul
voted
retreat
universe
reduce
##met
recalled
mah
eleven
nel
ago
intention
bang
purchase
corporation
siege
79
simon
##ansas
actual
capable
##adow
feeling
medieval
correct
subs
academic
##know
alliance
owner
##gers
##aki
objects
nomination
colonial
liberal
pav
recognition
sessions
##po
driving
chapter
kong
equipped
thousands
identity
offers
hunting
funds
historians
camer
##otic
##una
175
passage
princess
noting
concerned
connection
##oir
anniversary
finals
subt
1956
##eline
meters
decor
1930s
decades
debate
crossed
consisting
tony
##icide
undert
recommended
admitted
##cer
pip
alan
programme
thunder
##encies
interested
dipl
##right
invited
##ropical
92
arsenal
sight
wel
installed
dougl
##eller
adams
breaking
considerable
quant
pound
##iques
starts
universal
jord
##aken
##ipping
##ingly
warm
monument
##oked
establishment
##eston
courts
1936
dates
colony
eat
sequel
##aked
hamilton
93
diet
veter
enemies
##wich
manner
styles
##acks
charged
improv
130
duties
remainder
##ranean
84
##pread
##heas
##cement
utc
truth
alleg
jump
widespread
shield
negoti
##pe
ready
##chers
communist
1920
promote
pad
fred
pictures
cos
conservative
marc
salt
##osaurus
bure
##ilation
1961
nether
##zer
indones
bid
continuing
thro
slowly
shore
##aham
argent
departure
aspects
behavior
occasionally
##mus
classes
transition
nba
credit
wwe
myst
electronic
animation
##iling
1953
chapel
ko
beautiful
resources
romantic
plate
hitler
destruction
happy
orchestra
kennedy
rhyth
hou
wearing
posted
turk
emergency
##akers
acclaim
sunday
howard
transportation
assistance
disappoint
scout
treas
pure
##oli
sweet
senator
superior
##atch
ride
indiana
carbon
formal
vessels
##ager
##uous
occurs
##athan
##ashed
accur
##hetic
1930
certified
norwe
pleas
dated
income
memory
populations
scully
attached
17th
1947
medic
##icit
mathem
ancest
properties
##regon
demol
chorus
cant
86
passengers
##ensions
##ovic
1958
dean
conservation
ryan
shots
equivalent
desert
portug
amend
oldest
involving
terminus
##ione
rig
circum
##oard
heritage
##aware
acknow
tunnel
##ophy
##after
oregon
1957
adventure
expand
reun
dor
barr
settled
catch
##rus
##uing
##veland
obtained
wins
sleep
pink
1937
##icate
bombard
junction
fisher
rescue
dynasty
accused
authors
finishing
charges
worst
derived
ninth
##agues
collect
incorporated
##anian
##ivals
mediter
reviewers
favorite
inher
douglas
circuit
##orney
lenn
replacement
bou
belt
crisis
cleveland
##heastern
illinois
navig
committed
hosted
missions
kit
ker
prey
sword
moves
##etime
segment
4th
##bar
rebell
bringing
rug
##ables
vehicle
grass
shear
supposed
audio
110
andy
pope
assumed
denied
1959
interpret
stanley
##western
circulation
rooms
##oes
##ommod
clubs
recre
representatives
unusual
premiere
##wan
dens
theater
mediterranean
fictional
roger
musicians
transm
commanded
##uge
deem
kevin
lanc
strongly
anton
seeing
beatles
##agonist
mes
##ruption
outstanding
begun
intercept
deput
completion
bruce
surviving
##ooth
gust
characteristics
##suit
meg
consult
1955
solar
neighbor
rif
bristol
1954
materials
cathed
reality
mexican
##lee
isbn
norwegian
alleged
persu
attorney
monarch
costs
desire
exception
wickets
tied
possibility
consp
methods
sailed
responsibility
##borne
craft
fu
haz
vision
philip
reconst
##itable
praise
everyone
passenger
ku
##works
driven
ford
##ien
buy
opposite
##friend
carrier
differences
cem
##state
representative
missed
atmosphere
pel
scheme
habitat
lisa
wet
korea
##ucks
##weight
thereafter
dragon
voy
vary
recovered
otherwise
massive
##burn
##ji
orange
##ules
##char
obl
##erged
gor
throne
politic
##onto
funding
wrong
nich
platinum
ceas
##ami
strategy
sid
attributed
83
##da
shif
warri
phill
serves
##anth
stayed
##iant
emerged
retirement
twin
1952
effectively
communities
morris
predec
classified
##alf
punk
outbreak
township
ministry
cancer
##organ
weapon
adults
aboard
##eted
robinson
##aza
accommod
morgan
##opes
mobile
##elsh
regularly
crosses
norman
dissip
elections
documentary
wonder
nelson
accounts
partn
mck
##bell
##arian
hawai
##riers
underground
1933
circle
falling
strengthen
expect
satis
lies
stead
enterpr
attracted
##enses
176
bag
illeg
inspiration
crop
stood
##rett
submarine
forming
trials
##isms
dal
mint
##ersed
##oslav
factor
##aug
races
racing
criminal
angle
commem
lith
parks
movements
renew
##pective
advis
##rupted
vert
lyn
injuries
votes
battleships
pull
lut
batting
immig
##pping
needs
raise
1910
1935
separated
sweden
ech
##oking
patrick
scr
wy
relative
symph
##ugh
allen
garrison
1949
photograph
chain
sudden
nom
shark
cu
##uting
publisher
1951
earn
welsh
##lets
##ito
##idden
temporary
queens
dod
lor
remn
flank
difficulty
distinguished
##eness
partner
plane
seemed
soph
ports
uss
requested
delayed
##teenth
toronto
facility
rud
ah
enth
restored
matthew
surrounded
elder
eggs
gets
standards
13th
pir
##rell
byzantine
metropol
harm
hoped
##oz
arn
##imate
##war
claiming
elsewhere
##ran
bridges
netherlands
toll
amaz
childhood
##ogy
convection
penalty
tub
16th
hut
shir
##yard
reviewer
murd
##abil
divers
frame
##oyd
temperatures
##bing
internet
meets
ages
stands
kiss
convinced
examples
jordan
iraq
greatly
cathedral
mete
jews
moderate
jacob
publishing
jazz
wolf
##real
##rog
dangerous
involvement
##urr
##abled
cycle
painted
appropri
##omot
easy
##ses
rick
accompl
wooden
alco
1900
adaptation
wright
satell
hundreds
spoke
tries
drag
molec
immediate
learn
fled
##iley
recordings
scrap
insur
7th
##lying
anyone
au
##iva
excell
pitt
##rad
parish
assass
techniques
##erto
check
strip
salv
bureau
anne
thomp
##dh
coin
appearing
learning
synthes
encouraged
somewh
somewhat
leaf
veget
##ras
armen
suffering
displ
prohib
measures
##lan
##gets
hub
croatian
poetry
graphics
safe
##agement
patri
russell
kelly
chur
5th
legislation
##ez
bears
determine
premiered
horror
hud
islam
journalist
dismissed
usa
thompson
dating
##cop
##going
06
flash
interests
ensure
pak
hend
facing
whereas
attempting
margin
buck
nickn
absor
upd
fighters
##reck
nfl
fitted
trophy
carter
depend
holds
##bro
##agre
commonwe
thousand
starred
theor
puerto
enfor
bats
bypass
attacking
##body
depos
formerly
extreme
6th
gent
visible
commonwealth
questions
closer
conclusion
biggest
option
spears
##alo
##agu
##apping
##itzer
absence
##rete
##ighter
hungarian
productions
##arn
influences
modified
neck
reprodu
deemed
cloth
instruments
lion
1913
diplom
apparently
parker
##night
bronze
controversial
batman
landed
landsc
laboratory
stor
scand
novels
harris
##ester
narrative
##elsen
murray
distributed
longest
1927
territories
leads
1926
gallery
locomot
operate
understand
restoration
trained
alph
files
900
12th
victims
rhythm
arrangement
discip
hin
creative
acknowled
1934
settle
1921
sees
joy
visitors
unp
uniform
mainstream
unsuccessful
mamm
weekend
substit
08
releases
refuge
tone
##chang
representing
exit
dynam
kw
sang
enh
believes
dna
##ila
##aya
excess
depicted
influential
resolution
finn
owners
berlin
##ivan
coins
liqu
abbey
basin
##ares
dominated
yan
harbor
looked
dre
houston
wol
##uv
##eler
##apers
raaf
yug
secured
##aws
churches
videos
santa
##owa
##ixon
wag
freder
notably
##roit
informed
comics
1912
casting
watching
legs
##aska
lod
##illing
driver
giants
meteor
bh
indians
offices
##asions
cemet
cemetery
cov
##ture
apparent
swedish
sull
deployed
##dd
imposs
languages
guardian
simpson
neighbour
##atically
terror
ye
relationships
behavi
aftern
##ultane
1932
dick
simultane
##vis
housing
##asing
##illed
##vens
##apse
deliver
dies
##ois
hearing
testing
device
09
##acent
jesus
opponents
cabinet
skills
diagn
tie
pregn
achieve
pale
##mun
khan
abd
warner
operational
cock
detail
drums
generated
##ructure
impressed
intense
##coming
cod
fab
jason
liz
factors
reportedly
bun
mainten
dialogue
surg
##osure
agents
happened
bapt
emotional
commemor
maintenance
##igg
nbc
##olph
##ternal
window
download
##fare
render
##iously
yugoslav
experiences
disappear
successor
anthony
agricultural
firing
footage
employees
raj
mud
##arts
cob
satur
##igen
somers
hans
dj
##aled
trek
clay
gaga
rising
##ache
##otype
detroit
##tw
croatia
fishing
ay
teeth
defended
laur
negotiations
zero
lowest
scientists
um
lose
gilbert
sure
revolutionary
1929
stem
kal
##icial
belg
executed
ark
cher
1911
fried
medium
discussed
personality
feud
140
normally
treated
sic
seas
lob
format
##aints
atlant
enters
portra
tribute
asian
interstate
afternoon
tenth
sympt
##anny
stewart
radar
1931
resign
drawing
1922
carib
residential
##achment
melbourne
##ontin
storms
clinton
arrest
flew
resigned
accompany
difference
vessel
advoc
detailed
ethnic
inhabit
breat
boil
##iliar
tornado
goods
origins
05
aged
evans
formally
pointed
innov
nielsen
cz
partnership
technique
militia
reveals
prevented
synd
preferred
##oen
loop
xbox
##sa
##inces
3d
pushed
stable
prosp
glac
tempor
forb
directors
manh
metro
keeping
huge
erect
arriving
apprec
fung
##ertain
exposed
organizations
isolated
rit
institution
neighborhood
sisters
##orous
##rees
substantial
##sk
disturb
forty
partly
handed
sevent
moments
forec
muslim
##asts
marshall
fel
##arf
samuel
linked
##using
founder
federation
mall
phen
tan
catal
turkish
sarah
##oral
imprison
analy
benn
mack
departed
##mad
##bit
austria
##rose
herald
continental
designer
factory
##iner
enthus
##vere
colorado
insc
lennon
existed
fifteen
frequent
pione
grace
avo
dramatic
##phy
greece
impossible
##ologists
periods
ranking
instrumental
proced
recip
extent
symp
occupation
wedding
##20
baltim
##bean
participate
concerts
170
moral
instance
baltimore
load
shock
armament
aqu
seeking
hunt
initi
mail
##usted
cruisers
helic
scholar
alter
##inder
anticip
malays
deputy
##aria
teamm
specimens
##spec
apple
taught
##ressed
turb
oxy
sullivan
##otes
finale
verse
ghost
seek
##olis
nag
##oust
15th
rarely
##rating
##olas
ern
gates
ml
aware
smooth
amendment
newspapers
##music
friendly
creator
dave
py
spending
dir
diameter
##osing
rav
upgraded
##rum
alab
absol
metropolitan
doesn
withdrew
andre
relie
precip
arena
##lie
##esis
chase
mario
assess
divor
1928
poison
listen
frederick
timber
exhibition
mathemat
covers
##idae
picked
encountered
procl
##phone
##iami
##umin
lect
permission
chanc
boss
pounds
joining
affair
##eu
refere
10th
swift
##col
gab
collaps
plus
difficulties
policies
rates
changing
schedule
skull
##obi
somerset
pc
##boy
legislature
1925
jess
inaug
mississ
multi
cous
##roke
suicide
partially
inqu
##ora
##sea
##opter
anch
restrict
turrets
napole
merchant
sank
anna
trend
advice
##anium
anglo
bombers
##borough
athletic
miami
seed
holl
##enh
loan
physic
pilots
cha
aggress
##aire
unn
disaster
restric
adjacent
roc
traveled
refers
gap
sector
comments
seattle
margar
pref
1924
##mi
rebellion
agree
mines
kl
explo
waves
plain
param
1920s
philosophy
07
9th
seats
gardens
signs
danc
proport
harbour
infr
cot
jar
marry
##die
##amese
pitched
minimum
##eing
shakes
criticised
iowa
coordin
meat
municipal
soldier
bases
alabama
soil
australians
destroyers
##rot
##chell
prompted
compete
struggle
eagle
##ican
##imb
remove
overl
surprise
bom
indicate
carp
##attan
whil
km2
collapse
communication
bros
##inction
manusc
potter
neutral
caribbean
##uster
medicine
branc
##power
lawrence
spiritual
charlie
manuscript
forcing
indeed
halo
string
designation
grown
minnes
satellite
armored
1923
enterprise
blow
14th
powered
walker
electron
##attered
yor
##rom
copy
teaching
paintings
whilst
stream
sufficient
collaboration
##isd
restaurant
citing
##eland
recon
survivors
protagonist
values
yanke
fifty
##ascar
ian
##udes
wreck
myster
marketing
possession
kon
nam
covering
appointment
uncertain
tip
benefit
ry
##nings
describe
provinc
approval
rounds
multipl
ecc
capit
encounter
nazi
nut
candidates
travelled
depending
##pan
pretty
##gas
charter
understanding
fortress
poems
balance
reconna
dispute
hungary
brill
pant
femin
##usal
orbit
oxygen
01
pine
##rates
victories
benj
cyl
dollars
controll
listing
situated
recur
bowling
displayed
battalions
brun
villages
articles
minimal
hamp
christopher
##encing
survive
violent
belgium
rugby
legislative
reconnaissance
earthqu
alive
serial
dock
##itter
sib
assisted
closing
telling
wake
degrees
playoffs
gear
jok
publications
diego
cargo
priest
forests
prol
software
dancing
interpre
ski
amongst
helping
funeral
symptoms
shakesp
marks
colonies
##car
clock
eliminated
guil
concrete
sugar
tomb
benjamin
nad
acted
shakespear
bot
asks
hipp
riders
##avery
monster
michel
alfred
behaviour
simpl
administrative
purposes
##ecraft
drivers
##velt
1908
hong
##imeter
pron
circumst
repairs
1905
##atus
compilation
occasions
pic
fatal
mississipp
1909
mason
##jan
blind
inland
quiet
pars
pool
roose
statue
alcohol
##iller
kurt
minnesota
03
##iac
##elle
vietn
##chen
tang
conte
crus
vietnamese
lists
phr
kin
11th
attendance
horiz
cannon
preserved
##ouri
preparation
105
publicly
grammy
console
anime
organisation
21st
04
##sky
businesses
mental
##inals
##lev
125
stevens
manhattan
sick
##rm
abilities
voiced
concurr
communications
##esses
highways
wider
defeating
illness
trouble
dc
##gate
##ographical
franklin
##agen
##uman
export
argument
elabor
touring
sas
signal
##lus
ammun
roosevelt
##ounced
resumed
jet
##sex
residence
kansas
##orph
1907
competed
believing
intensified
##ivated
vs
surge
##atherine
164
archb
ammunition
icon
alignment
crews
coff
excav
thinking
##lyn
dollar
flights
counties
portland
airborne
backing
fallen
montreal
opponent
strategic
documents
spar
##uda
##ishment
signing
subjects
##fire
##acle
deliber
nash
amate
##kel
usd
assists
walking
friendship
dri
##ulating
willing
audiences
ceremon
proc
alternate
usual
destro
telegr
biographer
cinema
philippines
suitable
genetic
si
165
interesting
doubt
atomic
abol
engineers
rush
forg
guer
select
liv
mississippi
##sters
##emen
curt
feelings
radical
##point
woods
saturday
chand
noble
loyal
provincial
guards
tribes
underw
percentage
submitted
completing
waiting
vinc
nit
ownership
explosion
functions
adopt
alexand
ramp
charity
behalf
pearl
##itated
goth
##donald
asking
autobi
##iveness
hook
por
tast
scor
disord
artistic
polar
tenness
retail
campbell
shakespeare
evolved
##ods
##odore
stick
chest
##ifer
hindu
##mo
##dale
chronicle
frust
targets
false
revenue
obv
steven
##rator
quad
frig
registered
ted
remark
wire
butter
retrie
birthday
##fe
nep
##ova
lakes
rice
suspended
##onymous
cartoon
cass
astronom
hole
##ader
favorable
mik
warren
josh
movies
reluct
lucas
civilian
beauty
poorly
borough
provision
heading
guilty
ideal
egyptian
mush
carn
replacing
hob
forth
brick
comfort
liked
pace
##oto
##gression
pup
stores
margaret
##din
cliff
armies
shells
aimed
offering
solution
measured
stu
missouri
tennessee
##elli
##inea
boundary
engagement
clearly
sig
acceler
underst
louisiana
rocks
##enz
1906
360
expensive
temporarily
palest
aviation
recognised
simultaneously
shipping
1904
##ski
##lah
execut
filed
vulner
##lec
sequences
##uable
gran
osc
##hu
##bu
##ci
##athy
remnants
ze
feather
storage
billy
gene
chel
represents
taxon
galax
agriculture
##yon
blocks
craw
monaster
joh
context
readers
essential
conspir
##wned
wore
wants
euro
saved
harvey
coverage
recommend
err
mitchell
kirk
talent
##rix
comparison
coc
mining
sket
patterns
clin
coinc
cancelled
phoen
##oming
propag
czech
pok
##ante
karl
tight
##father
aside
surgery
stern
institutions
perspective
suggesting
overseas
phone
subspec
faster
##ribed
thirteen
spotted
##essive
familiar
maneu
matters
reflected
wasn
practices
contributions
##bra
graham
rebuilt
notice
furn
gw
protein
empt
##issions
dogs
lesser
fastest
mys
hunter
globe
dy
##ylan
predomin
application
##life
##iary
parent
115
furthermore
##ctic
bah
shadow
##artney
destroyer
pulled
toky
vertical
##bal
archbishop
ranks
skel
oliv
crystal
escaped
roots
flagship
badly
ariz
##mat
satisf
sult
##ss
strict
subspecies
anat
jobs
amounts
lacked
cuba
drugs
sq
drove
cave
##estone
allmusic
decides
exclud
slaves
bombs
panel
autumn
assert
confederate
bulk
argues
intellect
wicket
marie
subur
portions
triang
##oh
indies
##vereign
##kshire
sovereign
unex
controls
expression
squadrons
quarterback
severely
##anche
swit
inhabitants
earning
tamil
tale
##hips
striking
biography
summit
tort
spider
persian
##urally
starring
printed
distinctive
warship
ambass
tack
condem
mainland
nik
vast
guitarist
sony
toy
ferry
observations
##unes
173
arizona
##nie
chick
coron
101
godd
bonus
restricted
rib
wish
characterized
stere
orth
constitutional
planets
liberty
excellent
##inations
asc
ranging
jury
bald
dylan
visiting
sitting
##fr
spend
##ieties
##ucing
commanding
##bec
##lings
lt
revival
definition
phenom
##equ
##fa
##fish
maur
fixed
vib
##rants
rings
plut
##oga
wilhel
wait
wine
##idency
meetings
fault
nominations
holiday
tiss
threw
tru
explain
explains
bombing
bone
hav
athletes
ultimate
dominant
##cements
spac
carriers
pill
statistics
demonstrated
amateur
tig
acoust
arrive
oklah
illegal
broadway
##tle
amph
marvel
educational
parliamentary
##unction
metall
artific
174
austrian
danger
##owed
founding
hidden
yield
mrs
dust
switzer
8th
##asa
lex
consol
rook
##ensis
artwork
grave
coat
northward
prepare
heir
arist
1901
aerial
##away
comed
steps
census
rever
abund
switzerland
pm
##storm
flower
murphy
predicted
talking
##ige
beam
amy
vii
experimental
push
##ni
##rod
##tha
declar
conversion
reaches
peaking
barry
##aro
dread
slave
delaware
overt
millimet
predict
cruc
ticket
02
feeding
bour
conscious
lanes
lon
abc
households
##aun
disagre
symphony
##eled
overw
ballad
apartment
mate
oklahoma
berg
##uations
accum
innoc
mong
##uma
155
westward
feels
liquid
rio
baker
seriously
bach
patron
obtain
laugh
backed
repeatedly
useful
audition
predecessor
##iy
##onian
##ika
swimming
preserv
wells
considering
choose
copper
layer
sole
congreg
bod
1903
bones
eve
##rh
##opp
consequently
circumstances
tokyo
attained
thanks
vig
1902
prost
##isp
perry
lithu
fasc
delivery
##je
todd
##suing
melody
physics
##icut
memor
revolt
ale
perceived
rut
looks
##umps
mini
millenn
shaw
madag
##riptions
leslie
pages
pyr
##iders
pole
##urer
duo
hog
##lined
stones
##oned
valuable
flowers
bernard
kam
##unc
sunk
subsid
##anger
hann
improvements
cord
ask
remarked
rih
##grad
denn
rico
tactics
##yt
retain
##rim
compens
engage
denmark
yu
turret
patt
jonathan
##ridge
guar
renov
dinosaur
towers
battlec
promised
personally
airlines
juan
landscape
battlecru
johnny
atlanta
ment
edwards
musician
theatrical
obst
##osa
dawn
execution
enlisted
airfield
rihanna
barn
spart
extract
##shore
compound
manga
##apolis
demands
sixteen
strengthened
len
nixon
168
travels
campaigns
profile
sung
##sch
##inian
##mingham
qualified
kids
ral
explan
elevation
isa
ov
rede
raising
funny
mechanical
demanded
##ello
papers
illustrated
arnold
##orship
succession
##estyle
burns
aggreg
waste
interpretation
##di
##enberg
spa
pitts
mant
##bard
membership
insisted
clothing
m2
sak
##rome
garn
blu
keith
##oons
worship
##rows
##mith
compounds
jimmy
##arth
canter
extend
baron
ruling
electricity
##bird
beats
orn
##abs
settlers
mirror
##erb
bak
lying
##ghan
dressed
judg
phoenix
hood
fewer
gentle
wis
struggled
glee
ruth
vik
resol
##esty
tales
hybr
rachel
encl
demolished
oblig
succeed
erected
persons
trading
stronger
fourteen
passion
##lain
##acked
decisions
166
increases
riding
shift
paras
bog
insects
fis
cutting
neu
yankees
##odox
tracy
removal
external
109
hugh
meter
objective
watershed
surpass
mills
birmingham
daughters
pursue
##jection
advertising
culmin
unre
##acre
ced
defences
superst
warfare
burial
deterior
tong
##berts
mccartney
bobby
developers
lights
obama
wayne
exactly
killer
napoleon
overwhel
##folk
163
concentration
##nik
discovers
comprom
griff
mercury
organised
affect
magazines
fate
buddh
bacter
fossil
##lock
altered
defending
ranges
venue
##xual
##hers
hydrogen
wealthy
fold
employment
dall
ninete
hudson
eval
electrical
gosp
loved
approaching
debt
exercise
##iph
ms
stal
armoured
##cles
adventures
raids
shak
##gie
establishing
epic
exposure
connecticut
sultan
investment
commentary
madagascar
limits
hearts
##zzle
##10
rend
profit
mood
##opol
disl
leonard
jurisd
##iable
spur
guarant
jup
vanc
connecting
aggressive
hence
aspect
centers
mature
ontar
partial
qualifying
architectural
##ike
##aux
parach
dimension
canterbury
ontario
outd
friday
exter
152
morrison
sut
maid
trick
##ensively
indicating
dwarf
determin
##rams
prove
ongoing
edited
markets
gods
traveling
shaft
arrangements
isot
extrat
shorter
radiation
announcement
improvement
withdrawal
##ouver
acoustic
unless
##low
##no
##stan
volumes
celebrated
appropriate
##kh
##adi
stationed
evacuated
##mund
pruss
dissipated
acknowledged
precipitation
extratropical
putting
bomber
##ulous
sciences
slavery
survival
permitted
dict
rus
tube
preparations
##rine
stol
##ifies
discussion
cort
realized
silent
nurs
youngest
tna
##gle
initiated
dubbed
placing
##caa
graduated
honey
kills
hosts
##anz
##efa
recovery
photographs
voices
mcm
##enna
hardy
industries
terr
fleming
##etta
translation
##bow
graduate
gary
wool
##hous
fract
truck
hypothes
uefa
##itis
ri
attitude
##uese
climb
rehe
vancouver
requires
strongest
burning
affili
confront
originated
voyage
echo
mend
##hard
##itudes
172
estimates
vamp
##roph
angl
jupiter
perp
harmon
reporter
##feld
##amental
referring
tubes
trough
knock
conventional
104
transit
donated
sonic
devast
exclusive
##ingham
exha
##oven
nerv
edin
endors
expert
tours
supplement
signature
specimen
regime
##aser
colleagues
closest
##autical
pakistan
##cr
##itively
parody
guinea
minority
##utt
southeastern
##pled
promotional
axis
bearing
indicates
##tz
decide
kap
hey
drinking
earthquake
æthel
recall
##arr
scattered
portuguese
manor
legit
visits
bradman
##ori
gren
challenged
eug
attending
luke
density
##ivation
indigen
heaven
alice
lawyer
merely
concentrated
gathered
supplied
users
programming
emphasis
collapsed
identify
cruise
dwight
traditionally
coalition
overlo
morph
facult
territorial
ncaa
governments
annually
screenplay
democrats
cotton
rp
##dle
##uration
diff
1893
principles
artificial
fed
##adier
achievement
cousin
##iar
devil
loud
photography
cash
pam
sacrif
##imented
troub
therm
celt
##ipe
portrait
provinces
1896
oliver
mosc
optim
alpha
lac
prisoner
reflect
##case
prices
predators
maya
afghan
offense
chemistry
hampshire
##otte
declaration
##haw
alg
seized
terrain
350
accompanying
edinburgh
topped
applications
talks
veloc
competing
nu
pond
failing
turner
reinforcements
indigenous
##agger
127
investigate
reverse
uranium
roberts
universities
stuff
portrayal
1898
sending
smart
terminal
pall
cler
111
tenure
penet
rangers
victorian
chord
gaz
broadcasting
beng
output
revenge
monte
quebec
reconstruction
##aks
choir
kos
experiments
volunteers
consolid
beneath
flooded
certainly
recurring
hitting
guid
juven
##iti
##mania
lip
tap
##ieth
dual
yam
apoll
hast
sharks
branches
argentina
##igible
obsc
contribution
proclaim
voting
yorkshire
ibn
lav
##oa
lords
ceased
ralph
jama
assembled
imagery
craig
spaces
tribe
questioned
bosn
songwriter
##ico
##ellation
decay
hyper
strange
texts
masters
antonio
##run
neil
orle
historically
##idal
spy
drummer
mull
##angel
revised
virus
commenting
bann
impression
infrast
underwent
##owski
dors
conce
##rik
jerry
1940s
##hammad
stamp
stops
christianity
components
##ayan
destroying
millennium
cav
reward
reorgan
cable
therap
serge
reducing
reduction
component
##atra
##ception
grap
glen
replied
devices
unclear
1899
duration
nice
ruler
bub
fulf
trium
queensland
##vi
##ista
collins
approaches
consistent
##ologies
bend
induct
identical
intervention
marge
marines
multiplayer
buffalo
ambassador
samples
108
corrid
patients
bench
howe
humor
lloyd
gaming
finland
frequency
proposals
##pler
##soft
partis
requirements
redes
arrives
traded
surrendered
orleans
rena
sings
dak
##ao
spoken
lifetime
chess
reed
##active
##ensed
supern
bin
mond
##atever
unw
vern
norfolk
platforms
conceived
169
turkey
hawaii
##itary
plaza
winners
pas
whatever
researchers
wii
##andy
springs
rejo
distant
romance
donald
burton
banned
cros
##illes
##ricts
representation
nicholas
exclusively
##ycl
chore
##place
practical
robin
suddenly
##gom
connections
conquest
belgian
celebration
tape
crimes
warriors
commanders
prest
faces
burned
weigh
finance
collections
rebels
continuous
bennett
vl
stef
resur
##ibilities
varied
catherine
##itarian
vincent
bast
ub
districts
lighting
competitive
praising
scientology
##ecution
##phal
mansion
fern
flames
gender
##roc
invent
pod
confidence
shoulder
reactions
darwin
thorough
guild
speaker
progressive
nur
manif
lux
sample
abuse
camps
reviewed
significance
cel
fi
worn
advised
prix
taxes
##iciency
considers
peters
seal
sailing
boilers
##ethel
intersects
translated
hughes
##hs
vulnerable
fol
davies
shares
proceeded
eleph
mim
##acles
dischar
elite
##uras
presidency
106
harvard
presentation
judges
trig
scores
##ffield
filmm
1897
witch
understood
handled
opportunities
ministers
medals
##ellor
fo
pairs
companion
bind
gif
##erning
geoff
marshal
manufacturing
##irm
numbered
bombardment
crops
infrastructure
rivalry
enthusi
phrase
ds
racial
fairly
observation
oslo
swiss
saxon
nautical
flows
##olds
smoke
rocky
petition
stress
indonesia
foster
##itely
respective
grossing
unexp
peng
vital
167
##uating
exceed
descent
explicit
moscow
cleared
cyclones
kan
proof
154
transported
jtw
uncon
intermedi
commissioner
knights
cameron
jtwc
assum
extending
traditions
rehears
cards
mp
##rehens
##rov
exile
spong
eis
protests
unlik
##strong
##fc
reinforced
hide
ip
kate
##igs
mystery
pittsburgh
bert
tai
113
drain
skill
structural
toured
extinct
nonethel
cuts
tonnes
nonetheless
toler
commenced
drink
characteristic
random
gift
##ls
exists
gest
153
troop
decorated
participation
rivals
terry
relatives
boom
maintaining
victim
##pike
tiger
restore
rodrig
alaska
tested
cosm
navigation
daw
##erce
##berry
fee
withdrawn
kane
##ario
canyon
##uki
##nought
wallace
telesc
answer
theories
relocated
convey
absent
##hum
##emon
##ours
clan
guerr
dil
turnpike
reforms
preparing
warnings
senators
eating
##cha
##wing
airline
nord
##gins
honours
bib
pse
toxic
microsoft
inquir
hollow
##onsin
##aha
##ashes
editions
monthly
syria
writings
##minster
##ettes
##icing
richmond
##inge
displaced
##itious
##eto
upset
1890
republicans
sculpture
shep
empty
unexpected
##oria
##illo
coaches
archaeological
dum
clothes
carries
##world
manip
interviews
ferr
nev
tract
##enger
magnitude
amazing
heavyweight
mixing
interaction
fitz
blo
concerning
sheffield
panzer
israeli
answ
larry
dying
ky
beck
telegraph
variations
ww
##rooms
##oda
lightning
mythology
malaysia
sega
courses
interpreted
pock
##isive
releg
idol
villa
displays
hurricanes
1895
learns
chambers
meteorological
dreadnought
dallas
171
commercially
jefferson
##atis
milk
johnston
##ashi
confusion
arguing
advertis
pseud
desper
cole
grandfather
jurisdiction
golf
aft
upr
demo
parkway
essentially
doors
blocked
drift
vit
tooth
emmy
salary
segments
owen
dinner
volcanic
##aman
variation
corporate
clarke
bryan
heroes
airing
102
flex
##adesh
fbi
##inter
austin
constitu
gon
regiments
chen
faculty
##isons
lover
myc
shifted
colors
emotion
costume
cyrus
##beat
accurate
##hell
reh
internation
##mers
##lington
circular
unlikely
duch
##urst
acre
swing
opposing
shallow
prel
colours
stall
suspic
aber
lag
pent
sponsored
parsons
cott
##avia
##enson
##cester
121
corp
valid
boulev
xx
##lane
angry
cattle
##cott
interf
armstrong
hes
lasting
dancers
commerce
##keeper
chelsea
wished
danish
fert
breaks
rect
intr
steep
proportion
ties
tint
worlds
rebel
surprised
brazilian
divorce
bible
tension
162
lud
macar
embr
tir
##atched
mckin
enact
constantin
forecast
stim
diverse
principle
tickets
diplomatic
revel
##ussion
snake
deeply
sustain
recreation
##hal
newton
kaiser
wart
examination
ic
##irect
hammer
ecl
gamb
britt
lift
abu
advancing
pitcher
neighb
orient
northwestern
prosper
##asters
inclusion
civilians
girlfriend
caes
rifle
hd
naming
sheep
opens
drafted
disturbance
liner
crazy
oz
biological
ivan
parachute
till
plum
pursuit
peas
infer
beating
blacks
travelling
rebuild
##ho
##pin
emer
nose
negl
susan
reich
hamlet
hoping
wilhelm
stolen
mg
##enon
dioc
mcl
##osexual
happen
tet
158
##wright
ratio
sporting
ine
##itate
mild
##umented
##ometric
rou
directions
promise
streak
processes
insurance
##abilities
##udi
verte
utah
settlements
substitute
parad
1861
canon
##iko
potentially
muhammad
locally
harold
villain
quarters
challenges
monastery
dense
gy
chile
161
fifa
funded
ost
yout
##landers
1889
serbian
taste
ion
beaten
##enos
bry
gamesp
equally
charted
sentence
columns
pump
cox
conspiracy
evident
followers
benefits
rookie
rains
##master
##uits
afford
manage
knows
altitude
delta
##nell
##vised
enzy
explaining
administer
scandal
offshore
participants
veteran
hed
merged
##onica
1894
recept
perc
caps
runner
1000
error
cbs
requiring
resort
knee
nova
options
stuart
outf
kidn
boulevard
##utor
##asha
memoir
persuaded
##reated
##affe
constantine
##ht
tyler
whale
operates
tyr
youtube
xii
similarities
##eenth
dece
borrow
witnesses
##ju
1891
judicial
implemented
pregnant
paraly
devoted
educated
##castle
farmers
reservoir
bic
gaining
##onium
socialist
counterp
veterans
apollo
156
dreams
aa
wisc
##ampton
divine
tuck
blast
addressed
detect
prototype
initiative
leop
statements
sean
links
1800
massacre
virtually
brooks
indonesian
accommodate
reef
strikes
wildlife
bent
forever
135
palm
oriented
flav
keys
cardiff
disorder
tools
keen
persona
proteins
tent
##aters
weakening
complained
odd
categories
feared
##heric
boundaries
favourite
##rin
blend
1892
##ocation
112
nickel
##piece
##cul
amid
marit
anarch
##mont
240
knocked
##boards
explor
studying
tempo
threats
tactical
johann
##far
org
hostile
bore
tide
sox
trapped
wisconsin
aar
va
##oting
##essing
##uz
dealing
##usalem
extensively
kyle
##hill
##rific
##izer
honorary
fier
maps
thrown
rocket
montgom
##erver
##enburg
##auc
danny
##nels
##pine
stretch
soap
1870
gothic
##osph
preserve
midnight
embarked
myself
goddess
##imp
rider
islamic
sized
fires
conflicts
jerusalem
galaxy
gospel
nan
sentenced
tune
highlighted
wes
honors
##gal
##assed
justin
citizen
rey
usage
##cliff
tribune
##ashing
disb
tasked
rip
nights
##backs
teammate
warships
tigers
tourism
macarthur
##rically
##vo
machin
obvious
hul
##gow
##anne
resolved
schum
documented
velocity
boeing
##othy
remote
trio
evacuation
##roid
lacking
photo
politicians
hybrid
##amer
2000s
partners
provisions
abroad
bund
sanct
1888
montgomery
easter
saturn
renewed
##aco
reass
chad
intent
ordinary
pierre
lamb
rushing
##inis
discontin
regardless
recruited
##gi
colored
rescued
scholarship
barnes
stein
frontier
defenders
explore
darkness
##fly
##istent
barbara
orthodox
dimin
vin
##sts
conj
complement
encounters
beer
##ackdown
guests
telephone
amphib
dug
hurt
housed
beliefs
escorted
##ando
user
battlefield
authorized
rogers
gau
##cs
##enter
##aments
enabled
competitions
considerably
##iciently
##vet
receives
helps
separation
prospect
isn
offs
presents
1885
##ulsion
scots
brigadier
cats
##uches
pursued
elaborate
inhib
crashed
auton
suspension
imprisoned
##pert
ashore
pyram
prayer
spo
trunk
observer
##aved
speculation
confident
handle
humanity
garnered
sinking
involves
icel
jaw
seb
monitor
christians
promoting
tol
bills
trailer
inning
##ocene
unve
baltic
depicts
handling
978
##iah
pupp
##anim
uprising
zoo
mak
batteries
triumph
brilliant
flour
batted
occasional
pp
confirm
developments
hopes
noise
regulations
arcade
pand
capturing
remembered
pirates
glas
magnetic
iceland
laps
##ardo
##ovak
urged
145
suspected
breeds
thames
loose
eventual
organisms
mixture
thunderstorm
cs
internationally
##ais
hi
pon
##hou
editing
impressive
compositions
ace
##lon
metric
license
##ded
dozen
backst
romney
ensemb
owing
aest
##izz
booth
117
chrom
tissue
1865
boyfriend
##eda
athens
railways
truly
159
castles
associate
cardinals
dat
sherman
horizont
lions
##rang
reagan
isab
chron
relation
agu
crest
slav
distract
lyrical
mechanism
volunteer
rendered
decreased
cum
##rage
##eno
thereby
nato
disappointed
politician
chancellor
nancy
styl
volt
intellectual
tracked
chamberlain
restrictions
shah
warned
marking
organic
consumption
inherited
positively
counsel
updated
mutual
customers
##ublin
anticipated
genu
balls
helicopter
##oca
upcoming
switch
##isition
directing
450
inhab
pec
apply
##phan
##oys
118
accidentally
spokes
##rible
114
auto
contracts
mammals
ernest
burg
wiz
##essors
##ipher
elli
invaded
antib
dependent
machines
##eta
heb
southwestern
laud
##elin
##unning
detective
closure
conversation
portugal
##asm
delegates
oscar
constantinople
haven
##gary
ingr
##aders
newcastle
breast
assessment
aj
##ean
beth
##chi
brut
root
inaugural
dud
lighter
##idia
titan
lodge
fus
thorn
metre
reader
fossils
##uters
debris
pete
bradley
charlotte
rag
grid
corridor
lawsuit
voters
rally
eddie
merced
cinc
tib
##ugg
fundamental
borders
##restrial
##ether
nickname
##colm
plates
besides
gibral
accessible
nephew
tram
1864
gibraltar
easier
sweep
##wald
cornwall
complicated
psychiat
infection
##hin
boost
antar
occurring
memories
vick
##edia
reject
peop
sheriff
prelimin
##ulus
sharing
hack
##acht
versus
molecular
dale
kaz
##itic
##roe
##ilda
##took
heights
##view
remar
lesb
reunion
supports
particles
gabri
feathers
carr
malcolm
avoided
weld
flags
chester
interc
curve
krist
kenneth
progressed
protestant
murdered
upl
indu
throwing
armenian
cena
eastward
leices
##enders
syl
doctrine
wartime
northeastern
shelter
consequence
autobiography
mv
imposed
walt
recruit
intermediate
wrap
##assy
punishment
nem
##gett
integrated
bris
posts
xi
##press
produces
reporting
convicted
isaac
tier
tourist
kilog
exhibit
depicting
noticed
pedro
##changed
##akh
mounts
##rough
resid
thriller
131
exploration
threatening
monit
camb
hier
##ellar
##flow
touchdowns
dublin
##encer
clouds
##heimer
chop
crane
viewing
1862
melod
philosopher
peoples
boot
verses
vicinity
annex
tea
holes
mathematics
barrel
attraction
linear
fib
saints
bailey
dent
sod
##ahl
cage
duck
mk
##orf
107
removing
undertaken
tob
isle
releasing
transc
courage
hir
sheet
tennis
sulf
heath
patient
botan
bil
sap
diversity
congression
shin
##oba
journalists
ignored
warrior
blame
constantly
decrease
##uri
coaching
##nan
sear
##anton
clergy
subd
220
apolog
martial
##fast
sup
tommy
luft
predominantly
realistic
facil
##rosion
expanding
157
legion
cincinn
aux
anthem
hok
spell
remind
##itty
eighteen
fortune
dolph
132
springfield
sacrifice
##held
emig
pend
twitter
##zed
serbia
maritime
congressional
ns
##aping
ups
alberta
mam
##mel
generals
focuses
contacted
##inated
##uts
parking
disappeared
enorm
##ints
barrier
twentieth
relieved
arose
##alg
incred
grows
independently
ster
usher
pleased
propaganda
leo
centered
103
doctors
bulgar
teachers
taiwan
##umped
unh
creature
measuring
##ulum
joan
churchill
explanation
##rent
##net
couldn
sentiment
mccl
fragment
stability
mask
sacred
preliminary
sri
##olia
ware
asserted
cream
muslims
aub
##adal
bra
metac
estates
nept
canceled
friedrich
bee
compiled
malta
oxid
jake
yugoslavia
roster
parade
micha
speeds
inducted
##rection
monsters
discour
situations
celebrate
collaborated
subtropical
lan
roadway
paying
absorbed
locomotives
enhanced
wagner
aur
m3
##iture
incidents
##found
shiva
brah
continent
scientist
layers
exterior
saving
maine
##rolled
gravity
##add
reiss
##avan
##ortion
herb
achiev
cinemat
aided
tum
chuck
worse
focusing
varying
##ti
bullet
##amine
126
##inz
##ocol
submarines
maced
pont
##rogen
appeals
betray
genres
publicity
cincinnati
##hall
##omer
networks
plains
burke
normandy
targeted
##omed
regist
fortifications
discussing
ritual
olivia
##ema
browns
angelou
##regular
afghanistan
irregular
julian
##omon
beta
scouting
lope
tensions
##alt
creatures
dislik
atop
119
leeds
vegas
dropping
##aja
##zes
##agers
marched
##issioned
electro
positioned
madison
1887
preceding
fungus
dive
tough
chan
##ritic
critically
confused
##aughter
summon
swept
acclaimed
treasury
kitchen
##yll
##acc
viii
elevated
gregory
resignation
watt
##gent
edmund
transmission
anchor
compromise
mechanics
leagues
1880
##rous
##eon
concepts
mentions
butler
helen
1863
fare
ply
##tra
mega
eagles
capitol
bold
gig
spots
pover
brigades
##orious
corruption
1886
bonds
spacecraft
lopez
laz
flot
smoking
arguments
lig
##hart
proxim
mushroom
jna
##ptic
venture
worker
##ront
glad
suggestion
athletics
sailors
poverty
theodore
stored
adri
butt
grove
##umberland
stair
##imony
managing
walks
mlb
schumacher
##zac
##nda
conced
bru
bars
devot
atmospheric
assassination
##agi
orton
##aku
graves
##aneous
farmer
brooklyn
corresponding
condemned
ske
flown
phyl
harsh
iran
dennis
trap
subc
missile
##instein
24th
eman
hass
##acular
loaded
marath
epit
122
widow
orchestral
grim
moist
princeton
physically
aria
fing
slam
torpedoes
migration
instructions
inver
delight
trem
purple
rotation
inhg
beau
retreated
detected
ceremonies
preservation
mckinley
blamed
challenging
caf
pride
button
participating
nasa
gusts
postp
dol
knowing
montana
##ught
hubbard
disbanded
##mates
1884
consciousness
nass
##actic
achievements
finger
barcel
steadily
mouse
trump
composers
fluor
mock
flesh
agencies
disabled
messages
vegetation
##ener
calculated
comprehens
austro
poster
emerging
variable
reserves
marl
distinction
commitment
alert
ants
summar
darker
bitter
glasgow
genesis
printing
smackdown
prosecut
maple
seeds
spit
##usters
finest
electoral
canucks
belle
convince
herbert
amp
singers
config
venues
mour
##atar
brings
rebounds
##agg
quoted
solely
motif
opinions
ing
endang
pilgr
cooperation
mysterious
##areness
conducting
songwriting
absolute
ascend
sue
favored
whales
gunn
radius
riot
depot
modest
phillies
graphic
examined
celtic
pocket
ib
##dam
tril
naturally
walked
isles
##ulates
230
indirect
priority
essay
themed
phon
westminster
everybody
theaters
extraordin
##asia
eligible
demon
denver
renaissance
bce
##itals
unt
##aba
##iev
routing
temples
rounded
tintin
aids
yd
##onso
##lem
cong
##abe
129
tracking
##cia
remake
##roscop
bark
116
138
homosexual
gym
##rac
decisive
curved
screens
1877
awareness
volcano
shopping
fragments
mercedes
gast
##ws
athen
abst
demographic
##ishops
##ennial
authen
taxonomy
pray
nationalist
hym
1876
prompting
saga
##abad
reminis
consideration
logo
##upp
##icity
##arded
posthum
farms
nok
##iens
poe
angles
pokemon
##hop
alam
134
penal
comparing
spectrum
tool
manuel
heavier
nevada
mast
123
efficient
bulgarian
contrad
chal
newfound
marqu
consens
performers
refuses
elementary
##sy
unoff
afterward
manning
likewise
glou
possessed
privile
proclaimed
playable
albany
tourists
connects
agrees
accomplished
dynamic
##iors
ronald
virtual
expectations
percy
searching
frigate
commentators
psychological
##umbered
##tains
signals
carlos
confer
ottawa
refugees
ensemble
insuff
kilometers
cubic
sensitive
surprising
consequences
municipality
##season
ukrain
comprising
sergeant
nig
nak
seam
##reeks
listening
berm
##isations
##istical
commons
outcome
centimet
##izers
gem
drake
milan
discipline
fabric
depiction
encomp
brien
transformed
deer
opined
intelligent
dome
rational
##rians
abra
relev
guit
banksia
exercises
deposits
sans
emotions
pioneer
procedure
mcg
celebrity
width
1875
properly
deliberately
executives
barcelona
phosph
payment
weakness
landmark
ladies
barracks
sul
keyboard
chiefs
reluctant
##assic
##anka
adjust
file
##acing
underwater
colin
128
processing
steady
##urd
formations
strings
michaels
accus
routine
ceo
gauge
anger
enix
##iki
contribute
latest
complimented
silence
##ighed
##atty
extends
raymond
loyalty
pere
unanim
metals
varies
jets
##eding
##agh
middles
estimate
tribut
gathering
enlar
henderson
inex
emma
bowled
fears
philosoph
guitars
##reen
onwards
blog
farming
expressway
##orted
clip
collecting
1883
photos
vocalist
paralymp
##yers
##iology
sting
carved
##icking
romanian
gale
lamp
chains
spite
poles
contributing
contempor
kum
##etary
staged
##iang
millions
1881
joke
roller
hab
alumn
complaints
instrumentation
##nn
input
blair
funk
vest
stabil
sandy
diseases
assets
damaging
patch
consistently
##oric
##anted
151
revealing
lemurs
coffee
stir
detachment
##appa
cameo
symbols
##ampa
richardson
##lu
proud
venice
clause
berkel
environments
ferdin
lancash
locomotive
nervous
jamaica
pix
##lake
##omys
herm
1869
permanently
phenomenon
eb
politically
veronica
beds
belonging
202
monk
powell
jumping
##arthy
ana
chlor
criter
staying
duncan
preventing
advisory
dot
##icus
##iper
sixty
calgary
burger
improving
disputed
lancashire
rays
bever
midway
fantastic
theoret
percussion
acceptance
750
referee
eruption
unaware
libert
genera
1866
dispatched
manifest
##uan
##atern
telescope
erupt
lessons
wanting
chapters
ceiling
retrieved
##oning
ally
colleges
habitats
patrols
hypothesis
##adows
##riages
##quet
floyd
faction
objectives
requirement
switched
redevelop
##hening
beij
fraud
blockade
witnessed
holland
consensus
frances
tradem
interactions
unsuccessfully
##hend
anx
slip
argue
costumes
ironcl
perpet
fart
grants
pleasure
eccles
sag
reson
angels
circles
lengths
adaptations
ellen
##mill
trinity
mold
##zig
##inth
##igo
##chw
wheat
overd
encourage
freshman
publishers
syndrome
bacteria
actively
homeless
derby
digit
allegations
crawford
ling
##alia
convert
124
explosive
immigrants
hect
mbar
sho
accol
belonged
judgment
flanders
##dish
renown
distinguish
palestine
leicester
channels
hemisp
abundant
guadal
landings
glory
destiny
suffer
##enues
reop
hep
adela
congregation
ank
diary
loves
1873
nicknamed
absolut
paramount
fischer
dimensional
repet
##boat
1882
tasks
unusually
innocent
tucker
##stown
introduce
submerged
forgot
dudley
lava
viv
desired
thoughts
contrary
beijing
beast
chi
shipped
teenage
outdoor
cope
eldest
machinery
ald
watson
1871
proceedings
advocate
cylinder
##cot
fringe
verd
naked
newman
1867
crucial
nineteenth
instruction
overwhelming
iw
kem
adequ
##endar
##lude
subordin
surpassed
biz
kas
##avian
##rium
trent
democracy
etc
bachel
##eches
fever
##rington
mott
defenses
advocated
kepler
mccarthy
welcome
a3
sect
u2
horsepower
pt
##star
unity
clif
quint
reviewing
platoon
festivals
horns
aristocr
zones
trench
truman
##uez
monuments
chet
malay
pounder
nh
spores
intim
##ulture
outl
##annon
storylines
hunters
comprised
diving
137
manufactured
ful
nests
##hd
##gon
itunes
shan
bout
##var
stom
1878
vlad
##amation
mosque
rushed
##waffe
##imer
##istle
explored
customs
variant
nobel
wolver
fount
##tery
##ovsky
##erness
geography
eleventh
reconstruct
triangle
vampire
##arus
radi
macdonald
gibson
endangered
rah
turbines
unveiled
horizontal
hil
ming
##inqu
##atural
##olith
rams
wer
##icon
index
speculated
averaged
economics
##heads
resemble
currency
spectators
dorm
ferg
##alid
##chan
##assing
relating
undertook
bigger
chaos
grain
literally
dissolved
sara
##anas
##enne
damages
lengthy
shirt
ineff
aaron
strat
trips
fights
athlete
wander
pla
##keep
aston
lone
##ido
ensuing
coastline
stripped
fairy
##yright
prostit
enormous
lp
##omes
compact
swamp
copyright
admiralty
maneuver
mick
ras
meyer
baptist
trigger
metacritic
manages
overcome
embassy
editorial
##otypes
installation
wellington
interviewed
discussions
cec
fusion
##ystem
oral
##bach
luther
stroke
anonymous
relied
coral
awa
riley
intact
honest
robb
jail
##pit
##aren
##employ
##occ
adds
1860
qualities
merchand
hond
raz
wishes
extinction
ig
##iri
destination
aguil
luftwaffe
##urg
##ographed
shelley
bermuda
engaging
silk
henri
powder
outs
bankrupt
lifted
##mother
deals
relay
monroe
advances
laf
brew
##overed
mistake
otto
lynch
adelaide
##asaki
##lew
leather
marx
##ugu
nomine
trilogy
##through
revived
1868
battlecruisers
lil
##origin
weighed
quit
gains
til
##hand
cultures
1872
grossed
proceeds
##ounted
fluid
instructed
##lys
25th
selena
feminist
reminiscent
aguilera
cere
glam
##appy
##monton
harvest
dere
##oves
successive
soccer
rulers
photographer
summary
fm
enrolled
curtis
aus
incompl
intersections
functional
coronation
pagan
yok
unemploy
newport
soviets
ellis
##inus
##olo
##odon
planes
##gener
lemur
chandler
sketch
dakota
ai
suited
##anto
disgu
masses
screening
appealed
dra
gle
nab
ranch
tin
deeper
interference
slower
rapper
dealt
merchants
rumors
bishops
arctic
##asses
aliens
grammar
batsman
kay
##rist
phant
termed
##neath
deployment
##eries
leigh
trace
conting
mann
riff
wald
##ubs
bread
thickness
floating
quantities
pengu
dart
arbit
disrupt
undergrad
barely
symmet
disputes
investigations
maxwell
phillips
gamespot
hanc
privately
panels
eugene
##cock
assign
ferdinand
bik
##van
##bery
retros
##aurus
gorge
blank
busy
analog
exhibited
mobil
joins
##obile
geoffrey
sier
conform
insist
borne
separately
wwf
vas
package
authentic
dad
##bus
surrey
curves
robot
inquiry
##stad
item
##ologically
133
ecology
gonz
alk
##alling
adrian
calm
imported
casino
wrestle
dh
nobody
marcus
abraham
chin
unrest
supporter
barrett
delays
involve
essex
disliked
flotilla
shoo
subsc
1850
custody
kub
##eased
expense
realm
escal
puzz
anthrop
cylind
redesign
spencer
coaster
romans
plymouth
kot
ria
##eli
contested
developer
deton
magical
experts
moor
luis
dunge
licensed
repaired
therapy
proximity
eg
##acon
##inted
##issa
madrid
fog
nl
warrant
underneath
tribal
jeremy
descendants
##wig
##imir
plastic
presum
protecting
##kar
##elia
##writer
molecules
plutonium
cla
interrupted
genius
caliber
limestone
automatic
lunar
mathematical
ard
ruins
pavil
mvp
ump
washed
operator
captivity
vienna
motors
cardinal
pedest
delegation
excessive
projected
pled
secular
romania
##bt
irre
##kinson
ltd
pyramid
norse
fergus
##list
comet
neo
##ichi
maybe
collision
rockets
associates
floods
architects
daniels
bosnia
hancock
oval
rent
vault
monks
invented
##opsis
florence
acquisition
floors
hak
og
verm
##anga
keeps
survivor
pronounced
##aching
tunnels
coloured
sebast
thrust
cres
totally
seemingly
bengal
porter
allocated
strang
immun
edmonton
comparable
restaurants
##vent
maiden
rer
wise
reel
tran
##athetic
acquire
##ulu
undergo
starr
climbing
demanding
jennifer
immigration
baldwin
##nut
##fu
leban
herge
reflecting
arkansas
nun
##ishn
ballet
fatalities
trout
twelf
##aceous
publish
populated
lifestyle
chicken
twelfth
tear
##entine
stro
shops
domain
evolutionary
extraordinary
##xide
##olan
forts
preston
miner
lobby
crust
1879
##guard
luck
quart
modifications
franco
enforcement
nes
##osity
wors
jungle
seventeen
bachelor
muscle
genes
suburb
141
mcdonald
struggling
accomplish
auction
discontinued
##urbed
generations
garage
scrapped
unfortun
##ourt
savage
demonstrate
pierce
neighbouring
administered
perimeter
operas
crowned
fierce
lesbian
kle
shank
twe
blake
270
academ
demonstration
shack
perth
streams
torch
interactive
paved
nost
minogue
openly
halted
elephant
vander
merit
mccain
descended
suburban
ses
##irts
filter
146
skinner
besie
reyn
##usive
archer
regained
bowie
liberation
dirty
mere
rewrit
speakers
kor
kes
worried
artif
janet
substance
hawk
dio
##atem
creates
hawaiian
clerk
erosion
traged
attachment
modes
hate
raven
##ellan
declaring
contracted
scenario
upgrade
lancaster
elderly
balk
##atorial
turks
koreans
logan
backup
antiqu
tables
pregnancy
##immer
##grade
stark
diem
monarchy
newfoundland
wonderful
jokes
hoff
##fs
##elines
woodland
ridic
caution
diesel
##entric
opted
errors
roth
scouts
grab
ampl
ambitious
pist
decomm
moz
identification
biology
prohibited
drunk
alc
divide
findings
specialized
northwestward
gut
##etus
necessarily
buddhist
##houses
jg
misc
##enes
motorway
strengthening
throat
griffin
fool
invitation
aggregate
banner
lease
detached
lacks
spongeb
sierra
cig
chances
contents
##ede
sphere
cheer
louise
caroline
remarkable
comprehensive
rode
stuck
societies
merger
teammates
memorable
math
##ng
arrow
runway
149
freight
draws
ng
deciding
recognize
corners
bj
##yd
interfer
centres
loading
swan
anatomy
##iop
runners
collector
nashville
dop
##iya
harper
palmer
allegedly
juvenile
kra
kens
synth
observers
strait
tender
measurements
rodriguez
metab
topic
garcia
layout
##inae
bassist
jen
welf
##onen
##abet
progression
##force
healthy
compensation
introducing
drowned
diagnosis
incomplete
ore
##bank
##ovich
calvin
specialist
hardc
consumer
stup
surfaces
legends
insufficient
hiding
##cht
plug
spark
reserved
retro
devon
defender
suburbs
dow
emily
edges
maurice
fond
vow
##how
theft
moreover
generate
speeches
painter
muzzle
kath
##nas
##hero
unst
busch
realizes
210
applic
attractive
doubles
diamonds
##rs
##anus
overth
consent
basement
eliminate
drainage
pushing
unpre
marble
reversed
guatem
##ficial
perfectly
nc
##ormal
##enches
kru
garfield
panama
cater
dian
rna
wo
##etcher
##oland
berry
conjunction
pian
securing
collective
1848
randy
ease
##aul
computers
evol
solutions
supervis
sufficiently
pus
##ocy
##ovo
claire
regulation
slot
panic
unpop
bio
cure
##atsu
rhodesia
rifles
subdiv
ix
locked
##bel
##pro
spare
superman
hospitals
embarr
tonight
catalog
welfare
fuck
lingu
ned
##rators
##atri
elim
1874
cameras
##pow
##urers
whites
helm
hardware
desperate
scales
airplay
##verse
tul
##py
##ayette
hemisphere
spongebob
solomon
##holm
hanging
##agic
depl
buses
volunt
insect
holmes
choosing
treasure
aster
hod
degener
quinn
144
irving
definitely
plateau
##birds
auxili
##iche
emphasized
armenia
jag
##ndum
##quer
##qual
anywhere
gerald
breakthrough
counteratt
finnish
rape
edwin
arabic
illustrations
assessed
venus
variants
##umi
spear
infected
michelle
notion
aborigin
crack
cheap
competitors
graduating
windsor
democrat
dimensions
legitimate
moss
##oded
manual
serbs
preval
##osphere
incorporates
jacques
murders
frustrated
baham
##mons
##post
##atan
weird
aval
promising
doug
lindwall
wounds
##oline
spiel
incons
citizenship
coupled
burst
missiles
puts
bloody
diagnosed
glacier
terrestrial
augustus
##ylum
controlling
stalin
##istically
##brook
dinosaurs
organs
brass
investigated
pupils
monday
berkeley
kom
stunt
northbound
shipyard
laure
flee
mercy
breakdown
tended
##oop
##oft
ranged
stanford
appreciated
physician
lineup
elimination
tiny
martha
drives
midfield
##hester
reads
280
frozen
accolades
artifact
ober
tat
assignment
presley
seasonal
confined
testimony
sexually
stance
chim
##opters
wouldn
patent
grandson
olive
qualify
hispan
evangel
nearest
restr
pressed
laying
helicopters
skeleton
fen
sunder
circus
satir
occupy
comfortable
inhabited
##ailing
maintains
preview
carefully
exciting
cuban
summers
skiing
##ocaust
ved
##mitt
frost
inscription
bulgaria
zh
gover
blond
delhi
harmony
bare
suite
enable
carriage
blown
designers
employee
ecos
dish
sop
proven
vacc
exhaust
genuine
unofficial
seiz
managers
reformed
heter
monkey
statute
##lessly
jennings
cauc
gav
##oi
##nor
##ishi
destruct
profits
facts
connor
duet
carpenter
maneuvers
plag
successes
glenn
defeats
mistaken
gabriel
fitting
chip
basil
##rosse
topics
entertaining
honored
boxing
enthusiastic
##raid
technologies
chapman
1851
hazard
absolutely
governing
scope
waterline
##canal
sleeping
dup
##matic
148
prosecution
edgar
bism
##30
##acement
epid
repeat
procedures
isotopes
duches
mumb
##lass
##essa
escapes
fellows
hayes
disappointment
ashes
disco
holocaust
hopkins
civilization
accuracy
sophistic
phylogen
##kee
##ibal
mineral
stepped
reconcil
goeb
blade
protective
##atoes
neighboring
guadalcanal
dign
suz
prose
##ripp
nurse
cement
arb
ves
##odia
regret
sau
guided
civic
momentum
innovative
spawned
spielberg
kang
buzz
##oshi
bolton
traits
referendum
hess
##aca
trails
136
requests
synthesis
unnamed
rises
exceeded
fletcher
graduation
slowed
nationally
kenny
incorporate
raiders
imprisonment
fake
jin
riv
sne
##ictions
performer
eisenh
##onsc
142
##rolling
rust
wash
brandon
rely
southampton
reds
readily
struggles
pard
laura
convinc
##ophone
bangl
rehabil
philosophical
trademark
spani
concludes
affecting
370
shepher
##kas
##isle
shale
revers
keyboards
##zing
atoms
assume
crom
deriv
reflects
##rified
tongue
unpopular
ug
##urred
asylum
shout
thirds
nobility
patton
vand
consumed
negotiated
##do
choices
preceded
##oro
##esco
locate
array
##elic
posed
demolition
lia
##osc
combine
certific
suspect
predecessors
bav
##bage
##apa
pitching
anthology
hendrix
alumni
eisenhower
hein
##quin
ears
distances
loos
realize
##rews
stomach
capabilities
barber
##neum
grande
limitations
relevant
nebr
refit
ultr
wals
##jar
respected
altar
gravel
placement
argentine
hammond
ancestors
ecosystem
cluster
conviction
crowds
##cliffe
lined
nathan
##eit
##soon
infin
cubs
sexuality
stefani
ferguson
##aic
climax
warsaw
hutch
gore
pose
##yc
forget
##ogical
260
correspondence
presc
##uchi
efficiency
varieties
russians
badge
##rises
observatory
incorrect
altog
hatch
##mate
##auer
extant
eleg
victorious
trustees
altogether
blaz
##group
##tershire
ethan
lucy
hort
##mal
##olics
lean
britney
precise
doubled
sprint
namely
rpg
bust
##ril
genet
maturity
sussex
jeffrey
columbus
adoption
forgotten
##kat
dex
spher
retaining
willis
settings
hanna
##kson
acids
ordin
kicked
##rimination
##aru
inade
spike
fees
sometime
haun
rhode
conquered
##berger
##oured
underlying
castro
highlights
##changes
gifts
inadequ
tears
trin
emble
southbound
cran
insult
semif
morton
endorsed
reynolds
##hurst
##uates
##esters
terrible
concluding
bam
stap
rankings
rectang
##lies
##idian
adher
apprent
willie
steering
departments
excited
goalkeeper
achieving
violin
##vic
##jud
##isbury
##adic
highlands
servants
1880s
secretly
unhappy
theoretical
fountain
franz
##ipper
munich
sou
yes
engr
gra
perception
annie
fortified
wrestlers
satisfied
tut
##len
##olly
amino
countryside
confronted
abolished
lithuania
nebraska
greeks
##dan
orch
clash
schem
homage
primitive
landsl
transformation
binding
ist
comprises
musically
fails
recreational
subsidiary
kun
##iast
##vae
deceased
##lla
pointing
solve
pawn
resembles
kre
wu
accidents
digest
##iqu
forum
##nae
activated
bf
seize
formats
boyd
eaten
pleasant
cherry
cp
##vas
##ppe
drawings
permit
dm
phases
accordance
clem
derek
woll
yar
yang
##itating
##umble
relax
annoy
##ysis
dispos
1859
kidney
lithuanian
diocese
gir
wend
ballot
ivy
orbital
coul
twins
possess
##related
substantially
dorsal
##kers
swall
rhys
safely
precurs
catholics
negotiate
medley
stopping
chronicles
sg
concord
##enez
calendar
businessman
robertson
enacted
albeit
lois
unders
shrine
inherit
ket
lighth
##vik
##jord
nee
factions
totaled
##icia
stew
memoirs
nim
##ilia
stam
rept
alpine
##ipel
canber
139
salisbury
goalt
availability
boarding
sandstone
millimetres
decommissioned
fid
##ui
stab
1200
geographical
##nip
spont
##pling
joel
colomb
geological
careers
scorer
resolve
fraser
median
archives
conception
papal
##cence
##omorph
##ecca
salam
imagination
welcom
ancestry
joyce
sparrow
ruther
##eling
effectiveness
motivated
controller
gly
hiv
lg
##drop
blaine
thinks
gott
wan
##avi
##riet
coch
receiver
editors
torres
philippine
##inely
commodore
captive
inflicted
propulsion
clearing
linda
bened
trucks
conductor
reinforce
lawyers
morale
croc
pollution
comparisons
intercepted
dys
oath
pneum
descriptions
caliph
angela
##agonists
1845
magnific
conquer
abolition
sunderland
hamburg
farther
trigg
pipe
reproduction
tyrann
diction
kann
##aceae
steal
admired
mortal
isolation
accelerated
cogn
commands
introduces
exhibits
tendency
jenna
bm
##nar
strick
##oton
slee
brighton
fow
bred
operators
visuals
organisations
benz
rubber
whitney
gand
##ieg
acute
foundations
governors
norton
admission
polls
##iji
riaa
sebastian
anders
147
##agonal
dominican
karen
##gun
leis
realised
shawn
manuscripts
wang
zinc
##gro
##ctive
shed
cruz
timberlake
celest
veto
claud
matched
watches
insight
pike
denomin
cowboy
gills
larvae
bowler
conservatives
arabian
butterfly
caesar
elliott
undergraduate
##chy
reliable
buenos
austen
incorporating
satisfact
portsmouth
mcmah
stip
##abling
dayton
##ometry
espn
dominance
avoiding
bibl
remarks
dull
##bane
##okes
petersburg
##oan
##mented
averaging
##iatus
hik
twist
superhero
presenting
accounting
scotia
forbes
clinical
borrowed
##eley
commended
kerr
plent
lend
retiring
monica
legally
durham
eccentric
##isch
##roft
##ikh
curric
....
lyrically
salmon
favoured
hugo
saves
stake
##ogan
singh
depends
downed
accepting
ambig
##rina
##lance
##hey
inev
##ovan
fuller
determination
partisan
puzzles
duchess
##isa
toss
##oux
breath
##ieu
colleg
nationwide
scandin
sicily
cigar
##oni
krish
attributes
worthy
auxiliary
wigg
##itory
##child
amber
fins
whenever
sms
geographic
activist
commissioners
gardner
astronomical
ferrari
monitoring
poul
tired
wong
##armed
##rock
monopol
slopes
colleague
hallow
immort
galile
peaceful
poisoning
sovereignty
rovers
humph
webber
bloom
sink
##estock
numer
##ommun
remixes
rats
sz
##bul
##usa
##elda
strain
testament
responses
omaha
implementation
dodgers
##ithm
pharm
priests
harder
scripts
persisted
configuration
##ław
disk
pepper
specified
happens
dissent
shelters
bacon
abstract
cly
gur
zomb
exagger
millimeter
governed
furious
magnet
taun
thermal
thunderstorms
bahamas
merg
rok
dear
##uba
indef
##retion
charting
explicitly
##fold
guys
valued
responsibilities
leaked
spor
graz
##keys
felix
enthusias
joshua
canberra
##irmed
##ggy
aspir
lunch
installment
quantum
kend
##asi
overtime
accent
impair
striker
1854
immune
drops
siblings
mumbai
compart
visitor
trev
spirits
talked
accommodation
wrestlemania
intentions
consort
doz
magist
tournaments
contemporaries
performs
expelled
devils
activists
committees
reunited
neighborhoods
lecture
nitrogen
gag
lance
yank
##gence
##stock
discrimination
1840
prussia
verdict
nme
freestyle
facade
1857
foul
##igious
##sover
outlets
poetic
shortened
pearson
##unciation
##sl
##uro
##acco
##ellers
##pring
resource
frigates
rutherford
cir
conven
primetime
radioactive
flora
##marks
ensured
orbits
accumulated
rebuilding
regener
saff
certifications
ambul
financially
mirr
registration
criteria
tailed
##dp
shocked
poets
helium
unwilling
falk
##throp
overha
interim
syrian
disturbed
crater
imped
investigating
##enary
##ady
newark
somebody
aires
##boro
oversee
convoys
subtle
tornadoes
tragedy
diana
tampa
##tes
##zi
launching
guidance
lent
sounded
clement
northeastward
roofs
lung
##oufl
##opl
intrig
boards
revenues
miners
oppen
livestock
disagreed
enthusiasm
dining
grat
expressing
linking
continuously
prominence
symbolic
rejoined
pony
##aid
##ilis
develops
patric
superv
holden
lich
lau
##omous
valve
tense
confrontation
bury
cedar
##ovakia
enlarged
inability
##rep
fratern
newer
portal
##inski
casc
hotels
screened
320
narrowly
bicy
biblical
kab
##empl
lowered
portrays
laser
jesse
iconic
supernatural
lucky
maker
wages
##icles
regain
organize
televised
judged
danube
persuade
aunt
invention
illumin
rhine
dedication
bail
peripher
segreg
relegated
##onscious
porn
whis
compton
143
pursuing
grandmother
beside
prolong
antarctic
boun
##cor
smallest
viewer
costa
narrator
psyched
frog
sanctuary
mcmahon
trim
wheels
brock
visc
freely
rainbow
collectively
adriatic
dexter
rows
apoc
stafford
odds
imagine
lectures
##mir
##inos
heating
capcom
shipments
entries
eighteenth
knowles
companions
sympathetic
ecclesiast
##ailand
hannah
mits
##idity
##hyd
casem
encycl
550
bard
##swick
##itational
##icular
##omfort
frames
##ifax
shortage
excluded
bubble
bangladesh
thailand
stun
reid
abrupt
musc
##ported
cunning
fc
jaws
clad
##aird
makeup
templ
ashley
cooking
ceremonial
battlecruiser
interface
fet
gaza
mating
wade
reapp
##uto
##iman
##arte
allan
declining
bedroom
recommendation
consolidated
renowned
miz
ti
tides
##eca
dover
camoufl
weaken
aesthetic
lans
##ilian
hex
counted
conclus
kingston
halls
cc
homet
indie
predator
330
encouraging
quantity
displacement
lots
mund
##woman
divisional
fielding
1858
kol
##elage
minne
cruel
mortar
mortality
alexandria
provisional
postponed
suppress
johns
portable
propeller
punch
rolls
contacts
julia
wheeler
oy
pub
wand
wives
##front
##atin
beet
##avel
ende
donna
indianapolis
qualification
supposedly
bahrain
deteriorated
pamp
##amous
mothers
xiii
centimetres
dame
jagu
##heart
wrestler
thirteenth
inferior
merchandise
##ovina
afraid
interrog
flame
remaster
discl
calib
torture
affiliated
welcomed
##ression
betty
subjected
accordingly
reasonable
1812
comedian
##orus
peers
promises
clever
pavilion
hometown
lomb
zool
##enas
buying
halt
1890s
nucleus
evacuate
nesting
exhausted
sv
recapt
viral
oversaw
legendary
neighbours
lighthouse
µm
reactor
##anu
##iga
troubles
tibet
tobacco
niger
superstructure
##walk
incomp
timing
popul
natives
manufacturer
gm
##asp
##stead
capability
hamper
cancellation
1849
telec
hutton
cia
gould
kamp
avon
replay
catches
1856
favourable
rumours
concurrent
neptune
##bles
preference
skirm
foods
meantime
recommendations
strictly
lauded
jak
##asse
beings
presby
showc
halifax
##brates
winchester
utter
forbidden
dana
##ompr
flies
refusal
ordering
prussian
riots
middlesex
##mm
##airo
patriarch
discharge
hebrew
##olithic
##itative
##aston
confisc
manufacture
##worthy
partisans
##zel
##omi
manoe
breathing
amphibious
##atible
##enstein
associations
kingdoms
magnus
##rance
##agara
bride
marin
##lett
advertisement
##word
##zon
fright
restart
communists
planted
dissatis
celebrations
concentrate
dramatically
pilgrim
dozens
jeal
##bone
##icz
##irt
##idium
beaches
sued
seab
exempl
manned
observe
admits
categor
portraits
##fo
##owing
generic
expenses
##engers
passages
averages
trafford
bradford
##urance
peru
##graded
archipel
sanche
##idad
##wning
loses
erie
##uity
sci
limbs
investors
##lining
portraying
moderately
joker
sanchez
goss
rex
flaw
inspector
kinds
vaugh
##achi
monsoon
greene
conventions
awak
rhodesian
lafayette
ain
caves
moth
##12
norwich
brood
loch
offspring
dus
hp
##opus
interven
medi
premise
purely
rama
vince
##inh
client
relat
paran
reporters
##gestion
affection
##imentary
plantation
automatically
marcel
matrix
wears
rotten
tends
sends
jessica
triggered
endeav
hank
tina
orphan
une
halfway
troy
touc
thread
overnight
##shi
observing
accusations
alarm
weber
empress
fearing
rochester
filmmakers
leopold
induced
rectangular
##ecess
byrd
slope
statistical
donations
stewie
##uke
##reet
##rob
reper
alder
airpl
##yss
gamer
presumably
hr
java
thurs
boots
instances
classics
##ikk
parallels
shields
##build
##oqu
##cks
##pect
chak
##arta
brom
skilled
unnecess
sack
testified
reflection
feedback
spectacular
##him
##uy
##redited
damasc
ballads
boxes
cinematic
adequate
shooter
encyclop
chant
grun
natal
comeback
650
datab
gloucester
hiatus
bees
plas
disqual
knife
sharon
motorcy
wyatt
brunswick
##atas
basal
everyday
speaks
instructor
batsmen
innovation
cay
fals
episcop
canadiens
complexity
eager
shirts
enclosed
intimate
##zeg
remnant
collegiate
sided
##arre
##stop
##ovny
##izable
integration
shakira
sophisticated
##aline
stur
heid
defining
richards
##etti
louisville
sacr
crafts
duchovny
caut
clusters
mana
servant
cataly
oxide
violation
1852
amounted
rosen
labeled
thorpe
downloadable
oppenheimer
cohen
marching
realism
celeb
boliv
fitness
iraqi
nerve
##repr
objected
invested
sexy
cornell
recipient
ingred
hierarch
jealous
thursday
gael
lumin
shen
highland
communicate
moh
colonists
hydra
heming
faithful
tackle
rope
yo
##oly
##avo
##oved
##flies
ruined
fork
##ifier
cret
quarry
fungi
regards
starter
infilt
exceptional
manufacturers
##comb
crist
breach
fundra
semin
1847
farmland
surveys
hindi
ancestor
metroid
inscriptions
yankovic
rhe
tens
wax
##sburg
metap
instant
##ikes
23rd
yourself
miguel
dissipating
coinage
tann
##oque
##wind
fourteenth
1855
lebanon
sits
##rimin
strand
milton
particle
refusing
combining
deadline
divorced
excluding
culminated
##haus
straw
seated
bohem
charm
counts
peaks
museums
psychology
jab
venez
##ilus
presumed
revelation
##alus
reilly
##ardy
##send
calder
announcing
ruf
wilde
cooler
convincing
gul
##atz
##imm
coached
assured
1830
electronics
wizard
cafe
archipelago
pomp
rb
##fia
##ribe
melodies
darren
conceded
penalties
unified
##ordination
emir
reddish
possessions
submit
sketches
ich
##rush
##dock
##kov
neill
ley
##awak
statues
jacket
payments
1846
rendition
hastings
gonna
hij
##igon
airways
saudi
smash
declare
uncertainty
advertisements
orientation
aims
##fires
reck
serp
treason
##umbering
terrorist
terrace
explorer
diminished
damascus
##elong
##amy
heated
disrupted
embry
schemes
jal
##fax
##thouse
##oka
constellation
opener
1832
georgian
jamie
dancer
posthumously
sansk
rash
zelda
##ea
spiders
##elles
emi
##vex
devised
juliet
appreciation
hispanic
inadequate
manoeuv
zur
##apor
curse
rupert
legitim
dioxide
euras
alonso
sej
additions
acceptable
suck
shoes
##rah
avatar
inspection
crusade
plumage
hail
nolan
synopsis
carte
gwen
lexington
leisure
gum
##gard
##girl
##kney
twil
geology
azerb
kilograms
azerbai
bess
dances
tidal
princes
traces
generating
doggett
##holders
julie
jed
##wy
##ounded
define
##flu
filling
optical
covenant
mered
vine
eva
retal
subf
##atories
apost
relieve
##gee
compass
courty
fug
##imon
##kien
mechanisms
astronaut
prefect
mongol
twilight
font
##jev
##anor
adolf
##elyn
elector
sequels
mansfield
commemorate
outfit
cis
##fight
chat
reclaim
noel
thank
characterised
petro
dissolution
memorials
stockholm
constituency
brisbane
sulfur
das
wess
##bred
deity
enabling
backdrop
##aho
##iker
humour
viruses
expeditions
buckingham
listeners
renovation
minneapolis
##uka
profound
##ommon
##raints
recruiting
##ontinental
meredith
tac
##haven
##eros
sealed
sparked
blanc
slate
spiral
pulling
assassin
patriot
guarantee
shackleton
curriculum
sacked
##sis
##lay
orland
arche
purchasing
automobile
devastated
worcester
somewhere
landown
promo
##clair
moroc
##chev
methodist
reinst
storey
prohibition
dynamics
troubled
kiel
##bin
broadly
ridges
throws
cree
stiff
##ensing
genev
southward
frontal
framework
uniforms
panthers
shepherd
lanka
theod
205
drought
locals
agreements
1853
flowing
shuttle
gazette
nominee
halloween
jos
seating
##rys
guam
deadly
prints
sanskrit
mt
##atum
toys
static
broader
##efe
skelet
##stri
##imo
leip
adul
indoor
exposition
deleted
superintend
packed
boiler
exempt
prejud
##ibi
colbert
travers
barbar
assuming
##oids
##arck
##omo
beatty
##ainted
entity
turtle
embed
crystals
##dal
warwick
##fts
##orne
slant
contempl
scratch
patronage
gn
##mass
##cestershire
northumb
suggestions
crystall
enzyme
vinyl
watts
pest
upt
##orth
##ifa
spans
revision
##ledon
keeper
electrons
miy
hampton
recovering
concentrations
teenager
aquatic
##hail
shane
supervision
27th
boycott
bottle
furniture
unpreced
##atches
##ensen
flatt
rememb
debated
gasoline
kilometre
mushrooms
orlando
unprecedented
rage
yale
conning
##osl
currents
ki
rous
seym
climbed
wednes
integral
resemblance
stretched
sharply
lacrosse
vil
manila
##ogne
antagonist
calcium
muscles
please
quadru
kapoor
emerge
dash
pag
zo
##hot
##orum
clut
sitcom
dismant
##books
viking
lovers
succ
deut
incumb
abn
eastbound
shoots
presbyter
##ados
spore
persians
westbound
cyn
workshop
palestinian
seymour
carroll
knox
gradual
transports
1841
loving
differs
hoffman
einstein
traced
detection
exploring
souls
lemon
lynn
mentor
wesley
##pop
theology
spray
trenches
notting
whereby
transact
barons
routed
similarity
missionary
jor
onset
seals
incarn
winston
steals
georget
unconscious
valleys
composing
prominently
spreading
##arms
peer
subway
prophe
hardly
maternal
rowing
guaranteed
hectares
krishna
albion
##hyl
scenic
brutal
dolphins
supervisor
touched
##rag
##isen
##ioned
sto
##illon
welles
##tenham
matching
facial
creators
mobility
crescent
celebrit
kyl
##vy
##igation
reply
jackie
disappro
tsar
##roscopic
cecil
bip
eternal
hale
##chair
##ulent
brack
belarus
vij
groves
1844
sinatra
dund
##ithe
ory
guilt
verde
paths
oakland
advisor
excavations
abundance
hokies
dixon
wester
##amus
##irus
belgrade
cheese
22nd
essays
nobles
vacant
anchored
crossover
summoned
##igne
joey
menu
handful
hosting
complaint
ladder
krust
sculptures
swords
bergen
hymn
bells
##hist
##bot
##lord
##ancement
billed
grip
kahn
neutron
dawson
hemingway
venezuel
celebrities
hire
##itus
exchanged
sperm
loans
villains
harding
punct
broadcasts
exceptions
rosa
consultant
sophom
choreography
binary
ely
lass
atp
shy
braw
daylight
deficit
designing
barrow
valentine
factories
discovering
##marine
occupying
heroic
ornith
phantom
ecclesiastical
##ente
##agne
compuls
decoration
liu
slide
slayer
hitch
practiced
laden
jointly
depictions
utilized
dragons
overturn
mgm
counterpart
..
jma
enroll
resume
quot
continuation
mcn
ethics
planetary
##rels
censorship
gambling
##mid
##dr
alley
shapes
ener
##anni
bret
equality
getty
ambition
sympath
anglican
sesame
moll
verb
awk
conversely
nineteen
metaphor
##odied
plots
antio
accepts
1836
pamph
fisc
##11
##kill
##lean
regent
justified
sounding
periodic
eighty
deny
haiti
intensification
falcon
1776
ellip
utility
cuis
reopened
unemployment
consec
regul
##oupe
olds
eleanor
posting
authored
contingent
cites
elong
endemic
persistent
confession
theatres
blocking
delivering
xen
pradesh
insert
backgrounds
puzzle
barton
wisden
peasants
residences
moisture
unfortunately
wednesday
dong
wimb
clo
underm
stranded
governance
respir
storyt
priory
burnt
karn
mountainous
dialect
catalogue
counterparts
claude
unstable
awkward
vag
##zo
herzeg
attain
longtime
urging
melting
punt
impacted
1837
benedict
tud
##sson
##aa
unions
stealing
venge
arabia
byzantines
cottage
crocod
##iem
##urai
##manship
overlap
aboriginal
energet
##lot
##urt
##ogs
flint
slender
astronomy
nutri
certificate
ism
envelop
feast
specially
expend
module
antilles
blackburn
debates
negro
webster
abdul
guatemala
vishn
##irth
emissions
obtaining
italians
groove
granite
zimb
##ders
##kind
##lend
federer
domes
krak
submission
cantata
concurrently
maurit
ek
##elius
##uling
unbeat
labels
arabs
gunnery
stoke
peac
occurrence
likes
wilderness
wrapped
boul
##ye
##omans
aligned
prone
##boats
informs
resembling
amazon
intimid
hardcore
zagre
anten
covent
emblem
wimbledon
stellar
bea
accession
providence
solitary
telugu
melodic
auburn
jol
sf
##say
##othe
fruits
neur
##ourse
seth
hyph
##ogenic
lonely
##farlane
sizes
##ouk
##andez
##opy
downs
balloon
galv
ecological
cadets
rituals
muller
prestigious
plaque
yosh
##caster
chocol
decree
##tym
issuing
accounted
unfav
zagreb
##inas
compose
monetary
duff
##fork
##inks
##ulative
starboard
visibility
extras
determining
guerrero
bankruptcy
e3
##sten
##terson
##ucn
##bye
gases
virtue
eclip
hailed
kits
rall
tying
##rill
congo
shorts
morality
hamm
cannons
terminated
confronts
recalls
orkney
eps
crush
cyber
campaigned
logic
texture
devastating
eruptions
goaltender
mell
versa
debts
seeks
uncommon
dismissal
undertaker
gaelic
iucn
oc
##amoto
neb
syrac
305
realizing
##loo
##ochond
rabbit
incredible
lever
consoles
organizing
##suits
ideology
francois
banking
synag
talented
dressing
seventy
subordinate
outlaw
artifacts
prolonged
superintendent
bung
pater
stakes
clown
warb
persecution
##ahu
protesters
burden
shoulders
identifying
1839
hyde
insurg
wanderers
heinrich
gel
gong
ls
##dot
##ongh
chau
carb
syll
subpl
royalist
dorothy
update
reproductive
carniv
crosby
prosperity
tolkien
tremend
atom
intensive
##assium
underc
##atha
locks
moff
cycling
congressman
gamma
bombarded
jain
##mare
##unct
demons
captains
membrane
##apeake
objections
khrush
hawks
unnecessary
erupted
kau
rim
vid
vass
##xton
##step
conrad
owns
propon
candy
crypt
promptly
cadet
andrea
fertil
mclaren
enzymes
trinidad
kart
##nant
booker
careful
programmes
dispersed
olaf
abbot
firmly
correctly
luxury
fuselage
diane
loosely
wemb
##vara
##abwe
marina
decent
##ibles
repeal
profitable
pressures
abbas
voyager
surgeon
etym
##rano
##via
append
indo
secrets
happening
ceram
ankle
kins
nave
envision
brent
rox
eminem
survives
liberals
integrity
syracuse
kron
screw
abortion
amalg
curtain
satire
sinclair
puppet
khrushchev
dl
ditch
hag
jut
surn
##esa
##ocar
exotic
leased
##ghai
sunset
wyoming
vertebra
marathon
jill
pits
##parts
compelling
matilda
humorous
inflation
waited
ero
mw
uru
outflow
outpost
potassium
balanced
460
gravitational
transmitted
shifts
dirt
emotionally
kannada
lumber
funnel
cultivated
hostilities
libraries
confederation
retreating
cease
weighing
stupid
hampered
lak
tant
##raged
##atos
prair
armist
corrupt
solic
settling
pinned
conscience
nursing
besieged
camouflage
incumbent
krusty
zimbabwe
hyphae
tapes
##bands
##olar
kne
crim
expired
protector
replica
referenced
##attering
certification
herzegovina
wembley
##isy
beef
arches
##rup
downstream
gunfire
temp
picking
bates
pile
##bes
ish
crushed
advers
dominion
composite
ninja
expeditionary
recruits
chesapeake
concurrency
vernon
kemp
ci
mates
##esy
##elly
##agher
shannon
tragic
desk
differently
breakaway
spanning
cartoons
strategies
tuber
mammal
wolves
innocence
##asis
incap
ruin
latitude
1835
paired
deposited
saskat
obstacles
precursor
tuls
shadows
marion
sheer
charitable
majesty
attractions
accurately
echoed
duchy
brittany
psychedelic
##uana
##irk
##uli
americas
50th
woody
reacted
venet
risks
obviously
cripp
##lore
##vant
##enza
noir
christina
entirety
tomatoes
constituted
1799
bleeding
pitchfork
dictionary
##cin
##erie
circulated
suspects
horizon
miniature
paradise
codes
differed
angered
moons
walled
marty
impacts
lauren
isotope
stricken
leipzig
fiscal
cus
nk
yoga
noon
##phis
postseason
hunger
madras
budd
bede
randolph
hipper
coincided
##occup
hutchinson
np
##alan
distress
broadside
1870s
ottomans
vacation
eugen
relegation
aberde
counterattack
horm
##inished
anzac
slaughter
maggie
inserted
tasmania
splits
pipeline
neuro
##fied
clips
abyss
insane
irrit
scream
practition
1860s
evaluation
shanghai
galveston
gol
lec
puck
##opot
anto
sentences
complications
jewel
1838
bono
mandatory
rendering
##icle
surve
technically
robust
novelist
folklore
downloads
##cos
stack
incon
marian
##gren
##racted
infect
informal
discusses
teachings
belongs
excavated
ironclad
lum
nwa
stained
shap
##quit
baroque
protested
patches
hungar
docks
specifications
warehouse
courtyard
unbeaten
##ouch
brave
goodman
bulld
missionaries
mutiny
astronomers
metallic
yuc
##atics
##oken
labelled
technological
excellence
inscribed
coffin
answers
suspicion
database
tz
##elect
ree
healing
exeter
unav
1829
clarkson
barrage
gentleman
digitally
sew
weston
moreno
strips
minds
##uxe
webb
##enhagen
redevelopment
##powder
rehabilitation
hpa
rbi
vector
##rice
##eur
tok
beaver
courthouse
sixteenth
breck
bayern
##ographies
experiencing
##hrer
cobb
ces
gan
hairs
hew
upstream
slug
expecting
brett
augustine
gunpowder
satan
fauna
alike
intentionally
advisories
enforce
thoroughly
trevor
iphone
carson
continually
attracting
websites
exceeding
kry
##cill
inception
bras
prehist
sao
davidson
surfaced
marketed
microph
continuity
julius
rican
##chwader
vladimir
retrospective
ferm
stalk
rejection
disast
attitudes
noct
raiding
totals
failures
reigning
unfinished
cockpit
answered
##abl
dispar
founders
##etto
administrator
airports
nazis
ukraine
loun
mould
convex
unrelated
amids
fey
basically
rivera
investments
1842
ensued
vigil
parasites
hedge
deities
##ateral
outrage
235
councils
granting
##stonecraft
410
bowlers
definitive
czechosl
mantle
fingers
wollstonecraft
reint
##usions
leak
##ahan
heaviest
380
prestige
revis
helmet
deluxe
visually
salford
emergence
ranger
##dington
reconstructed
lgbt
vishnu
surveill
##idd
adoles
presidents
councill
mistakes
disposal
plasma
amidships
io
mum
nos
##adian
rematch
stressed
cheek
taxi
1831
480
##agnetic
pianist
episcopal
sacrament
habs
##tor
##idan
befri
grades
##eason
blades
instantly
andrews
tallest
marginal
cretaceous
##arius
##elman
beech
dishes
limiting
examine
reformation
mistress
sabb
sympathy
overlooking
metabol
nottingham
thief
immin
strongh
diverg
inflict
cultiv
##look
bombay
masterpiece
wireless
metallica
hv
##kie
##arin
notorious
preseason
willow
disappointing
cliffs
trunkline
bicycle
ja
##mph
##person
northumberland
copenhagen
wilf
probable
renumbering
constructing
giro
1801
sacrific
surveillance
boring
soup
##nance
##ðr
##uta
oppose
inflamm
temperate
baptism
seventeenth
cull
##19
##fle
##eroy
indication
privy
citadel
ensuring
##iliation
neal
grind
outn
buchan
##fields
1843
intersecting
choral
archaeology
bie
thi
##eces
##ibald
edit
departing
escorting
juveniles
unexpectedly
rerout
aif
agenda
##load
derives
weaker
modeled
1815
customer
##amorph
##agements
203
prinz
##astically
blunt
##oya
##arez
idaho
exploded
cultivation
professionals
spokesman
dos
##stidia
bug
smugg
criticizing
catching
phel
##finger
firms
##irez
financed
##ometer
questioning
taft
remixed
autonomous
rented
tempt
##kan
##face
##imi
seap
##odont
coined
cents
invinc
ambush
omitted
pirate
inexper
##wau
enlight
##orman
outsk
superb
identifies
interpretations
deliberate
gentlemen
corpse
sodium
minerals
gad
wage
##pm
##onts
trunc
winnip
obsol
dupl
futur
puff
nomen
isabella
sophomore
ducks
##bons
##idays
eponymous
sloven
markings
handic
individually
rolled
straits
mitochond
lambert
consulting
overthrow
infinite
##acious
paragu
engagements
harb
discarded
refurb
suffrage
ramirez
tips
##onn
uncovered
enjoyable
explosives
matthews
repetitive
presbyterian
georgetown
bly
bols
jumped
##asive
repuls
##uesday
reprise
middleton
mickey
beneficial
cooling
towed
mathematic
nikol
outskirts
cairo
rogue
##uj
##zan
relate
defl
defenc
governmental
duel
erin
##borg
coordinated
aggression
killings
goodbye
fleeing
pigeon
superiority
retrieve
cunningham
piv
chev
freeman
happiness
columnist
dartmouth
ae
fou
tuesday
##nia
timeline
##urnal
backl
numbering
defendant
nicole
glaciers
winnipeg
baja
ya
##icating
##oki
##ounts
belly
barometric
europeans
ordnance
ruff
likened
1809
1794
randall
levine
shifting
pact
##avier
clover
locke
dams
225
sexes
1798
dreadnoughts
##tles
exiled
##isha
##rition
overc
himm
barric
excit
doubts
frustration
clinic
algor
fitzger
oxidation
nir
resisted
applying
collided
personalities
demonstrations
upgrades
leafs
autonomy
psychiatric
cylindrical
bite
tosh
##icol
##utz
formid
fifteenth
memphis
tombs
850
enlist
couples
interception
nr
##15
stanton
congr
##illas
##ardi
sunsh
alexandra
imminent
stain
usaf
emin
teamed
germanic
auditor
depressed
resembled
scrut
destructive
null
wur
##iffer
##akov
monten
barker
collar
lethal
irrig
catast
malaria
targeting
santi
trends
lenin
affiliate
chromos
fitzgerald
pd
stems
humanitarian
rapids
allegiance
obscure
kidnapped
pemb
tah
##function
##orrow
fluct
##alez
barack
greeted
christine
electrom
sarawak
vacu
mariah
##antha
auditioned
embedded
disastrous
dumb
hare
wig
##pes
##atine
rework
supervised
tunes
gibbs
##strom
contradict
ineffective
habsburg
athe
uncomfort
cornwallis
facilitate
remastered
obsolete
ios
kany
##cu
stole
undergoing
doom
crem
acquiring
flexible
bismarck
magnificent
bould
lakers
nude
partition
canning
##inda
backs
macl
religions
dominate
lifes
hassett
prevalent
mash
##stage
stalled
##herly
leh
disorgan
filip
colt
harald
justices
equity
##bourg
displaying
enhance
umbre
disorders
bryant
chocolate
cake
kant
heather
##apy
invis
possibilities
lightly
madness
bike
dispers
cinematography
morm
sis
sally
wad
ono
shake
incent
amster
elvis
snakes
touching
lotus
clarence
canton
salvador
alterations
yielded
clyde
lips
##tical
##wyn
##uld
##oused
##ondheim
strained
transf
provoked
demise
essence
1819
problematic
bolt
spartan
mimic
gonzalez
vett
albania
guides
instinct
grouped
30th
nightmare
violated
facebook
expresses
correspondent
stripes
##hardt
vermont
2d
##nc
##eting
staging
clients
subgen
racism
batista
financing
1814
asserts
energetic
##waukee
dried
jub
ner
thy
manit
interchanges
meal
underway
popmat
affects
illusion
thomson
contributor
appealing
rumble
romeo
plenty
envisioned
popmatters
zach
##isely
##advant
chasing
lep
##quel
backwards
##ismatic
europa
holdings
sanction
greenland
tariff
tribun
intensify
lester
anticipation
hepburn
walsh
bolshe
cw
##heed
##esi
arj
disadvant
oldham
synch
penny
defendants
bunker
cuisine
crimson
lub
lana
vend
##pole
##este
neville
truce
##ostic
outline
viewership
footballer
blew
penguins
sard
tatt
##oub
##andra
prelude
centred
showcase
modification
evergl
martyr
1820
jenny
consulted
##hawk
chords
aberdeen
bax
okin
##eche
claus
rao
grounded
denounced
surroundings
1793
municipalities
millimeters
ding
nons
tails
##orrh
##thy
feas
volley
goldman
spinning
shirley
culminating
yucatan
##eters
glorious
superc
viable
29th
heroine
discharged
devotion
homosexuality
habits
inheritance
reperto
moffat
amsterdam
everglades
yah
##ook
##itian
##quez
mcd
martine
punish
huff
rodgers
rotating
tavern
criticisms
corpus
nhc
coke
euc
mb
tus
##thood
notre
reloc
polo
##itsu
constraints
##insky
commando
##appers
animators
costly
tunis
strikeouts
decorations
taunton
vhs
##cip
##care
##oran
bruss
mare
smok
crab
midst
fathers
cartman
eliminating
confirmation
##ych
##ser
shores
holder
##ijuana
rehearsals
perez
dwell
ebert
braun
contamin
warming
sah
ambulance
suits
braves
mets
communism
refuse
vein
campaigning
homicide
rebecca
licence
gustav
galaxies
bree
panc
xv
##rust
##wr
plank
##abi
clap
herc
coordination
walton
kickoff
megal
anxiety
jaguar
rost
rita
zu
scan
##oku
upheld
peggy
skating
protagonists
215
stationary
suscept
illustration
1775
sponsor
borneo
congrat
lact
##stones
amus
insign
ultra
implied
ernst
wisdom
guidelines
bosnian
nigel
nails
pension
##iden
##idas
##iae
##onder
wein
para
1500
##space
prevention
mascot
lindsay
gillian
naples
comedic
ioc
mound
forem
chrys
##agua
ads
evan
slim
loft
detention
standings
irene
judici
tomorrow
treaties
chicks
gateway
wheelchair
criminals
buffy
bruno
fulfill
voluntary
bland
nero
##bral
##vana
##atile
##ilib
dee
206
brest
maz
este
argu
##market
cooperative
aiming
dickinson
crusaders
rewarded
monopoly
geneva
tremendous
himmler
formidable
iz
picks
alec
spelling
godwin
minded
oceanic
owl
piz
μm
itv
sham
subdu
terra
void
##mington
keynes
breakfast
celebrating
bureaucr
rehearsal
marlborough
tributary
tudor
##kef
employing
progresses
proclamation
redesigned
humphrey
ego
nina
thesis
##champ
##assment
singular
##loe
treatments
mandate
velvet
vibe
fernando
titanic
celestial
armistice
staun
##irable
clade
worry
nightcl
hunted
fortunes
breeders
sighted
etymology
kaw
##tering
marse
carm
parat
##ennes
##anya
cyt
commissioning
plantations
1792
spectral
gamec
olivier
johannes
welding
brussels
congestion
##agasy
brach
enduring
stranger
milwaukee
shortages
restoring
destinations
wilkinson
1850s
moses
sculptor
assumption
farewell
bian
lah
lump
theological
unim
unse
##cci
lateral
soils
appointments
oriental
##anthrop
malaysian
santiago
komb
##orable
inacc
marco
concession
equation
samar
climbs
scripted
feeds
rabbi
disagreement
hulk
indefin
sunshine
catastrop
inaccur
benson
ganes
mog
wagon
wanna
##zman
spells
##ansen
milky
everett
casey
intervene
cricketer
resistant
volcanoes
prolific
wolverines
cumberland
tik
##erun
diverted
persist
resting
commentator
salvation
infrared
airplane
##utors
weaver
addiction
##appropri
malagasy
widened
payne
owed
disappearance
phenomena
reverend
rendez
redesignated
rhet
unchanged
chef
##odynam
freshwater
ronnie
peasant
repertoire
dit
lund
##ør
foraging
##abul
##anti
##ogle
facto
traders
chaplin
sandwich
savoy
supplemented
morphology
hiros
botanical
paralympics
nj
vie
##wal
neon
relates
timothy
monitors
anyway
jeop
encirc
escaping
##baum
trafficking
340
fixture
shankar
wenger
##ilated
flam
emission
pepp
landmarks
cald
salon
talents
1789
frogs
clayton
scholarly
overlord
aph
##itution
##berht
fined
colts
brooke
albanian
hitter
motiv
1804
mitch
cambodia
clifton
kash
nod
pinn
##leigh
whig
exits
incub
allison
carne
minaj
transcend
lasts
georges
iranian
reservation
leopard
chopra
umpire
chimney
cromwell
##ompression
##istani
transpar
proving
freak
narc
graduates
1825
ipad
cf
hiring
##omal
allot
outfield
charming
everywhere
daven
negatively
1824
chemicals
pigs
avalanche
muk
pie
##chus
##ighters
reli
townsend
devi
employer
ethn
1795
charleston
ahmad
exploit
##enzie
fowler
casemates
azerbaijan
synagogue
umbrella
ions
nmi
##wi
inund
warn
skept
nasser
bizarre
quartet
noun
##giving
##80
##staff
##lywood
byr
prague
##atham
##obic
reduces
mccoy
delegate
biden
commemorative
prospects
obliged
deception
exaggerated
sejm
--
##ride
##leased
alum
##bern
##aze
homeland
tyres
adjo
consumers
pakistani
lionel
##chel
##50
enric
##aea
garbage
piers
alternating
roses
1810
vickers
oryz
rendezv
eul
rift
##yards
##atl
##isk
toil
alma
overhead
differing
hotsp
premium
1797
headquartered
pipes
turbine
satisfying
dorset
uncomfortable
vain
zack
##utnant
whip
##emn
marriages
relinqu
##plant
mats
discs
dissol
coloration
perfection
davenport
kok
utt
witt
##itivity
##omac
##leaf
commissions
sanders
1805
1821
measurement
sellers
folded
kilogram
judiciary
eri
pistol
##ei
wholly
pratt
contender
treating
concerto
monasteries
##hawks
colombia
bb
##erl
##ivo
##iston
helena
ingredients
##yen
adorn
26th
commercials
trainer
##hetamine
undertake
enforced
##arians
##enb
##ifiers
##plus
1833
1806
procession
searched
accomplishments
academics
saffir
kombat
yuk
##eme
##emann
premises
rhin
conclude
precision
undefe
compensate
cory
##13
##emia
framed
##ongs
##ellus
##integr
monkeys
convict
explores
tenor
290
nominal
investigators
naturalist
sands
vener
vegetables
dockyard
excavation
unreleased
elephants
mozamb
ethanol
undefeated
cors
fence
het
hib
kad
rans
tate
wavel
zap
##hele
retains
mya
letting
wilmington
photographed
groening
griffith
overlooked
surprisingly
tributaries
hungarians
##hm
##arity
herd
glaston
malvern
paleont
pluto
eurasian
tae
##mere
thur
##ailable
angular
275
##ynt
##aji
volunteered
neighbors
unanimously
##ataka
##oping
butcher
amn
##ango
characterization
propelled
##afi
##pleas
discoveries
steamer
bikini
midfielder
overhaul
fraternity
vertebrae
pud
stub
alger
conan
spine
amir
regency
mao
pressing
competitor
boarded
applaud
precisely
improvised
alphabet
glacial
inverte
unanimous
ez
##game
##elope
##aden
ammon
##oxide
ignor
ruby
elongated
##foot
##inch
forens
##quest
passive
adviser
variously
hanover
vicar
float
fishermen
nadu
tackles
hydraul
mauritius
arguably
##yah
##wen
##ocative
gerard
##obil
28th
trauma
stevenson
ramps
carnival
fay
##rat
##base
##ος
##itte
##itism
##eles
##icho
decks
dolls
decreasing
hazel
hogan
overwhelmed
tolerance
alamos
kob
##ilon
##aby
aden
resent
##ports
convened
patterson
prizes
suffolk
erlew
decorative
innovations
reluctantly
poker
glastonbury
erlewine
hm
kell
##urated
outright
finances
smell
smile
refined
equilib
ode
##ihan
flashback
rhythmic
kitt
lys
##isse
toul
##adh
newcom
raided
archie
productive
##harmon
wavelength
hbo
##alli
brend
glider
posters
separating
screenwriter
catholicism
piper
enterprises
exports
honduras
blonde
jas
##vol
##alach
##iler
twisted
##onduct
##spe
junta
infections
potomac
premature
bonnie
brady
610
collectors
sophia
autobiographical
##building
nell
##hea
unsc
scler
boone
charging
invade
villagers
admit
reasoning
substances
3000
complexes
niagara
bollywood
hearings
prairie
dix
waugh
##waters
chu
arter
flair
bluff
bucc
tops
mascul
regimental
soundtracks
axe
pyth
paralympic
storytelling
paus
arise
blitz
styled
higgins
bays
alternatively
coward
vulcan
coordinator
phrases
nassau
prosecutor
breckin
katherine
stint
fritz
##asted
##ovar
branded
##grass
quater
guin
macfarlane
tung
licensing
confederacy
cleaning
kanye
airstri
##elee
infring
##ylon
bombed
berger
scheer
pronunciation
derivative
##acs
##ials
sheets
intermitt
##iban
eddy
adverse
ida
halft
##sche
reprinted
hyder
clearance
pennant
talbot
splitting
ninety
packaging
##gregor
rigid
airfields
filmmaker
##elihood
vacuum
glands
ink
arte
finishes
somehow
lawn
combines
giov
journalism
advantages
frederic
treasurer
catchy
syndicate
exploitation
chloride
kylie
jumps
litt
mps
##iances
coy
cooke
##vester
limb
oversh
jerome
teenagers
convinces
triangular
##stadt
tiles
##owitz
shor
310
##forward
assisting
oswald
lifelong
surreal
stretching
wessex
align
disintegr
flanks
##unda
dealer
venom
precedent
jarrett
astronomer
suspicious
mourning
phelps
okinawa
rs
vale
##the
##gage
##gio
##alis
stipe
alv
heal
compatible
endured
crude
##identified
corv
ideals
corporations
pulp
fisheries
excitement
vettel
erik
hos
ramb
sinc
##tures
forc
cane
epstein
anybody
calais
soci
tuned
1834
translations
analyses
voltage
wigan
##nals
probe
hered
decompression
##ropods
##ysc
systematic
##iii
responding
cognitive
motorcycle
martinez
##arios
##idy
timor
disg
dob
archive
snap
hostage
verbal
absurd
ambrose
bedford
necessity
unlock
sterling
motifs
manitoba
crowley
barrels
staircase
seizure
vaughan
qf
##bling
##notes
##fan
##icious
##amily
stag
##ulator
overrun
canals
##amped
deposed
apology
garner
prediction
risen
piercing
capitals
inventory
interfere
reintrodu
kara
lust
tally
tug
##uf
##elg
plural
eliot
justify
lineage
garrett
intervals
1790
synthetic
conspic
pottery
eclipse
lur
uc
##beth
ascent
##ochem
aground
ambitions
adjusted
tissues
sectors
quatermass
##aparte
##oks
keel
##otta
economically
##ophon
miranda
ethical
exhibitions
owls
crowded
invisible
seld
vor
##yth
##wit
##aton
chased
overly
consul
detained
rested
catcher
journals
converting
ancestral
advocates
confiscated
##yo
##andro
seism
amen
everton
connector
wrought
##ija
1828
rockef
zepp
motto
soprano
halftime
vind
inappropri
herman
elk
coleman
harp
stephan
augmented
geometry
authorised
bias
execute
extrav
depths
physicians
surname
outnumbered
bye
plague
contempt
aging
entrepr
canadians
lyon
descending
kerry
patriots
reyes
emancip
morocco
hue
makers
ust
##adin
##opa
brush
amin
megan
totaling
garland
##maid
mccay
compares
implies
sponsorship
coden
ravens
neglected
nostalg
zhang
inevitable
##abulary
toby
trit
gris
playwright
winters
obsessed
motivation
turbo
hereford
1796
requesting
exercised
levy
ryu
buddhism
pixar
##naeus
##electric
bount
lens
zah
##rar
##ician
shame
consume
belfast
##erner
##ikovsky
listened
probability
oceans
rowland
tolls
theorem
cosmic
satirical
kul
kod
tire
android
##ecuted
stays
notices
afl
commod
##atta
divert
tottenham
##sha
eyed
flynn
ambient
hangar
bunch
karnataka
mozambique
mab
##alm
##church
germ
fleets
apartments
1816
carlisle
747
quietly
passionate
liberties
rko
##illion
accessed
schne
redempt
advancement
arrange
fortun
briar
suprem
earnings
exported
pupil
succeeding
nordic
kubrick
amusement
mons
##pox
##onal
##ocyt
whedon
##print
midship
peterson
histories
rails
messenger
adopting
wrecked
renovated
pedestrian
spontaneous
kitty
##with
##60
bean
byron
exac
plaster
##awi
barriers
refres
wicked
nichol
dragged
terrorism
guerrilla
pneumonia
mug
rory
##lov
##nt
shrews
##ondo
schwar
curs
listings
silva
employs
expressions
lesnar
nike
deposit
britten
recruitment
lantern
dose
tara
##40
##oso
orion
dres
myers
grief
addressing
buchanan
rerouted
fission
kip
vatic
ws
stig
##emi
infants
mounting
trailing
mystic
lithium
agreeing
dungeons
immortal
pivot
breckinridge
exacerb
gin
##bie
##tland
##gil
##urities
arrows
spun
lowe
merge
philharmon
bonaparte
sudan
napoleonic
sparta
privileges
kumar
cic
pter
##amo
mahar
saigon
gerry
painters
390
advertised
codex
deputies
fulfilled
dungeon
akin
##ku
suppressed
extensions
demos
silly
rowed
addresses
jurassic
##ozo
absorption
##points
##enzo
cinematographer
dental
##rand
##fried
muss
##indy
instability
lineback
philanthrop
295
instituted
kenya
switching
##keeping
urugu
rockefeller
pom
##icides
exh
inclined
marijuana
emerson
monastic
minh
eden
salem
silicon
nationals
candidacy
patriotic
entreprene
pens
##hus
asym
abbre
disgr
disreg
flaws
quote
bela
impending
##horst
hammers
engineered
odys
cables
nicar
sediment
amendments
draught
vengeance
hs
vint
##banks
##amas
amended
severity
crete
gloria
##enched
##erville
100th
holidays
salvage
yeah
subplot
damp
ejected
kou
sage
##beck
##pie
##fi
##inald
##onne
unin
abe
warmer
registry
attackers
odin
stanza
contestants
sidney
brawl
paternal
##hanna
##asian
##ongo
deserted
parodies
regina
downgraded
approve
pauline
embark
benefited
ghosts
encyclopedia
dic
pending
##ingo
fru
2017
meals
protocol
insists
structured
wildc
gallip
dismay
surveyed
decreases
exploited
unconv
ludwig
epithet
siber
##otus
plunder
outc
discography
supportive
visions
infamous
40th
torr
olga
precious
charlton
dubai
hungry
implications
##adowed
alcoh
ridiculous
retaliation
gond
jum
wield
##athed
##urus
##irs
unfor
combinations
rhythms
physicist
gesture
inconsistent
##fleet
cac
istan
##acker
afc
scutt
margins
relying
gob
outages
outlook
vars
gloss
marker
donkey
wooded
elevator
conversations
explosions
sabot
mentally
landslides
kappa
lal
##zh
topping
conson
estuary
barred
royals
italia
judy
acquaint
440
gallipoli
tad
##rud
##mium
##entin
##imited
spends
contention
proves
denis
##liest
minorities
taxation
examining
unsure
earthquakes
##houser
##runner
##orse
##oche
intric
assim
surplus
singled
##tenstein
captained
selective
railroads
proportions
concealed
searches
plagued
istanbul
ahl
dahl
och
rn
sina
ingen
##agram
##earing
##ease
shipment
avengers
possesses
1818
embrace
compulsory
bis
cet
##etes
##leod
mangal
##uble
upwards
bloc
underg
organism
pitches
guarded
preferring
ariel
scarlet
analyzed
neutrality
macedonia
abnormal
##aris
scroll
alloy
reliance
##hesis
persia
squar
constitute
caud
solidarity
janeiro
commemorated
extraction
nursery
patricia
bieber
cone
decim
peel
predation
mastering
odi
observes
assaulted
neighbourhood
marrying
antibodies
mcclellan
athenian
semifinals
lj
inert
stairs
whist
chili
##oding
crying
contrasting
comprise
symbolism
peloton
diversion
vivid
yak
##atops
##empo
splend
perce
drinks
prevailing
cheaper
##shaw
sunny
samantha
jericho
ecw
thumb
##oco
tricks
earp
mayer
daytime
dred
travis
khmer
prescribed
nomencl
gamecube
equilibrium
dion
anter
trondheim
worm
invalid
equator
golds
holders
transitioned
reorganized
stefan
shepard
galileo
fundraising
electromagnetic
zen
chun
projection
brands
amor
##intosh
assumes
##eyer
wills
gliders
prophet
flem
massa
camel
informer
##govern
threaten
libya
dwelling
honoured
picard
uplo
rbis
jutland
lounge
fury
pour
vuk
za
##lund
alumin
seaf
##flin
lowell
cruising
birch
causeway
pleaded
koh
simultaneous
witchcraft
gandhi
unavailable
hoy
jard
tart
##18
stump
atari
commuter
overhe
outward
phyll
nominate
exceptionally
simplicity
oscill
vikings
sustainable
hierarchy
dd
dul
gull
hilar
rw
##inating
##inging
disability
##into
acet
metaph
suppression
confessions
freighter
revolver
hartford
phillip
penetrate
embraced
resonance
clifford
hick
niss
rca
wik
##acies
deaf
##akon
compelled
usc
carriages
endurance
##clc
patrolling
primates
galleries
##zzi
pulse
actresses
reservations
riverside
nichols
drifted
spokesperson
jedi
gyp
nac
paced
pants
tard
##zyn
inad
chast
shu
allig
##endicular
##formed
bests
damon
cypr
influenza
urine
violet
##trak
##chewan
boris
collaborator
unfair
jacqu
coordinate
##roded
klein
evolve
##grove
ambiguous
bisc
wip
##arc
inact
enam
beginnings
malley
commitments
conflu
nicolas
perpendicular
venezuela
varsity
nw
yog
revive
nowhere
petty
selen
mcgu
##roads
cellular
assaults
kicking
backstage
depleted
##street
##acter
hebr
##illand
unm
unic
filters
openings
waterloo
##entional
cycles
proceeding
mesa
spartans
bruins
insistence
bery
jug
##mars
##gau
##phe
##robe
spat
hermann
britann
skysc
transferring
racist
galactic
##breaking
ricky
stevenage
judgement
aesthet
gaps
##worm
tox
##ayana
chol
flats
indul
parth
underworld
schmid
universally
##encia
hatred
intercontinental
saskatchewan
##uber
bram
##igny
expo
barney
stargate
antic
omn
feudal
pledged
impedance
repulsed
nay
##pur
##sted
enig
bran
compare
subl
generous
midland
experimented
berth
cancel
admiration
logical
contrasted
weren
pilgrimage
redemption
skyscrap
fiance
##inet
##cephal
shi
arbor
clashed
##azar
discretion
postal
selections
flyers
dunn
witches
synthesizer
inauguration
toxicity
indirectly
antiquity
prejudice
sabbath
##itri
##igibility
grac
sociology
copied
practically
paulo
conceptual
##kinen
bulls
atlantis
rouge
tramway
spherical
giovanni
foll
mfr
parap
elm
smallpox
sunlight
painful
tyre
haul
penned
enjoying
fashioned
havilland
ik
##zhn
##erton
plun
generators
collier
equest
sentiments
pastor
contestant
detailing
blowing
mongols
haunted
flattened
venetian
practitioners
byrne
fiji
gert
lw
ought
sif
##otle
##oughton
disruption
meadow
thanhouser
presided
doyle
combs
robbery
linnaeus
extrater
earnest
substituted
wagons
suzuki
zombie
northumbria
buddha
zeppelin
auck
bored
dair
pity
##frey
##iza
interred
emil
buoy
harriet
successors
helms
builds
archaeologists
consuming
checked
cortex
pseudonym
trumpet
zion
##hound
##mire
##tford
##angu
meditation
##brand
turtles
mccorm
substrate
1827
rowling
saddle
##ogenesis
rabb
symmetry
carnegie
alcoholic
kov
reiter
##ifiable
regulated
avery
transporting
ramon
640
aide
##iches
seaw
##oder
##ourg
abduct
wehr
##aceans
prequel
##icked
shower
patrons
moe
etty
falc
emphasize
1777
haynes
thanksgiving
reconciliation
sacramento
faint
yas
##itations
##leen
chalk
triv
attaining
genoc
stealth
favorably
38th
ashton
1826
immigrant
lavish
cochrane
dag
dump
ips
kess
pied
tiber
vapor
wulf
##stick
##adle
##iferous
relocation
outlined
##fta
schiz
constable
##annah
barg
nationalists
sworn
williamson
firearms
coasts
promotions
proposes
incredibly
reissue
yoko
conclusions
shrewsbury
hid
clare
intending
##ogene
yearly
charters
emm
airbus
scharn
islanders
refin
malt
forestry
mechanic
ventures
microphone
adjoining
rides
##wold
abdom
marg
actin
peat
nationalism
announce
fortification
biographical
##lessness
490
illustrate
mysore
satisfy
reminded
##oit
##elo
disemb
offence
overview
decomp
poole
wrist
brownlee
macbeth
mercia
unlimited
symphonic
obligations
##chaikovsky
ironclads
kendrick
abruptly
hitchcock
metamorph
annals
tenants
lynd
holt
berk
immense
ethiop
exclusion
azores
tactic
otter
trait
sponsors
##ranged
chrono
schneider
lily
oste
vogue
##isan
incoming
intro
grate
weiss
remod
edible
eastenders
cups
socialism
baden
hooper
1817
hanged
hansen
aluminium
aq
melee
nets
vom
##eri
energ
##iaz
##rae
capped
milne
originating
depended
##ussy
atlas
emperors
420
seller
surpassing
cavity
sleeve
iq
##zko
##olt
seward
mono
expose
suffers
crewmen
treatise
1803
mammoth
laurent
simplified
unconst
fertile
dresden
3ds
cnn
sake
##hops
##anity
##utory
fry
aren
clair
manners
##ollen
coher
mafia
socially
euph
hurley
##ropolis
renewal
ussr
##rogamer
laurence
relaxed
erotic
cn
mif
##nick
whistle
trams
meh
quotes
transylvania
extingu
lesson
burt
lyd
halluc
melanch
breakup
buddy
citation
1808
packs
descendant
paradox
outfits
immunity
linguistic
respiratory
tribunal
ile
ome
##buck
##ilocy
stunning
conway
comr
levin
spector
brenn
##ogly
canopy
invaders
##uala
austrians
eurogamer
gallons
sorties
wilhelms
resurrect
prehistoric
##maker
##ben
google
301
hearted
straightforward
660
highlighting
emerald
reassigned
conferences
irrigation
auckland
goring
sd
viz
wither
##ultural
downward
whitehead
premiers
robson
1811
functioning
numerical
skeptical
philharmonic
scharnhorst
##hir
##ratory
##adium
begg
sep
grupp
imaging
boo
default
objection
glut
realigned
solved
widening
wilco
synonym
astrol
destroys
enrollment
tubercul
dante
mersey
pasha
##14
##pers
##leep
##arya
herr
offset
huron
burrows
##headed
scenarios
textile
chaired
franchises
installations
illegit
fraction
synchron
shoreline
gat
##mind
##igi
friction
##ctica
##abh
clashes
avant
detach
kratos
1823
430
crafted
baghd
simpler
##children
inappropriate
cerv
joc
oclc
pug
qing
wasp
fres
##ulin
##oped
playboy
centennial
expon
delicate
squir
influx
denial
angelo
empower
jacksonville
##osaurs
dodd
optimistic
worsened
tones
##rav
##court
##itud
##ematsu
unle
cohes
evid
schl
obit
prevents
countered
gallant
celtics
disguised
phylogenetic
iro
##vine
notified
upright
404
##loid
researcher
employers
winged
##iseries
1791
landscapes
inaugurated
jenkins
asteroid
segregation
antioch
henson
vh
##si
##fest
unint
##ineas
upan
prototypes
infinity
funn
misunder
migratory
spinal
withdrawing
cheshire
sorry
willingness
artefact
confluence
ges
gian
gue
forested
greens
hunts
khalid
sheridan
revolves
pillars
anarchist
hereditary
rack
##orian
##thard
arid
##about
worsh
scary
norris
severed
screaming
macmill
gallagher
tao
mdot
dialects
unsigned
annexed
scandinavian
nicholson
abbrev
dove
##macht
##2o
##isal
secre
convective
gunners
drafts
sensitivity
forthcoming
amidst
overturned
maus
ratt
##zt
stocks
##emouth
heis
resum
disband
##acey
canvas
##otherapy
transp
autism
occult
dunder
recognizes
domination
boxer
1783
initiatives
processed
supernova
##hausen
disorganized
macmillan
##ivided
plaint
ench
##quis
takeover
activism
##umbled
balzac
travelers
1813
nsb
hyderabad
bs
eck
hint
krie
pes
zoe
##nets
##etics
slated
distorted
raikk
camden
hostility
undivided
monarchs
recipients
toyota
slavic
stylistic
supervising
byrds
susceptible
raikkonen
80s
mice
masts
woo
##ifully
graff
carlo
intersp
##pres
polished
slogan
delivers
turf
michele
levi
fellowship
gossip
dismantled
bungie
##fil
blur
transverse
discont
recognise
threatens
guardians
demonstrating
spokane
traum
laurie
millimetre
elliot
penguin
eroded
lup
ulys
##mc
##ums
suk
herod
interd
##isson
##unders
gunmen
lowland
purana
readings
violations
principally
lungs
absorb
elaborated
incarnation
nirvana
wehrmacht
bw
gome
vall
hears
##illard
lea
slipped
starcraft
254
radial
occupies
nuclei
aeron
1780
buttons
reinstated
seldom
nicaragua
cove
fused
koch
maw
ou
rak
tres
indict
##ropod
baseman
guess
##etsu
##retto
motives
hardest
controversies
altitudes
prefers
ukrainian
nebula
ulysses
ud
##ienced
deport
pry
bricks
millwall
caled
demonstrates
calculations
viceroy
acknowledge
dictator
pecul
barkley
kesha
underside
tink
##aran
##amination
chloe
shade
shoe
spurs
eligibility
maver
wherein
##ossa
donation
rapt
hawkins
miracle
shelby
casualty
gatehouse
negotiating
enclosure
suther
quadruple
bounty
schwarz
tuberculosis
hau
nath
##gart
##vie
forerun
##leum
eli
genome
invites
steamed
solving
##forth
fatig
flashbacks
holloway
aristocracy
grazing
landowners
stronghold
igu
kai
lug
vulture
##bys
##inia
##alysis
spars
clues
##enden
medall
222
workshops
##werff
undertaking
##hello
dignity
fidel
nightclub
paratro
forensic
inadvert
peculiar
baj
ct
ike
tchaikovsky
##kary
inmates
alto
clara
counting
booked
affirmed
cornish
torpedoed
comparatively
scarce
echoes
feminine
pamphlet
##opotam
hercules
mangalore
gdp
kuala
melt
uematsu
touches
##lements
fronts
##apo
##ogram
##iba
##atton
crashes
localized
chooses
applies
nicol
dalton
dodge
shafts
russo
monitored
annexation
vanderwerff
wilhelmshaven
gop
nile
##vs
beams
##ulse
##opath
computing
miniseries
milestone
##brough
merry
developmental
homest
radiohead
digging
frankf
conflicting
trusted
extracted
penetrated
nemesis
reissued
torchwood
czechoslovakia
truncated
vintage
cyprus
kak
isis
##ectors
##ellery
quir
confusing
reprised
khal
abandoning
lovely
liquor
advocacy
endorsement
dissatisfied
gos
hated
lille
##jj
brewer
cyan
royalty
drowning
savings
yellowstone
flanked
synthesizers
robbie
elegant
abdomen
cin
cgi
zam
##tter
##tail
##aret
beak
unesco
scapa
marvin
deserved
interst
diva
prevailed
waterfall
speedway
garde
cannibal
distribute
ratified
560
stretches
songwriters
densely
reproduce
lobb
sticky
vitamin
authenticity
rewrite
apprentice
petroleum
foremost
sutherland
1up
eust
hector
nect
amanda
pert
concessions
critique
corinth
yorker
chew
pitchers
seminary
007
wetlands
jacobs
auditorium
baghdad
gomez
pab
##cely
alm
splin
##assis
flick
accusing
noah
invading
##oyne
damn
wallach
mountaine
enjoys
1802
fuj
dalmat
ahmed
antarctica
privilege
disguise
##zhnev
kro
pasc
##anar
##alu
forge
leap
clone
parc
awes
incorporation
shutout
bathroom
forecasts
gateshead
nadal
resurrection
aaa
sylvester
merging
inexperienced
hens
lc
ngu
scept
##gang
toe
##leutnant
##uded
claws
countdown
##ancies
proto
handheld
213
chancel
coulthard
reptiles
calibre
conspicuous
upanish
##jon
##aguchi
allah
agar
upward
sof
dividing
##author
alberto
renewable
retailers
genetically
buccane
moul
##oros
withstand
brake
##orns
beloved
##boo
declares
inspiring
urs
ulster
mighty
logistics
laboratories
niece
hellen
interceptions
analysts
reverted
ramsay
tulsa
marseille
faw
jov
zeb
obey
shipbuilding
figur
boyle
burnham
ensign
yellowish
1778
satellites
sparse
havana
stamps
pumping
vatican
gland
wah
##rab
topp
##eco
scher
amar
relies
relics
##achlan
chartered
interval
quarterf
##steen
lutz
optional
yankee
redeem
isabel
spitfire
satisfaction
compartments
illuminated
muc
wards
thess
##orio
##idi
orang
ars
traps
timbal
##onds
disag
lara
schw
sims
anymore
timeslot
jackets
snout
captaincy
sava
murderer
sailor
aerosp
inherent
herbiv
epidemic
jakarta
apt
zy
##rained
##gem
##uve
comets
spice
hern
deserv
cheroke
##shot
bullets
foreigners
rosberg
1807
favourites
steelers
sensation
katrina
sophie
morphological
rejects
betrayal
nutrients
duc
vort
alp
anj
##ogist
##ryl
correl
curving
propose
funer
palae
melissa
1822
experimentation
taxonomic
condemn
choreographed
##jevo
antoine
invincible
enlighten
iber
piet
ubs
##oise
##wulf
shit
plann
slash
eastwood
entities
287
acquitted
capitalism
dramat
sora
ascension
yuan
bacterial
summarized
arbitr
kicks
keller
sled
##vre
##vey
##pat
##eded
##esia
unite
spock
spines
respects
raja
favre
cutsc
privacy
regulars
chaotic
cowboys
infectious
backlash
bits
dyer
mn
##hog
##pitz
sticks
bois
virgil
representations
graded
ourselves
bulb
distributor
1840s
bakshi
ceded
illegitimate
disagree
footh
##xy
alerted
##estation
##opers
leone
enqu
##ounding
manson
##inty
warns
statesman
finalist
destined
##geschwader
encouragement
myths
updates
errone
cascade
##occupied
scrutiny
hirosh
bale
cain
##his
##16
##fol
##iso
forrest
##icals
drained
paula
needing
melan
healthcare
abbott
lisbon
fragile
bypassed
porch
##ythe
ting
##mb
##lia
##onte
forwards
##ersion
##rio
shim
manpower
addict
##ysical
##inka
malaya
brownish
rhod
darius
lucia
repeating
synthesized
pioneers
hooks
stereotyp
rodrigues
nigeria
emancipation
waff
##alam
charities
severn
##itti
##rosc
augusta
##screen
burma
selecting
customary
rafael
courtship
diffusion
sacrifices
tirpitz
omega
sway
stela
##olin
recounted
comply
appalach
pools
diver
harlem
headline
skate
turmo
hamlin
psi
ridd
lincolnshire
recipes
chestnut
chenna
receptions
lutheran
reappear
defenceman
invertebrates
cody
tic
vr
##gae
##olini
agnes
willam
statutory
iris
sawyer
##chem
plea
spotlight
##uffle
imagined
ellie
wardrobe
faults
predictions
emigrated
posthumous
balkans
timbaland
boll
cary
kaf
peck
##hies
##arse
wholes
committing
parrot
epile
keats
storyboard
traverse
horace
costing
debuting
offerings
arcs
kirby
tightly
backstory
dolphin
gymn
beverly
laurel
amalgam
cag
hord
kling
##heaster
##agus
deprived
batch
whitish
coincide
predictable
subdivision
spaniel
turmoil
huss
ij
xl
##fin
eno
##azi
arrests
demograph
busiest
##ippers
##linary
accidental
diplomat
surgical
tortured
obstruct
nguyen
##heasterly
kv
wi
beers
prod
##ifting
roch
impose
finalists
midlands
equations
suffix
browne
ideological
progressively
mugh
lifting
lizard
breathe
wiggins
cair
lament
roland
siv
wishing
inactive
toad
chis
##rail
schwart
##itten
punished
haas
mercen
transformers
nomura
hobbs
evaluated
unconstitution
mh
unidentified
contests
northwards
gubern
##odeon
discrimin
christie
viad
mcdon
litter
marshes
obliv
assassinated
sigism
knockout
distracted
gros
##17
##orp
##icates
unpr
himal
medication
restruct
speer
photographic
impress
cartridge
graphical
archaeologist
lockheed
teddy
stereo
vigorous
philosophers
contaminated
##oj
##isco
onstage
secession
barlow
passer
requiem
catap
375
logs
pairing
clarified
journeys
extermin
icelandic
aurora
krakow
mifflin
interspersed
viaduct
dab
lure
tec
##90
##uns
redisc
antis
billie
broadcaster
robots
elevations
santos
bags
disturbing
dwarfs
luxemb
chilean
discouraged
vaccine
incorrectly
paraguay
aluminum
gubernatorial
nud
beard
alison
chate
suez
dew
recession
scrant
maori
guang
belize
morales
pius
masks
oilers
pronoun
biographers
pillar
hybrids
nickelodeon
liaison
cron
hmas
nascar
pell
##zak
##zone
##ecki
##apest
clans
operative
brezhnev
midwest
##aniel
dispatch
considerations
saxophone
sorrow
weaponry
refugee
reciproc
betrayed
wies
xiv
##houn
theolog
arrog
parental
assent
1600
greenwich
mccool
taxa
kras
confirming
dangers
harmful
appreciate
prefix
explanations
mistakenly
muscular
linebacker
undergone
hust
mard
rites
asleep
##agar
sob
defines
initiate
impressions
boron
vicious
trenton
bavaria
catapult
giles
##try
andri
scal
grape
gramm
##anson
monaco
##uga
farrell
croft
gradient
literacy
smithson
migrated
chorale
sieg
allev
cobra
prayers
magistrate
populace
zurich
consecrated
aerospace
bhar
cun
gc
omar
psp
##eka
##dings
##will
##jack
##jina
##recht
thai
##utta
condu
unreal
##ogens
carmen
outlet
receip
winding
takeoff
contractor
##islav
cancell
mutations
imagin
1788
gamers
rebellious
fascist
jagd
algorithm
lifespan
scranton
meng
sacks
##nis
dislike
##iewicz
headlining
irwin
budapest
eyewall
responds
cricketers
kissing
folding
relativity
brendan
perl
asset
trades
horrible
mixes
improper
cyclonic
empires
racco
mastered
emphasised
gaul
moody
stirling
equestrian
kc
kag
pitted
##litz
##enko
##rip
intake
perkins
attested
joa
squid
confessed
fallout
chiefly
1830s
tsun
cocon
baha
stereotypes
anxious
insurgents
extravag
cindy
hap
rink
vrs
##itas
newborn
alloys
blizz
reggae
deposition
keating
postwar
hamasaki
samus
greenwood
breakout
apparatus
mercer
##egro
nasal
institutional
flowering
sweeping
genetics
utterly
briarcliff
artefacts
##edict
tod
##umo
affl
##eye
phones
freel
judith
ambushed
trailers
ribbon
fluoride
gettysburg
awesome
hiroshima
lets
andes
neolithic
afor
thematic
drac
capac
##ementioned
signatures
realms
moran
assistants
preparatory
hypoc
fashionable
eaton
pioneered
bourn
kosovo
hydraulic
guinness
nomenclature
##cut
##tec
##rehend
##herty
##unken
shattered
unch
amassed
mankind
majors
refuel
royale
meridian
scenery
foxes
barbados
swimmer
neglect
ecosystems
jeopardy
odyssey
eh
jing
##ophor
aclu
surm
streaming
furt
humili
uranus
31st
practicing
semic
domains
egyptians
sadd
montenegro
vita
vangu
##zb
als
orr
trash
##ultimate
##spoken
freezing
denying
physi
likelihood
##holder
honorable
priestley
gamespy
pilgrims
##urgical
cerebral
gavin
futuristic
uttar
hebrides
willamette
ef
fishes
gb
tipp
##yne
unused
worms
resided
interrupt
revisions
barge
juvent
paterson
rollins
alternatives
globally
deliveries
mysteries
eurovision
disagreements
analogous
vandal
mercenaries
bum
dard
oro
##eni
atroc
anast
shun
sermon
endow
albat
generator
##ilyn
simulation
loops
imperson
despair
narr
##ofsky
renumbered
kerala
partnered
sioux
laughs
bodied
stingray
awaiting
nablus
kensington
mirrors
applauded
evidenced
wyn
##uo
##amiliar
orator
abrams
cannes
landlord
greco
raises
societ
donnell
participant
##faction
proposing
rodney
bafta
530
pioneering
cousins
cassette
podium
ostens
arbitration
pistols
transactions
amnesty
cherokee
ibra
uh
vc
##hole
##uh
##daughter
##ilo
props
resupp
##ueger
elias
porto
purported
activision
##trans
definitions
##rifying
mikhail
renovations
leonardo
ipswich
kuch
wain
wires
theres
wharf
chir
prer
spelled
mee
##text
regulate
monmouth
belts
juice
cutter
sarat
lottery
picc
paranormal
grunge
cloverleaf
scuttled
schizoph
bae
qur
##riment
toug
becky
carell
preacher
##veloped
curious
royce
confederates
saxons
resolutions
unreli
hesit
gloucestershire
esteem
aforementioned
fand
kiev
zhu
##atical
prow
johor
airmen
glo
denoting
dispro
libretto
fairbanks
drummond
munitions
##comes
restriction
explorers
brewery
ordinance
staple
rufus
demographics
bother
gne
vague
##cony
##leading
##illary
uninter
traw
recons
incurred
periodically
penultimate
35th
tablet
grateful
aure
hath
##rise
##xes
##igated
alge
exert
##ignant
##oko
becket
##pless
intoxic
0000
craters
proposition
crossroads
connie
activation
examinations
ecst
carlton
glasses
scoreless
grenades
hymns
swallow
impaired
intervened
genocide
homestead
vanguard
schizophren
jade
paw
ranc
##iere
##fighters
hertford
##ruz
##ilee
boer
larkin
titus
communal
professors
statutes
239
affinity
sampled
excer
reasonably
guarding
beautifully
documentation
installments
##urrent
arkham
flavor
inundated
dairy
derm
jod
pumps
##moor
##cers
##nitz
##fman
##uru
anec
##ifolia
assy
booklet
combust
burd
browning
researched
pays
livingstone
planting
birthplace
contrasts
santana
unfamiliar
jonas
dialog
commemorating
skulls
knocking
natalie
flemish
excerpt
bony
fits
hards
tb
wic
##hra
##igua
defer
bravery
relent
desirable
##angs
titanium
checks
humid
232
admitting
urgent
borg
shelf
paperback
tablets
wonders
polygon
grasses
bosses
remarkably
preserving
eclips
reichs
guevara
##ranes
##arium
##elet
atoll
209
enables
reclass
##ollah
rooted
carac
elis
edith
matsu
skip
##obia
obsession
microscopic
ignoring
strauss
overlapping
longh
harmonies
expertise
gifted
rendezvous
stephanie
inadvertently
bunk
fanny
lime
lanth
stel
##isto
##opic
arlington
##week
mona
##ledo
opus
novak
builder
replen
lucrative
teller
thorium
hubble
grenade
overshadowed
iroqu
tert
yester
##mor
##mod
##bels
##wat
manch
faul
administrators
fairfax
ignore
permits
470
daley
cobain
carpet
seizures
sanctioned
208
bres
longitud
implying
archibald
401
declines
diaries
##chet
dunstan
corporal
777
hello
culp
exploits
##chwitz
riffs
baxter
jardine
unconstitutional
feld
rij
sins
zx
thwart
coma
upro
christgau
imports
uncredited
hoover
telegram
predominant
superstar
delighted
retrospect
spheres
subfamily
cumb
yong
##americ
##othed
thatcher
##osem
clive
elaine
drill
harness
landis
redsh
ported
camping
antit
diabet
verge
punj
rhino
barbettes
nico
polyg
masonry
##frame
obligation
sutton
antibiot
medioc
plaintiff
lobbied
nm
sik
##cile
##kamp
##edo
reused
##anta
##sein
##sohn
wherever
glaz
rockwell
animations
parishes
supplying
590
listener
dictators
anglia
cautious
eminent
falcons
raced
samp
##yb
theoph
##rea
##ethe
truss
intest
carc
##ibus
teaser
reginald
##athi
superf
##hammer
goldberg
reconcile
##gradation
electorate
gp
##buster
##æd
##atore
toledo
##emate
ate
ante
arv
##ipes
##luded
elbow
##onson
loads
repatri
classifications
titular
mores
uncont
legislators
cao
padres
##optera
vulnerability
conceal
facilitated
cylinders
legitimacy
fermi
mitochondrial
sigismund
goose
meadows
medina
refrain
238
rainfor
neutrons
molecule
encountering
anatom
spurred
mocking
saratoga
aquar
hides
nate
yus
##rama
weekends
modeling
owens
chronicler
unsuitable
amphibians
conferred
regeneration
ragn
##cw
##whe
##etz
stras
annih
geometric
socio
confuc
mcgovern
##bee
pleist
hubert
ringo
puls
1781
expectation
parasite
peripheral
schwartz
oasis
##kal
chapp
unauthor
aman
##raf
overland
detriment
counters
petit
sandra
mythological
armenians
mls
hobart
ponies
prostitution
degenerated
compartment
telecommun
faded
##rard
##olet
forfe
brink
shepp
endless
croats
recognizing
faust
##ariat
collaborations
fueled
cinemas
sortie
weighs
ripley
mcgill
wendy
ibrahim
dhar
ect
gird
lm
wired
##avers
blessing
##ahi
raider
smallville
captures
seneca
samoa
rainy
analogy
quarterly
shootout
tasman
mutation
bitch
encourages
definite
monumental
induction
subscription
lichtenstein
mariners
succumb
versailles
tardis
bain
dess
gimm
ucl
vu
##umont
##ppo
notch
##iale
shetland
imposing
internally
labyr
modernization
##sule
forehead
950
1787
dramas
genuinely
sapph
hiking
transfers
asymmet
unconventional
hilarious
##zynski
premiership
zimmer
##horn
##ienne
##uria
##idus
chino
##umen
##asting
desmond
goat
##ribes
barre
famine
routinely
magma
##aldi
wrath
feral
##raine
strengths
unsatis
compassion
kud
##rone
##econ
alps
##emason
blessed
bugs
polyn
exposing
barth
skies
salaries
inspire
##ooner
focal
##islaus
babies
##breaker
52nd
sickness
##niks
inventor
semifinal
kerrigan
ustase
supremacy
diabetes
lied
sells
xer
##rack
##just
forks
rez
desires
##rite
quag
phara
gund
1700
medications
yorktown
##afa
bayon
attendees
mesopotam
wolfgang
dependence
yorke
butterflies
vampires
dundee
bournemouth
mediocre
latt
zerg
##won
##anians
stow
shades
##illusion
##ogl
disillusion
weir
indec
centaur
invasive
cracks
##undy
humble
audrey
potent
naruto
bordered
colorful
logging
##ascular
collaborators
falun
sidel
laughing
ugly
enlightenment
labyrinth
cact
gaut
##mour
sepin
##odic
##ectic
neum
uniqu
##abis
spared
marilyn
usur
underwood
capsule
##ologic
patience
bursts
madame
directorial
vocabulary
corpses
caul
convergence
migrate
fixtures
kimber
rudder
conveyed
macedonian
caucus
chateau
sepinwall
mural
##vich
rewards
##utant
##ksh
squall
mermaid
affirm
voter
eras
luzon
necessitated
ramsey
orbiting
hypn
danielle
mackenzie
auschwitz
lansing
pleistocene
##cus
##gru
inlet
##isi
unac
trophies
229
argon
competent
susque
oss
bella
narrows
scarborough
loyalist
pseudo
councillors
caldwell
c5
foli
gt
pector
sass
##wave
##adt
##otrop
chie
workforce
retract
publicized
humidity
stature
burrow
purity
identities
importantly
reactors
entrances
vowel
resentment
lanthan
mole
##oos
##uper
##nected
##aram
inject
##adors
##abouts
lars
slick
transitions
avi
shortest
motte
##beg
replacements
snowfall
griev
container
cooked
reefs
thornton
wilfrid
discontent
bwv
fatigue
luxembourg
hints
rc
sach
tore
##kowski
##xi
thigh
firth
useless
##000
geneal
217
needle
techno
assemble
aeros
mahler
friedman
supersed
adulthood
clutch
proponents
squarep
buccaneers
chennai
doses
leng
lively
##iard
como
deeds
degradation
shik
disasters
advisers
morrow
voor
doctorate
cocaine
jubilee
smithsonian
gage
lid
pills
zhou
##aghan
sein
contamination
##onshire
maud
possessing
propriet
salts
285
penis
roberto
dominic
frequencies
layered
favorites
caen
distinguishing
hindered
737
katy
vegetable
onward
itza
seoul
shine
sheen
cologne
##linger
differential
molars
tanker
##engthen
rhyme
brandenburg
pige
ceasef
cartoonist
validity
sarajevo
sgt
uneven
triton
bk
cds
jockey
##dar
##edience
guill
chee
localization
troll
irvine
ecu
handsome
courier
vernacular
revelations
interfered
pizza
narciss
gadd
##bet
##ayne
##estown
reside
blink
milford
awarding
soundsc
popularized
injection
32nd
complaining
intensifying
mortars
1779
jenner
whitman
byzantium
thunderbirds
transitional
noticeable
athenians
weaknesses
detonated
pardon
nocturnal
iroquois
ead
hels
kern
heels
##illus
notor
housew
circuits
richie
narration
beatrice
gotten
purchases
savannah
rescues
delaying
767
culver
obstacle
marceline
baird
tf
vt
flux
##athing
motions
professionally
awful
ridden
reflections
gilmour
540
ventilation
1900s
balkan
cigarette
reworked
entrepreneur
pigeons
cork
fuse
taped
##ecia
##antine
abel
musket
coloss
brows
juno
colloqu
skins
skiers
squares
lawsuits
veins
creativity
##umbling
##iosity
yardley
llan
weights
rudolf
reluctance
nurses
gemini
aristocratic
epsilon
rhetoric
dap
kali
miser
##heid
##omatic
##acruz
##alla
server
parv
soy
peach
matric
designations
caste
##aiman
hostages
muddy
analyst
subsidies
rejoin
spitfires
reliability
kriegs
frankfurt
gus
wint
##crew
##eaux
##educt
thie
chairs
##ags
filmography
portfol
##iken
252
comparative
jesuit
zeus
chetnik
prophecy
dare
daring
hats
##mot
##zier
##atio
fran
intends
thrill
drunken
##anking
simmons
##anca
barges
greed
impart
lae
bowman
sampling
burnley
##lights
abandonment
##namara
banquet
spectacle
taller
##escu
rabaul
konig
prologue
bastion
antibody
blamey
escalated
##combe
uter
werner
##hil
##pad
##ifix
prat
brakes
grams
bliss
##phones
slovakia
##ups
calig
228
##opsy
ballard
informing
waist
rowan
520
mandela
sculpted
parameters
remarking
stallion
botanist
discourse
filipino
narratives
prerog
nug
ohl
##rish
##atitis
##arty
scent
amman
revital
slovak
##iamen
royalties
ballroom
escorts
veracruz
josef
disappears
bcs
hypot
flanking
##angelo
flexibility
assigns
pusan
horton
consortium
pornography
##anj
##acio
stard
chassis
troupe
alliances
centenary
filmfare
thresh
monter
recorder
mainline
merlin
moose
shotgun
odor
banana
calcutta
corresponds
680
shearer
vertically
feminism
ornament
deteriorating
petitioned
flourished
prefecture
arjona
extraterrestrial
obituary
wainwright
bors
henn
hinted
tj
##rak
amtrak
coen
##grave
phi
lett
pathway
challenger
attribute
dubrov
720
shrub
shocking
aqueduct
sigma
manifesto
applicable
ultravi
showcased
torrential
eats
kink
ndh
tsu
##inters
##aras
sek
shat
herring
incurs
caric
strains
invite
famously
bestowed
confesses
handel
212
sums
announces
greenhouse
literal
compliment
rodden
treehouse
mackay
wreckage
prostitute
catastrophic
inaccurate
uruguay
biod
iter
sihan
tile
##vil
##jav
##alom
##aying
unification
roost
##atts
angus
roma
freeze
brotherhood
##ermo
contractors
approximate
fantas
##factory
dwind
1774
kelley
megad
marquis
landslide
peppers
nissan
raptors
pharaoh
squarepants
bn
ein
sot
wakes
##hoff
##rt
##icy
##adder
##ocl
upbeat
coler
edged
divas
barns
finalized
calhoun
royalists
palmy
rupt
vera
doctr
batavia
olympus
gilligan
pigment
conspirators
constituent
beauchamp
ascended
anterior
yacht
##alyp
heel
##akan
unlo
spru
spanned
parry
edg
creed
##atorium
fielder
popularly
apex
hillary
candle
niche
rubble
katie
corrected
controllers
crucifix
neurol
evaluate
bootleg
metabolism
ostensibly
90s
ole
##uen
##ono
fries
chong
chips
oricon
##qua
imb
safer
shipw
swarm
standout
northerly
woodstock
melted
emerges
undoub
dunes
namesake
42nd
misch
cooled
pinfall
bridg
navigate
prospective
icons
detectives
emanuel
ptol
chetniks
indefinitely
fancy
hain
beacon
anark
##arten
caret
defens
populous
specialised
duct
biographies
##werp
bottles
oakley
capsized
exacerbated
ceasefire
sihanouk
pang
sb
sire
##aski
##odrome
prud
adren
finite
emile
mathew
crushing
##raph
convent
gunner
antagon
positioning
##aean
dunk
pollen
orchestrated
conscription
gangster
illegally
coordinates
fernandez
evangelical
hotspur
unreliable
undoubted
cen
gj
lull
penc
wen
yel
##wara
##pill
spaced
##aste
scav
organising
historia
irons
malone
##liner
empir
olig
cmll
immature
heroin
dvds
advocating
pyg
loaned
braat
bamboo
convenient
unfavorable
unseen
ging
##hequer
##elier
204
mang
praises
stripe
exchequer
raph
mustaine
recognizable
pastoral
undis
minimize
nagasaki
asserting
prosperous
incompet
remembers
kafka
yesterday
unaccept
##four
clones
##quito
perished
uphold
tej
endings
mined
posture
farn
pressured
##coe
injuring
meaningful
litigation
utilize
hastily
receptor
repetition
crippled
roddenberry
cg
lill
nou
##pack
##esian
##eliness
##ecker
exited
contenders
attach
##prints
phall
defunct
juxt
##onyms
216
249
consistency
##marked
accompaniment
transforming
soror
pelop
nerves
sporadic
skeletal
hedgehog
transparent
comrades
##alypse
gown
iod
tuc
##imar
herds
residency
elton
##tones
millionaire
replies
##hampton
pursu
garris
narrated
closes
latitudes
325
interacting
oaks
fishery
murdoch
stemmed
mathematician
graffiti
blizzard
pectoral
ji
sorts
ufc
##hang
##bled
##inate
forage
unpa
spill
spikes
outspoken
##aceut
estonia
expulsion
antwerp
moors
earls
##uku
darryl
##osaurids
steamship
fractured
ppv
wizards
honda
chevro
foliage
bok
dared
atkinson
ansel
monolog
##nington
neared
discern
##classic
topography
##heny
natasha
toro
credibility
occupants
34th
mentioning
trustee
spectator
disciplines
executions
furnace
aggregator
spoof
luminosity
tattoo
cues
fs
lh
lining
lilly
panned
##makers
##aen
##orously
##etown
arising
##onda
coats
interlude
blows
elsa
terrific
cheet
waterways
##aughty
alexios
rosenberg
welch
sentimental
unemployed
##nasium
pawnee
disqualification
envelope
incapable
intricate
mish
##eo
##jor
##oner
androm
hezb
clitor
marches
##ahaw
magna
auditions
granddaughter
woodlands
northernmost
bridgehead
gardiner
sustaining
coolidge
acknowledging
crusader
heirs
dioclet
grabbed
hott
nail
##yder
##pani
##ivities
##odian
unequ
hadn
##ellular
scaled
teens
##uges
schul
backward
concussion
imply
justinian
rae
titans
ledger
##neg
clements
sentin
motive
encore
erad
depressions
olm
taliban
collaborate
linden
vacated
naive
sorcer
luton
deterioration
transcription
periphery
deutsch
reeves
befriended
slovenia
oryzomys
unpredict
diocletian
mama
##lius
##jans
##icultural
##stairs
ornam
##ocles
graf
statewide
gladi
spee
readiness
insec
bodyguard
liberated
transforms
patrolled
910
consultation
renault
thoroughbred
hammerstein
tumor
middlesbrough
pledge
dopamine
skeletons
regulatory
cutscenes
ultraviolet
garrisons
loth
rector
yun
##iq
##des
asi
whal
##umar
wey
boog
detract
255
nighting
excuse
322
splash
cube
chemist
attorneys
klaus
ribs
goebel
goebbels
apprentices
astronauts
neumann
megadeth
eject
##rans
##jet
inequ
##itra
##oway
whaling
##chool
remedy
##ausible
terrier
winthrop
provocative
organizers
believ
lima
palaces
businessmen
briggs
rodents
jules
cephal
tamar
aggressively
hogg
neptun
inverted
magistrates
juxtap
hezbollah
fade
nant
pf
yemen
##vir
##icer
stav
neat
arthrop
carv
elgar
monoc
idi
lax
octopus
##ominal
kramer
ivory
scheduling
misf
philippe
tuition
sights
yeoman
marquess
recaptured
flawed
gis
nib
ingl
brighter
incar
canoe
musk
quasi
countess
invasions
##ullah
rockstar
behave
luigi
establishments
assemblies
darling
bounded
stephenson
dietary
gentry
behaviors
bulkheads
sustainability
tillman
lobbying
barrichello
hammersmith
cb
docked
ropes
##kick
##vald
##icians
##adar
##agle
##rious
maroon
smythe
modelled
stepping
commandant
affiliation
262
encro
wounding
stockport
senses
bishopric
shrubs
mysterio
alkali
voluntarily
ceramic
relocate
disgust
bauer
rica
tires
##iov
##kap
##zas
ther
##ptions
parodied
##ucher
grouping
henrik
fundament
galland
fearless
sensational
kalam
spontane
recapture
kriegsmarine
jared
jelly
korn
poc
sval
##ept
##aise
##lace
##uky
##iland
##adas
angr
##umer
arched
enraged
##gean
brac
agn
northampton
##leys
builders
##closed
massac
tarant
compliance
jewellery
batters
karma
pickett
babe
santo
mandated
townshend
bypassing
geared
##opposed
fascinating
hannibal
archety
toulon
sabotage
waffen
algebra
bump
unopposed
incis
poses
detain
interned
crossings
southernmost
commentaries
libel
reinv
mutant
psychic
orioles
otis
vulgar
yields
gymnasium
##fuhrer
summerslam
adorned
70s
ail
dief
##agos
ort
##gender
recoll
intend
buc
##ieri
steered
majest
volatile
234
sanctions
ironic
dunham
mosley
reinforcement
crisp
roche
fascinated
ponds
tetr
stamford
##omorphic
awakening
pivotal
##oglyph
chevrolet
kers
rf
vista
##vation
##jak
##esque
##imus
claw
manzan
percept
##plain
offences
flocks
indist
minig
##ipple
233
economist
biom
robes
dynast
psycho
doubling
980
##radar
preface
procure
livery
scorp
reorganization
foley
desperately
rahman
coventry
forcibly
##ocytes
braathens
diefenb
kut
kolk
mce
tutor
##22
foresh
2020
trich
brant
abort
amelia
battling
##fulness
servic
hurd
sniper
wrestled
sundays
sinister
reunite
ayy
picnic
nikki
easterly
insisting
hodg
overseeing
codenamed
appalachian
dubrovnik
diefenbaker
gator
ia
kors
panch
##iry
clamp
fend
outcomes
empl
continents
schooling
##obo
lowlands
duly
madh
qualifications
darlington
##writers
pulmon
rubin
transmit
rudd
recipe
burials
shakur
laguna
denominations
viscount
longitudinal
##tong
##ldon
trun
grains
alloc
flute
deficiency
setlist
dives
downfall
correction
militants
##enthal
embank
hawker
imperf
battered
1782
hinduism
fertility
hilary
reclaimed
nonsense
dazz
qa
tama
##jin
##icable
##andum
weaving
##encement
testify
questionable
shareholders
crowns
exclaim
dilem
phosphate
anaheim
restraint
tibetan
yahoo
lumpur
ganesha
albatross
reclassified
fost
hilton
sasha
tess
scare
capita
obverse
refitted
211
sumner
summed
mori
covert
donovan
paine
erich
panhand
walters
logistical
whitlam
shrines
mystical
pulls
scrub
fortresses
denny
consolidation
bethle
aubrey
hakkinen
revisited
insignia
arbitrary
cancellara
pets
##pen
anonym
exiting
disob
cared
underparts
gretz
demobil
superficial
fielded
##itaries
verdi
sirius
logar
alias
textures
stephens
heightened
variables
compressed
brightest
dresses
##changing
konigs
sparks
rpm
bengali
consolidate
fingleton
gastro
encompasses
hazardous
cemented
pharmaceut
undisclosed
mord
rite
rims
xavier
##eau
##zep
##48
##anelles
##utic
##ayas
##ptive
disabilities
fines
##fton
crested
molar
etat
sedu
diagnostic
paramil
kidnapping
hieroglyph
crustaceans
metabolic
haunting
scandinavia
toilet
angrily
gail
gild
tau
wł
##top
##kle
regroup
##utable
integ
##olls
elena
quinc
saunders
schu
receivers
##otto
radcliffe
frontman
separates
semester
determines
fatim
reigns
tallon
unlocked
shouting
jorge
aegean
pablo
incarcer
svalbard
bethlehem
bites
##zhou
##atable
shab
amusing
commencement
defects
##ikos
magnes
squee
humber
militant
solos
roundabout
injust
##ushi
reflective
recommissioned
cello
bronx
bibli
receptors
lydia
sidelined
nightingale
cess
gently
jeter
mapping
##zef
stacy
seizing
outset
drastically
polyp
##ysław
myr
programmed
peterborough
certainty
masked
cavern
directional
mosquito
conditioning
locker
bunny
dictated
stylized
strokes
mormon
forerunner
chieft
zappa
##cat
##tis
##elian
forged
##estones
seph
abused
offseason
bloss
knees
##grav
schn
redund
gregg
reputed
myrm
raff
##affected
burgh
juda
benoit
vanity
hussein
dedu
josephine
spinner
gaunt
broncos
utilizing
poisoned
ryder
rushes
dawla
##keepers
tyrannosaurus
undermined
clapton
staunch
ged
lore
nah
##oin
reinc
whigs
##antically
liam
##full
##inched
cheers
handing
colonization
rosem
slept
mortimer
miley
eliza
pinch
licenses
liszt
wagga
nuts
panther
frustrating
compromised
daddy
kruger
prevalence
inconsist
restrained
uploaded
bov
nansen
zig
##gement
##fig
##erian
##orb
##osures
thrash
simulated
harlan
##obe
shortstop
rests
markham
flees
purd
##araja
disperse
baba
sensibility
740
metropolis
dangerously
diplomacy
andreas
sibelius
gotham
ruthless
honeye
choreographer
francesco
satisfactory
inconcl
masculine
coss
kopp
mald
tand
##adia
##agin
##apul
##iste
scared
mangan
shea
coel
formulated
modify
famitsu
markers
leth
holm
wilkes
lowering
alexis
digits
suspense
ironically
oversight
entrusted
polymer
botany
selectors
aleppo
orchard
undoubtedly
bids
ewing
ostr
sain
##iating
##56
##arp
fraz
schen
##plet
flock
##ksen
loxton
##eneuve
antan
ordained
revolutionaries
343
surveyor
aztec
sidd
##broken
tastes
aristotle
nominees
caucas
andersen
bp
fiber
javan
##thia
contended
##ondition
liability
avid
blackm
##byn
chaplain
synonymous
##ographically
recalling
encompassing
marxist
mozart
catalyst
elliptical
caudal
dracula
gretzky
fia
rm
sj
##rador
##pher
##ouin
##ionage
conject
brat
mew
genital
pee
presiding
##hne
polym
showrunner
famed
steph
sunrise
##writing
concentrating
clarinet
greyhound
gibbons
manipulation
beckham
annoyed
apocaly
vassal
refurbished
aol
cute
kathy
##atism
##avis
recuper
intu
gamepro
posing
##alea
hume
##heng
organise
archdu
imprint
wilder
drumming
strategically
pathways
adjutant
luna
otters
hobby
dlc
jewelry
schmidt
cey
wary
##uaries
##arum
##olation
##iduous
##seau
resh
timed
schooner
crashing
##parents
woodward
##resses
osborne
integrate
polyt
1758
leno
anchorage
engraved
bolivia
hijack
dispersal
ransom
anarky
aali
kah
wich
##onius
thru
##okovic
agon
##ibu
schult
slap
eastwards
demean
##berto
219
modernist
strife
snyder
denoun
macro
grooves
cannabis
springsteen
##zzo
unfold
rugged
forbade
disturbances
mimi
xxx
dissatisfaction
nectar
##intyre
tup
##adilly
pras
##idea
##plan
weinstein
obli
##iversity
roadways
glitter
cheating
propri
helpful
volks
##ettled
balcony
coldplay
loris
cobalt
acceleration
erratic
stereotype
chaluky
remembrance
solicitor
dardanelles
dynasties
hatt
haf
##gum
chatham
nationality
avro
##ussen
legions
parkinson
##afe
labrador
apache
sita
bowen
pacing
burnett
tuning
slea
510
hearst
abdominal
seeded
sneak
rallied
tikal
##volent
nellie
python
coherent
pork
poured
zar
##human
##orical
mari
##reep
wei
playground
perspect
directive
classroom
eukary
membranes
cyril
christchurch
superiors
grandchildren
##zew
screenings
sighting
disciples
djokovic
posterior
fucking
phylogeny
vh1
susquehanna
aaliyah
cough
meck
rave
rother
##orah
shp
chariot
##athus
##iero
steg
##esee
burge
projections
ballots
villeneuve
rebirth
urg
biochem
excurs
faire
espionage
##agoons
novelty
lieber
##ajo
fanning
buyers
ayles
executing
assertion
idolator
gorgeous
apocalypse
tusc
##cell
##path
beeth
207
##bergh
recomb
allman
imitation
coe
expands
barbed
harrier
headlines
glove
explode
paige
firepower
237
derive
terminator
sensory
adapting
sutcliffe
reservoirs
##roscopy
bounce
interrogation
sewage
handicap
subdued
piccadilly
moy
teng
##green
##stood
fring
araf
priced
##asta
##geon
afi
##ogg
##ignon
marred
weis
##isma
morse
differentiate
221
veil
productivity
plotting
1784
acidic
unpro
khanh
loyalists
switches
swinging
serpent
maharash
detachments
secrecy
reznor
threshold
aet
rt
rue
asex
##anders
##ako
unspec
spieg
##astics
clocks
mares
##rites
finely
preaching
##aille
quo
edict
originality
locality
sonata
devoid
activate
spotnitz
banjo
brightness
bidding
unpubl
mudsl
temporal
krajina
wandering
abbreviated
mughal
unacceptable
antananar
##mings
##chens
framing
unpleas
spies
##ouses
##plets
offended
carrie
knot
schles
tern
menace
curry
fleetwood
martins
contributors
violating
60th
applause
bolster
anarchy
puppets
phonographic
inevit
boulder
dell
rental
sails
##note
##wester
##olulu
seac
untr
recounts
residing
simeon
##iku
differentiated
227
224
archaic
reactive
precinct
packaged
utilities
fuji
mackin
ernie
rejecting
ausp
denomination
pembroke
disadvantage
vukovar
caretaker
cheetah
beethoven
db
fitt
gom
ping
zer
##oire
##atu
shill
peruv
quay
minus
inviting
obes
redef
redding
impass
253
##balls
viewpoint
whitehall
histori
265
ratification
vegetarian
dickens
sylvia
caterpill
algeria
schizophrenia
aisle
dib
lange
siding
zir
##yx
##kiss
##orpor
##aryn
brab
grasp
elastic
thromb
basing
##erne
raft
evenly
initiation
##brate
trojans
judah
##tti
ultimatum
distributing
mupp
mosaic
##uffed
mythical
advisors
forbid
traction
swamps
komn
moths
selenium
elisabeth
prerogative
antananarivo
kop
vows
##odus
heron
fender
##izal
roh
indicted
highs
distortion
##ucent
delic
valky
morg
trey
argyll
keyes
tarn
envoys
395
grizz
automated
tanz
swiftly
prolifer
laughter
sakura
randomly
drifting
moresby
rd
##croft
##eger
##iantly
##arra
coated
flaming
emulate
##flower
##isexual
christi
irres
hyster
excommun
quests
412
sherlock
tripoli
intentional
cemeter
evidently
##gettable
reversal
contradictory
a2
jams
lus
lash
pue
turing
vat
caring
carmel
attire
invari
curie
256
mcnamara
##ommitte
esk
##aptor
benign
hospitalized
molt
prosecuted
##iciencies
760
hydroelectric
implicated
baths
traject
quadrang
lagoon
asteroids
stunts
##isenau
abbasid
hormone
phyllis
coleridge
kolkata
cemeteries
joked
klan
oun
##otov
sewer
phar
polonium
advise
quicker
latino
dominating
prepares
distinctly
collaborating
0600
surely
alcoholism
overwhelmingly
cruelty
peacetime
melancholy
gneisenau
gaddafi
apocalyptic
fumble
gems
##isively
##urgy
##ainen
brains
interiors
setup
antip
merits
circulating
sams
awake
entertainer
bordeaux
raynor
drafting
packers
banning
collaborative
syndicated
tanaka
heraldic
docking
accelerate
memorandum
slavonia
ascending
robbins
unfortunate
lombard
promoter
toshack
tunisia
hernandez
freelance
juventus
confucian
fist
pads
wre
##leston
##ulously
brund
evade
deciduous
boiling
knives
drilling
gujar
crease
steward
stevie
augment
convictions
##psy
projecting
honesty
mcne
rebelled
##iffle
757
sevast
horsesh
translates
##ymouth
conscript
cantatas
##burne
usaaf
chancery
bulletin
adequately
souven
exemplified
emirates
unimpr
paratroopers
raphael
sentinel
perspectives
ff
gour
gaw
kis
##itans
progen
unhe
##ipedia
abusive
upbr
epa
##uchs
glow
gluc
radios
projectiles
nominally
##gaard
risky
emphasizing
domestically
tellur
calculation
labourers
naomi
behavioral
megami
razor
bjork
pharmac
bulldogs
inflammatory
smuggling
hottest
fod
##has
##arine
##ouf
shining
drains
doi
steer
calf
303
waterfront
electrop
fireworks
231
suns
migrants
virtu
sediments
sadness
commemoration
nomadic
lizards
vertebrates
psychiatrist
beebe
amphetamine
convenience
disapproved
weinberg
seismic
sinai
thessal
resupply
unpleasant
izz
##mant
##requ
##ecost
stumps
aloud
##thi
trac
##iani
worcestershire
incl
commence
##achim
##rops
retic
matte
governorship
harassment
starvation
commandos
realise
##horse
animator
273
costello
paler
hymen
355
banker
astros
compression
papacy
grossman
kingship
substantive
lockout
felipe
poisonous
algae
resurgence
stallions
pentagon
lamps
laund
skirmish
mussolini
disregard
gimmick
unpaid
unpublished
nf
##lio
##aland
foraker
##otron
chill
afro
##ormann
##ribution
maure
simone
lohan
glor
weekday
equatorial
watford
crock
faure
irony
kilometer
imaginary
lorenzo
ricketts
evolving
neurons
dwellings
alvarez
brennan
imaginative
nd
pots
##enton
##oler
##ushes
trous
##ustomed
hasan
outraged
teaches
southwards
efficiently
collisions
entertained
soluble
africans
removes
frankenstein
arranging
doorway
alienated
shearman
congregations
stalemate
subcommitte
kathleen
tungsten
konigsberg
fatty
guth
jovan
lenses
m1
pg
pv
##47
adler
##assa
weymouth
buk
esther
gamesradar
specialists
holst
rebound
researching
haakon
attracts
1770
dimorph
pedig
pageant
alleging
pyro
manipulate
supers
prosecutors
mollusc
sacrificed
rabbits
wład
##westerly
ew
fion
ux
##lar
##liche
##45
reaff
peri
imax
remed
monograph
casts
freemason
churchyard
volta
devout
circa
hopeless
melina
bulge
asth
columbian
wedge
sabres
huntington
rigging
kuwa
obscured
anglesey
